[UNK]
[CLS]
[SEP]
[PAD]
[MASK]
[BLANK]








!
"
#
$
%
&
'
(
)
*
+
,
-
.
/
0
1
2
3
4
5
6
7
8
9
:
;
<
=
>
?
@
[
\
]
^
_
`
a
b
c
d
e
f
g
h
i
j
k
l
m
n
o
p
q
r
s
t
u
v
w
x
y
z
{
|
}
~


¡
¢
£
¦
§
¨
ª
«
¬
­
¯
°
±
²
³
µ
¶
·
¹
º
»
¼
½
¾
×
ß
÷
œ
ʼ
ʾ
ʿ
ˇ
ˌ
˙
΄
α
β
γ
δ
ε
ζ
η
θ
ι
κ
λ
μ
ν
ξ
ο
π
ρ
ς
σ
τ
υ
φ
χ
ψ
ω
ϐ
ϑ
ϛ
ϰ
ϱ
а
в
г
е
и
к
л
н
о
п
р
с
т
х
ц
ч
я
־
׀
׃
׆
א
ב
ג
ד
ה
ו
ז
ח
ט
י
ך
כ
ל
ם
מ
ן
נ
ס
ע
ף
פ
ץ
צ
ק
ר
ש
ת
װ
ױ
ײ
׳
״
،
؛
ا
ب
ة
ت
ج
ح
خ
د
ذ
ر
ز
س
ش
ص
ض
ط
ظ
ع
غ
ف
ق
ك
ل
م
ن
ه
و
ى
ي
٠
١
٢
٣
٤
٥
٦
٧
٨
٩
ٯ
ڷ
ݝ
ᵃ
ᵈ
ᵉ
ᶜ
ᶠ
᾽
᾿
῾
​
‌
‍
‎
‏
‑
–
—
‘
’
‛
“
”
„
•
…
‪
‫
‬
⁠
₂
₃
₇
₪
№
⅐
⅔
⅛
⅜
⅝
←
∆
−
⋅
┌
╔
□
▪
△
▽
○
◌
★
☜
♦
♯
⚄
⚬
✍
✡
✭
❖



































ﬠ
ﬡ
ﬢ
ﬣ
ﬥ
ﬦ
ﬧ
ﬨ
ﭏ
﻿
�
##w
##c
##7
##p
##n
##g
##6
##ב
##י
##ת
##"
##כ
##ד
##ו
##ר
##ך
##פ
##m
##e
##5
##ל
##ש
##נ
##ם
##ה
##ץ
##ο
##γ
##χ
##ι
##ν
##ק
##'
##א
##מ
##i
##z
##ע
##ן
##l
##0
##ס
##ט
##ג
##ז
##8
##d
##k
##a
##b
##o
##צ
##u
##f
##t
##v
##9
##r
##y
##3
##4
##ף
##s
##2
##q
##j
##1
##x
##h
##ח
##ε
##λ
##װ
##φ
##α
##η
##‎
##<
##π
##δ
##‬
##٢
##٨
##ײ
##׳
##τ
##μ
##υ
##ω
##.
##&
##“
##,
##(
##[
##/
##σ
##ς
##*
##
##>
##:
##)
##ψ
##ρ
##κ
##β
##ﬥ
##‏
##=
##ﬠ
##_
##ا
##ي
##ط
##٦
##١
##
##?
##٧
##٩
##+
##µ
##-
##״
##ر
##د
##–
##]
##ف
##و
##ص
##ب
##ح
##
###
##!
##م
##ل
##○
##;
##ز
##ن
##ك
##ة
##׃
##θ
##ξ
##٣
##и
##х
##о
##н
##р
##а
##в
##٠
##ζ
##♦
##ﭏ
##ع
##л
##е
##‘
##º
##ϰ
##س
##¬
##‪
##־
##…
##خ
##|
##ч
##я
##
##
##
##
##
##”
##ق
##$
##٤
##ᵉ
##ᶜ
##ظ
##ц
##°
##¨
##‌
##
##{
##٥
##ه
##⚬
##ϛ
##ױ
##ج
##ڷ
##
##
##˙
##ت
##ﬨ
##☜
##•
##ᵈ
##غ
##‫
##ﬢ
##’
##ß
##✍
##׀
##ª
##
##œ
##ض
##ش
##
##³
##ᵃ
##«
##ﬧ
##%
##ﬣ
##
##—
##ى
##~
##
##
##✭
##
##
##­
##ذ
##‍
##
##
##
##\
##ϱ
##ϑ
##п
##
##к
##ٯ
##ᶠ
##^
##ʼ
##ϐ
##@
##·
##♯
##﻿
##}
##׆
##ʾ
##​
##ות
##ין
##ים
##רי
##ור
##לא
##ינ
##יה
##מר
לא
##יו
##ול
##יר
##וא
##ני
וא
##שו
##ית
##יל
##בר
על
וה
לה
##מו
##רא
וכ
##יא
##"ל
##וד
שה
##נה
##תו
##ינו
##שה
##לו
##יב
דא
##רו
##יד
##מא
##מה
שא
##נו
##י'
##רב
##כל
##יש
##בל
##מי
מה
לו
המ
אח
##זה
הוא
הא
של
##"כ
##וש
כל
##על
דה
##"ש
##פר
או
##תב
ומ
##שר
וב
##ו'
ול
##יק
בש
אלא
בה
זה
את
מש
במ
בא
##וב
דב
יש
##"י
##יכ
##עת
הש
##וי
אם
##קו
רב
##"א
שב
ולא
##נא
</
##מן
לע
##כה
אבל
בע
##ון
שמ
כי
##תי
אין
##וק
למ
וע
##יע
##ורה
##"ה
##אי
##וה
שם
##נן
##"ד
##נים
הב
##יון
##לה
##די
##צא
שכ
דמ
לפ
אי
שלא
##סור
הר
הכ
##וס
##"מ
הע
אמר
##שום
##נין
הת
מע
אפ
##דר
##יט
לב
##שב
רא
הנ
שנ
הג
הק
מצ
##יח
משום
בד
##ילו
##מת
עד
##יי
##ינן
לח
הל
בפ
אל
בת
דלא
מת
מח
##ריך
##מים
בח
בס
הח
##"ז
##מע
##ותר
מד
כן
וכו'
ונ
##שא
בר
הד
יו
אות
##תא
##עה
##כר
אחר
##דו
מו
מא
היה
לכ
##"ג
כתב
לש
ממ
##כות
##ברי
כא
##ילה
בו
##לי
##"ם
##"ב
##נות
##יכא
דל
יה
חי
##ראה
##ינה
ז"ל
##כו
##דם
מק
גם
אף
##מב
##פק
שהוא
##בה
אינו
##שים
##קום
וכן
##חר
##פס
##צה
כיון
רק
לק
##שת
##זר
##שון
דבר
כו'
##בד
ליה
##ראל
וד
וש
הי
מן
פר
לד
##בי
##מרי
דכ
שאין
כמו
##"ח
##לק
וג
דר
##שות
##ולם
בב
##פי
##תה
##טע
##טר
לומר
פס
הרי
היא
בג
##זק
##אמר
##שי
כד
לי
##מות
וח
דברי
דק
##יתא
מב
##"ק
##טל
##תח
##יין
##כול
##"ע
##at
בזה
הרא
##ופ
זו
##נת
##ma
##פיר
##יהם
##ודה
##וף
##תוב
שע
##ימן
בין
##סת
אחד
אב
בק
מל
בכ
##תוס
ואם
עצ
##ll
בכל
מי
##"ת
##מד
sma
small
##ולה
הוי
מפ
##רה
##כי
טע
##דש
שו
##יום
מכ
##מב"ם
##חו
לג
="
יד
הס
##ש"י
עליו
##ירו
ישראל
##ירה
##טה
הו
אומר
בעל
הה
בל
וק
##מש
##תיב
נמי
##נס
כש
##ירוש
שיש
##חת
ואין
שכתב
כלל
##"פ
##צר
##עו
##חה
צריך
##בת
מס
דהא
ות
##"ט
סימן
##"ו
##יהו
אפילו
##את
##דה
##בו
יכול
נת
לפי
ה'
עו
דע
עכ
דס
##יני
##פל
וזה
##יות
הרב
##תם
##ציא
בנ
##כן
##פה
אשר
##ביא
##טור
##ata
אסור
##עלה
data
##מ"ש
הפ
חייב
##יתה
##עשה
##יים
##וקא
כה
##מרינן
##רץ
דרב
##ומר
סי'
אדם
כאן
ית
דף
##עי
נק
##מוד
##טו
דח
עם
ור
><
##מור
##צו
לאו
שי
והוא
וי
##גד
##אר
##תוס'
כך
שח
נראה
דש
דג
##זו
##חד
שני
הרמב"ם
##מאי
##חות
##פש
אותו
##דוש
מותר
לת
היו
דאין
ביד
כנ
גד
##מצא
##ייב
להם
ויש
כר
##אה
וא"כ
מקום
מפר
פרק
##ודם
##תני
ר'
לר
ואפ
##של
פי
מר
##כא
חו
##כת
##בור
א"כ
##ורי
היינו
איסור
דין
##מ'
יע
הם
בית
##"ר
##"ן
משמע
רבי
##בוד
וז
##יתי
##גו
שאינו
נא
כלו
טוב
##ינא
##קה
בני
##כח
##יינו
יום
##ואר
##שוב
##ורים
##רוב
##סר
עוד
כדי
##גל
שאמר
##קב
##טעם
##צד
##גי
ע"ש
כו
##"ס
##יקר
בי
##רוך
להו
##קים
הכי
בלא
הז
מ"מ
##חל
##נם
וגם
עצמו
ברי
דעת
רו
##ירות
##דים
שת
שבת
##מין
למי
##"נ
רבינו
##הם
##ואל
בן
##ותו
רש"י
שק
מפני
סו
##לוה
לך
והא
וכל
ומה
שמע
ודאי
יוס
##ברא
נכ
דו
דמי
שיה
##תוך
אז
##ברים
שפיר
##מיד
##עות
וס
לענין
##מרא
דנ
##ברך
ע"כ
##בא
שלו
יותר
א'
גבי
יח
##כים
##ot
מאי
הכל
שנא
בשם
##כין
##ולי
##עים
דאמר
##פרי
ג"כ
ואף
שהרי
מג
לס
אפי'
חכ
הלכה
קודם
##ייך
תק
גב
##דא
חל
אפשר
##פו
ועוד
##פות
##ער
מיד
אמ
##טב
תורה
כג
ב'
טו
המו
##חים
##פרש
דוקא
##חק
אלו
התורה
##ידוש
דת
ועל
##מאה
אחת
אש
עכ"ל
##טא
בז
##צי
למה
##תן
ע"י
שהיה
לרב
להת
שמא
ואמר
ופ
והנה
לאחר
נח
##לוק
וצ
##רק
מנ
מכל
##ודאי
ועיין
וכתב
דאי
בפר
##לות
##צת
לעיל
##לך
##ירושל
במקום
אצ
הלכות
האי
התוס'
אך
##כך
##שיב
שייך
לכל
דד
##זיר
כמ"ש
##ואה
יב
מלא
לעשות
##פת
ואי
הזה
המש
הוה
הנ"ל
הדין
ידי
גדול
##ירא
עיין
##מון
אה
ממנו
##רע
עליה
שבו
די
##er
##ורש
ספק
##ונה
##פא
##nt
ולה
דאפ
אני
כבר
##וג
##נית
ביום
##שמע
ליש
אמרינן
הכא
##חן
להק
צד
ברא
לשון
אחרי
נפ
##כב
עב
##רש
דאם
##שובה
מהני
ד'
##ודע
##צות
תל
מצוה
##רבנן
##ולין
שאם
לנ
בהם
תו
##שאר
יהודה
הנה
##ורא
##"ך
בשבת
></
##כם
##or
##קי
משה
##קד
מז
##שב"א
##דות
##נאי
ג'
דפ
אמרו
דברים
ולכן
עשה
אס
כגון
איש
דכל
##רים
זמן
##סה
##ניו
דרך
אלה
מעשה
##ירושלמי
לפני
ס"ל
##דרך
קט
##לם
##me
##לת
עדי
##ורות
כס
שהיא
דהוי
##ותן
##om
##ידו
הצ
##שית
התם
אינה
כשר
י"ל
קשה
וז"ל
##טמא
##זל
חזק
יהיה
הי'
##אן
פי'
ממש
שש
וגו'
קרא
סב
הן
יא
##נהג
ולפ
##ment
חלק
שיע
com
comment
##ator
commentator
##כיר
פטור
##רות
דס"ל
צרי
##ורייתא
##ינם
להיות
לית
##ורת
מפרשים
שנאמר
##ילת
היתה
שהם
##בע
מדברי
##חי
##בירו
כלומר
##זור
הפס
כתיב
קאמר
אע
לזה
שג
פיר
ורב
דכיון
לנו
יצ
ואינו
אכ
##יטה
נאמר
במה
איכא
##פט
ני
##נאה
##מוך
הדבר
נה
##עיל
##מיה
##לים
##רונים
ובא
##יף
בשו
##חמ
##ירי
##סק
הרא"ש
שום
##ורך
כח
המק
##ינים
##רון
##יתר
תח
##יבא
##ידי
##ובה
משא
כתוב
יצא
נו
נש
היכא
דהיינו
חס
יק
ואח
פע
##גה
##ניח
הביא
##יתו
##זיק
##רומה
אותה
בשב
וכמו
כשה
אנ
ראיה
##רת
שנים
ד"ה
##רקע
אד
##בין
מזה
##צוה
תה
יוסף
ראשו
##יוב
##צמו
##זכר
תוס
##ובן
שמו
שול
דכתיב
##יטת
טעם
##יירי
##לח
עשר
כמה
תר
דרבנן
ערוך
##ימ
##ידה
##rd
חמ
ומש
קדוש
ואפילו
##בלי
ביה
במש
כמ
ידו
לעולם
שכל
ראוי
קד
ביא
תש
בט
טעמא
יוח
אשה
דבריו
מ"ש
בצ
##בח
ע"ב
והיינו
ס"ק
בפרק
משנה
##וסקים
קוש
שכן
אור
##יעה
שרי
שנת
חד
לן
והר
בדבר
רוב
טה
##rder
order
לל
נמצא
מחמת
וכיון
פש
מצות
עדים
פסוק
דמה
##ote
אתה
לדעת
יר
##שוט
##כס
אמנם
##לוי
דיש
למימר
אנו
##שיו
בשעת
##רבה
##עין
שמעון
##ברו
##עיף
הבעל
יוחנן
בדברי
לז
מיל
כב
תפ
##ינת
הט
מהם
מבואר
חז
לצ
##פין
אותם
אבר
פסול
עיקר
עמו
##ונ
נג
דאף
למעלה
ענין
הבית
##לכות
##la
גופ
##פיק
וזהו
מצד
והרי
##ברת
##קר
חכמים
##קין
משא"כ
##יך
##מילא
##יטא
##"צ
דגם
ע"א
חיים
שליח
עליהם
##ab
בעי
הראשון
שפ
האדם
יעקב
שולחן
ולפי
##אל
##טי
נקרא
אוכל
שנה
##רבן
##דיא
ליכא
##יבור
שבא
והש
כלום
סביב
ר"ל
##סו
חול
>[
##כור
גר
בשר
כדא
##יקרא
##דון
##צריך
##פים
##ולד
##ילין
כנ"ל
תנ
הני
פסק
העולם
##יכי
הארץ
מעל
המת
פלו
ומו
היום
br
##ודש
כול
כת
##ני'
##כיח
חש
רש
##ידושין
##יבה
##ig
##מב"ן
בפני
##רית
פירוש
ורא
הראשו
דאיכא
הרשב"א
אית
זאת
הכתוב
##רן
הגד
שד
##הו
##"ף
##שיא
השל
ונראה
##עד
יוצא
##כתא
##ar
סוף
##מח
לפרש
אומרים
##לכה
השו
##מך
מיירי
הפר
##יהן
גו
##ען
שר
##יוצא
יודע
שית
המח
סעיף
פלי
בבית
יל
גט
בכלל
באו
##יכול
##ותה
באמת
נע
דאינו
##ב"ד
יג
לקמן
ירו
שיהיה
חוב
ידע
שהיו
##קדש
עבד
##up
big
גז
##ss
בנו
יוסי
קא
מצא
בידו
נאמן
נפש
##בות
עומד
ע"ז
קאי
דמו
##כהן
כלי
##יבורים
אחרונים
ימים
ברוך
##בן
הקדוש
דיל
קיי
לכן
מהר
תע
כאשר
עושה
##דין
שהק
##דבר
##ושע
כתבו
##עתה
##נינו
ראשון
ספרי
רוצה
##ענין
וכ"כ
בהן
וכמ"ש
הגא
הרבה
ואח"כ
אצל
##מנה
##צים
נד
פ'
הבא
##מז
בתוך
שטר
דיד
מוכח
איך
##מם
sup
קי
נעשה
##דרש
##רבי
מים
וחיבורים
שתי
##פסק
##מל
בשל
##ריה
שמואל
##פרים
דאורייתא
ואת
##מנו
דאמרינן
cla
class
אחרת
##יקה
##כו"ם
אמת
##קרא
##יאמר
השני
קו
##יכה
##יכך
ממון
##טים
אחרים
##שבת
וכי
רבא
בענין
טמא
##זי
דם
כ'
שאמרו
##ותא
##ופן
מדרבנן
fo
להוציא
לשם
נתן
##otn
footn
footnote
האשה
##בלה
##מצ
##בים
##סי
עי
תחת
##קן
מקו
וכבר
##יעית
באי
עיר
##ורין
##ישראל
ובזה
##גע
בעלמא
דהוא
הלא
לחלק
ארב
לשו
לכך
מינ
##לב
##והו
רח
הואיל
כות
תשובה
ויה
מטעם
שהביא
ומת
שזה
קרי
ודו
והיה
##עתו
לכתח
אר
השם
להח
##טאת
לי'
##מאן
לבד
שאר
לגמרי
##עתי
חוץ
מתח
אברהם
שוב
##נח
חיל
אמאי
שבועה
##ינהו
בפס
אח"כ
חבירו
##דושה
##ישב
חזקה
רבנן
ובה
##נ"ד
דאפילו
##פרע
##יחא
בשביל
ולכך
##טן
##יטול
##גר
חשיב
כפי
ואחר
##ונת
בעינן
##יטין
סתם
##ריב
בסי'
##el
##ריש
וע"כ
##פך
##מ"א
עשו
##פ"י
קצת
חוש
לדברי
ההוא
>(
##ינוי
##ניהם
בגמרא
עדיין
##קח
##רג
ביו
הדברים
הטעם
אביו
##תובה
יצחק
##יעו
##חזק
פירש
כהן
לחזור
##שבע
##וקי
##ולת
רשות
##שובות
וכד
להא
##כרי
קנין
##פלל
##זרה
היכי
##כתב
תא
שכבר
מודה
##תוספות
תי
יאמר
בלי
##ותם
דקאמר
האו
כבוד
שאני
גמור
##כלו
##ום
ברשות
הול
##סף
בטל
לגבי
דבע
רע
##ניה
משו
להע
מידי
הטור
תוס'
מוכר
##שם
במס
נדר
בלשון
##חם
בפ'
ז'
מעשר
והק
לרא
##ובר
פירות
לאכול
פשוט
##ניא
הר"ן
##וסיף
##ישינן
נגד
ר"י
##היא
בגמ'
##דל
קנה
##שין
##חין
בתורה
ב"ד
דוד
שיו
##טרי
סבר
##מואל
מהא
בספר
##חט
דזה
ראובן
טומאה
##ילות
יס
ער
כנגד
##מבואר
##ולים
העיר
עלה
##מרי'
##כה"ג
בתר
##שיר
עלי
ונת
lab
label
ברכה
##קל
##סא
עמוד
וית
קל
בדין
רבה
ליתן
והיא
ומי
לכתוב
בתו
שהא
אג
שיר
ריש
חוזר
והמ
המג
##ותיו
##מוה
מיו
יין
הרו
להביא
תנא
##צ"ל
בהמה
##רוע
##תבאר
קמא
מביא
אתי
עוב
דינא
ממה
אשתו
בד"ה
בסוף
נותן
עדות
##פתא
בזמן
##קש
##דכי
להתיר
במו
##ע"ג
נימא
##ילך
מסת
דהתם
איתא
מפרשי
כז
ובין
הצד
ואפי'
ניחא
האב
חדש
שמת
##יעור
##כון
##צון
##צאת
ופיר
##מורה
פו
דליכא
טר
הרמב"ן
##חא
בלבד
כפ
דעתו
עולם
קטן
להר
##חמיר
דעל
##הל
אינם
##לום
ובר
##כנס
המע
תרומה
##לע
עק
מזו
##לוקח
יתברך
דר'
שיעור
>.
##ניות
##עבד
גדולה
שניהם
שכר
האח
תנאי
נס
הנו
מצי
שעל
הגט
ראש
תב
ומ"ש
מיתה
##ישי
שוה
קמ
##רא"ש
ולד
כשא
##דיין
העל
לכא
דבא
זכ
המלך
פשיטא
##תחייב
יהא
##גא
דהרי
שאינה
##ופה
לדבר
##שבו
יעו
משל
עתה
ואז
ע"פ
שיהא
יהושע
נוה
בעצמו
##יקו
בודאי
המים
##מץ
עולה
והו
ממו
והנ
ובמ
איזה
רבים
עצמה
ראיתי
פעמים
##מתו
חיוב
עמה
היתר
שהו
סע
##לוקת
שנו
שהת
בירושלמי
נוהג
##יחה
נב
עובר
שס
##יניהם
##ירת
הבבלי
התח
המשנה
##זקת
כסף
מכאן
##יעבד
##דע
להקל
##דרין
##כילה
תמיד
הש"ס
ובס
מנה
למד
מוק
משפט
##שו'
מוציא
ראה
בהא
ולע
רוח
##פלה
לכאורה
משת
א"ל
##תני'
##טרו
##טעמא
המר
##ופו
והם
טפי
פרי
ואפשר
פתח
מאד
תרו
עכ"פ
מוד
##תים
לישראל
##עט
קרוב
קול
מרן
נקט
שבע
##יכם
ואל
##פץ
##כתיב
##לל
המז
ערב
##כתי
##פור
שלשה
דהו
מתוך
קשיא
מילתא
ממילא
בפירוש
##ריות
הפוסקים
מלך
##כוין
שגם
מדא
##ובא
ושם
##טלטל
פני
בחו
ומ"מ
ספר
קרבן
פליגי
שעה
שאפ
דאית
יעו"ש
רצה
זהו
והת
בראשית
נשא
שצריך
מרו
פחות
בדרך
לבעל
##עם
##sh
מט
מאיר
עוש
דמשמע
ליד
ימי
כדברי
##פני
הך
מכח
##ומד
מלאכה
הגדול
דדוקא
##טומאה
טב
##ירין
##ואין
מעות
##ברכה
תנ"ך
קצ
חטא
שרא
##קט
לבית
במשנה
##כאורה
##חלת
##ז'
יפה
וי"ל
תרי
##קת
שמים
עני
משם
בעלה
צר
##וגיא
##כמים
##מרו
ימ
השטר
וצריך
כמבואר
ואומר
##ברר
זכר
דז
איירי
חצי
מית
נר
מצינו
ראו
דהוה
##נהדרין
ברור
שיח
הנאה
##ל'
סת
ונמצא
##בוע
במקו
##לן
מאחר
חיישינן
מתנה
אשת
ארץ
פסח
##למוד
מחו
לשלם
אינ
אותן
##ניס
##יעזר
הגאון
באופן
יראה
לחוש
ואחד
ובש
לברך
דלאו
קרקע
ומח
בכך
חת
הרי"ף
##גם
הראב"ד
עשרה
דאפי'
ותו
ושל
המה
ויו
המא
##כבים
בשטר
והע
להש
##גיע
הקב
דא"כ
##בית
שמות
פה
דהכא
כר'
מקבל
מהן
ברכות
##גת
ענ
פלוני
##פקא
פל
##דת
מיהו
פרו
מפרש
חדא
##ורו
אליבא
ונו
##יקים
##יפא
והוי
ורק
מקרי
שכתבו
חטאת
לפניו
בהדיא
בתוס'
שט
##צית
בהו
בסימן
לצורך
##סים
כולם
הראשונים
האם
##כיל
##ערב
אמו
אלמא
נט
##וסר
קידושין
בארץ
מינה
##מיא
זכות
דכתב
##ביר
##יטב
הגוף
כולה
ה"ה
ודו"ק
מתני'
לט
הקדש
הוד
קב
מקרא
ו'
במק
לקבל
המצוה
##פח
##נב
##כמה
מהו
האיסור
מכר
ירושל
מצו
אליעזר
שהן
בתח
ראשונים
כמש
ראשונה
הפק
חמץ
תיק
##צם
דאסור
##וסק
##טבע
ידוע
וצ"ע
נ"ל
יז
שכתבתי
##ושה
מיניה
דומה
##ברה
כאילו
##נג
##תוספתא
סובר
ממנה
נאמ
א"א
להחמיר
פנים
##ידים
שמה
למ"ד
ואני
##בועה
##שובת
ע"ד
ופר
במח
לקיים
דודאי
##יג
##עתא
לחוד
##ובין
ויאמר
סמ
##יעי
##ורע
##גתא
זב
אמרה
רצו
והביא
הקשה
כאלו
ולפ"ז
ליישב
היל
##בואר
כרב
##ז"ל
דאל
שהע
##ורר
פריך
חולין
ומשום
בתשובה
ובע
ובת
אלהים
צריכה
כ"א
חילוק
מאן
חשש
הגר
##נע
##רוג
לקו
רגל
שאלות
##פינן
אמות
##רום
יוד
דמש
##צרך
בעת
עז
י"ב
בעולם
סגי
בתרא
שער
##ונתו
דמיירי
אסורה
במת
##סתם
ויע
חר
הו"ל
שדה
הירושלמי
ברכת
השבת
הדר
להדיא
##נתו
ומק
רבו
מיני
שלום
שתה
##צט
ועד
##שרה
##ברייתא
תלוי
##יקרי
אורח
יעשה
עת
שחיטה
כתובה
##כרו
דקתני
אכל
בשאר
##שבה
לכם
##חש
ישמע
קיים
דרבי
##מית
חלו
צ"ל
##ליצה
ועי'
ולזה
באה
##ותיה
ח'
##ילי
אלע
שלמה
כ"כ
למו
נוטל
רג
##גג
יוש
כדאיתא
נשים
הפיר
תוך
יהיו
סברא
בעיר
ותשובות
ההיא
קבל
##ag
יוכל
##ריו
##"ץ
##פן
##דב
במע
התוספות
שאומר
הנז'
##ומרא
שאלה
##טות
שכתוב
קפ
##צרים
ומע
כדין
מועיל
מפורש
מדין
##פיקא
##ודשת
השב
לידי
##עיא
##ונים
##קא
אליו
טהור
לוי
לכתחלה
ביש
נכנס
##משך
גור
תני
##זקה
למטה
צו
##קיים
נית
תלמוד
טרי
דידן
מטמא
שלש
חנ
ולו
##ותי
בלילה
לר'
יפ
>,
דילמא
##aa
והח
באיסור
הללו
לטע
ומס
ולב
##ידוע
חלב
תחלה
מני
בשו"ת
למש
ולמ
##כשיו
##כ"פ
בס'
ל'
באותו
ובל
##וכה
שיב
##מאת
##לאים
##מצע
סק
צריכין
עכשיו
ור'
הקב"ה
פת
ומד
שכ'
יחד
שיצא
אלעזר
קתני
##ילן
##ירץ
חשוב
האלה
הגמרא
דתני
דבה
שור
בחינת
##שתו
לצאת
ט'
ע"ג
השנה
לאי
מצרים
ומר
וממילא
במי
עמ
##יניו
כע
לעצמו
לפס
הונא
דפלי
##פסיק
וכש
לפיכך
ובפר
לאסור
להכ
ולפיכך
שהח
לאדם
כיצד
וכך
כתבתי
##מחה
##נסת
ס'
אכילה
דבעינן
מדר
יט
חכם
אע"פ
ומיהו
כלים
ריב
##טין
שיק
אמה
שלה
השתא
הרע
##מוע
מחייב
אבי
והכי
##נך
קושיא
נכון
##חמנא
מעט
ולמה
דמח
##ינין
הלוה
אוסר
הבה
אביי
בבא
ובאמת
בשעה
עבודה
קונה
דהר
##עלים
ואע
דבש
אמור
תת
דלית
דיו
דינו
שלי
גא
##ותינו
מנהג
עדיף
שהי'
##וכל
שהמ
היטב
עבר
וט
יהי'
עביד
##תין
החו
י'
##רח
פעם
הענין
##י"ל
כולו
י"א
mar
מוש
לצד
עול
א"ר
בחזקת
##קנה
מצאתי
##דרים
עכו"ם
העם
מקודשת
הכו
ויר
##ker
##גב
הלב
הראשונה
##יאה
ולכאורה
דלמא
בכו
מברך
ביב
ממע
marker
##זהר
אולם
שעשה
בשני
גוי
א"צ
##לקות
##בודת
המוכר
אשי
##ודות
##קבל
והב
וכ"ש
לשא
נמ
לדון
ירא
שמי
אבן
##קדק
##צל
##טב"א
לאב
הזמן
לבטל
ויח
דמים
בכה"ג
##ריס
יור
נז
##בודה
##כהנים
##מיש
חזקת
צי
חז"ל
כזה
בטע
חסר
לתת
דהנה
מפי
מרא
אונס
מתו
הקד
אהרן
בעלי
יו"ד
תעשה
כוכבים
תהיה
שהיתה
##עלות
הברי
דלה
אבא
חזר
##רבא
הכהן
שז
נות
צורך
להשת
##רוש
שיכ
ביניהם
שיהיו
הפסח
ושו
מנין
מבר
##חוק
אינן
מקדש
##צור
לפר
שלם
ר"ת
##יעות
וקשה
##כנה
##חיטה
הזאת
##נ"ל
מדבר
משלם
ביאור
הנזכר
אכן
דאת
בתורת
דתנן
##סוף
##זכיר
העדים
נ"ב
המקדש
קרב
והלא
דשא
איסורא
ובכל
##רוח
מלוה
יבא
שות
##כחת
הוו
הנא
ה"נ
הדם
סמוך
לשל
עש
##גלה
מלשון
ולק
רי
##ירים
בשא
מוה
מלכות
##ילים
ביח
שמח
ואמרו
ויד
##קות
דקיי
וכא
דצריך
האמת
ש"מ
גובה
דהאי
דמס
יחיד
בכלי
חב
חלה
שאף
##פריש
סימ
##יטות
נחמן
בנים
ללמוד
נינהו
המצות
יורה
האיש
דהש
##בש
דמע
מהרי
לחם
##יבת
בגד
דמת
##יכר
תפל
פ"א
ומשמע
עקיבא
לתוך
מדאורייתא
ויק
דעה
ברייתא
תלמיד
##נק
לה'
##צרי
קכ
כפר
##מותו
מעלה
##עמים
דכו
##צאה
##ניתין
דחי
הש"ך
ראי'
לשיטת
##ונא
##שתה
ב"י
תאמר
ואלו
##דומה
במדבר
חמור
ומא
##דק
רואה
שומר
המקום
##ho
לכתחילה
קנס
כוונת
##צטר
פ"ב
שהש
דמאי
זר
כרבי
פק
##וע
##קרי
##גים
קדש
##נש
##מי'
ע"ה
כ"ש
כעין
מצטר
נחשב
ראי
##סתפק
ודברי
נזיר
גמר
לבו
להן
##ירושו
מתי
הגמ'
##תום
שמן
לסמוך
אא
ויקרא
##עלת
לאח
##ודי
##רוצה
ביר
והשתא
המלוה
##ידך
##צח
להחזיר
מה"ת
ספ
##דרה
מאה
##חוץ
לארץ
גזל
דאפשר
##צטריך
בש"ס
##דרי
##גין
מעיקרא
##תניתין
ע'
והרא"ש
בסמוך
שאל
האומר
##ינות
מוס
תמוה
נשאר
##ידין
קני
השא
לחבירו
ובח
רחמנא
צ"ע
החי
דאע"ג
למקום
בעיני
הב"י
##טלה
הזכיר
ארבע
##ביד
##bi
יע"ש
במים
בעד
דבעי
אצלו
ישמעאל
##וח
נזק
ליב
בבר
##בול
ונא
לקנות
תימא
בדיעבד
וכיוצא
לשונו
##רוה
מהרש
##לוני
נוס
אחיו
##יס
וה"ה
שאינם
תמה
י"ג
##הוא
בפש
השליח
שהקשה
ובד
##גום
##ילתא
באר
תורת
קדושין
שנתן
ויב
מין
השמים
##לינן
שיאמר
נדה
שיכול
מילי
אע"ג
##פוס
הרבים
התו
דבריהם
סוכה
ושוב
שבעה
י"ד
דפס
המעות
##תחיל
ומאי
קנ
##מ"ג
כדעת
זכה
דהכי
זרע
##ופין
לכהן
##יית
הלוקח
##ua
והס
דשם
לדיד
מיקרי
##ולב
דאז
ומנהג
##נתן
מחלוקת
אתם
בידי
מיה
##גות
##טלטלין
##כוון
שפירש
בימי
##תר
פוס
ביתו
בחי'
שאסור
קס
רשאי
##סרו
איני
##פון
הבשר
ומשני
בלב
יאכל
שינוי
יתן
##לקו
##שרים
##לין
הבן
הולך
דחייב
עץ
והכא
בנ"ד
אנשים
##גול
גמורה
דני
##תבע
תפילין
בכור
##כתוב
מותרת
מקומות
פליג
note
notes
למכור
ושא
גבוה
נשת
##נהו
##וים
להקשות
אחריו
##</
למח
בתשו'
כשהוא
##ei
##נחה
##יטתו
לתרץ
בהנאה
עפ"י
##זרת
##ועל
קדושה
והל
##ערה
וני
טובא
בקו
מיוחד
קורא
מחי
גופא
עמד
דכי
קושית
##כסים
ר"א
##יי"ש
באומר
קדשים
קטנה
הור
היש
טמאה
לוקה
להרב
נשבע
##ולו
##חך
##ירוץ
לאפ
הקו
##מנם
דיני
##יקא
##כנ
והיו
דקרא
##תון
##מינו
משני
שחייב
וא"ת
אתא
##ואים
##מק
##ידושי
וע'
ורבי
שבש
##יאר
כדרך
רחוק
וק"ל
##ואות
וכה
הלו
למר
האחרונים
##טלו
שליש
במר
הטוב
מהלכות
ממקום
שיטת
קמ"ל
וראיתי
המעשה
מ"ט
מום
##טהר
##ליף
##קנו
וע"ז
ברוב
ע"מ
עושין
##זרע
למפרע
כזית
##מתי
עליהן
גיטין
לחייב
מכלל
ובג
##כש
להי
##סתמא
או'
נדרים
##פשט
להס
מלח
ספיקא
דמותר
להלן
##שיך
חשב
ס"ד
מגו
ואילו
##פסל
לבא
הלשון
צדיק
##פטר
גוף
נפל
שומע
כרת
יומא
##כינן
##זרו
ואולי
וחו
אמרי'
##יכן
##פשיטא
ושב
לכו
ביטול
##ר"י
האמור
ת"ל
##לאה
ואיך
בעצ
##כתו
יכולים
עלמא
צריכים
שלשים
ר"ח
ברורה
איפ
מפק
רמז
בריש
מ'
חולק
פרשת
לרבי
##רבו
בהגה
ומכל
##פסיד
לבן
##סינן
שאנו
שיד
דלד
חצ
בס"ד
אפ"ה
##עיר
אבות
לעת
דר"י
##מ"ה
##ודר
##ואו
##שרות
ואסור
התנאי
עור
##יוט
המס
קרו
די"ל
מיעו
ט"ז
##מיר
har
כשרה
הוצרך
##סתר
דקא
רפ
##כרח
הדעת
##תבטל
מערב
##ליק
##מרים
וצ"ל
##דושין
לרבנן
##באר
##נשים
באמצע
##זא
##חוט
ובפ
##hosh
ודוק
ר"מ
השמ
להצ
##תובות
טריפה
דמד
מרובה
בצד
קדושת
מדת
ארי
רשע
סה
קר
כ"ז
הספק
הקרקע
##חנו
ועתה
hag
עבירה
##כסי
לישנא
##ישנא
##פוך
גל
##ושא
##סין
נכתב
##דום
שבה
י"ט
##יאור
יכולין
##חז
by
ט"ו
הסו
דומיא
##man
י"ח
מצוי
טוען
בפי'
לשמה
##למיד
מצה
כדאמרינן
מוכרח
פ"ג
שיהי'
להבין
ye
היין
דבאמת
נחל
##יבעיא
##on
באח
השי
##יאל
rab
##ודת
הים
דרבא
##שלם
ידיו
האל
בישראל
ויהי
##יבות
##רעא
##מינן
ונתן
דאל"כ
טפ
שביעית
הימים
מורה
##טרא
ביותר
בבה
לדחות
מקצת
ישע
rabbi
נודע
##ידא
והג
הכנסת
מנת
##צב
##tman
##hoshua
yehoshua
hartman
הוציא
כהנים
מלו
א"ש
ניכר
דקי"ל
דווקא
##לאכה
ויל
רשב
##מעון
##ותב
##כנו
למאי
מאמר
מור
אכתי
לפנינו
לעמוד
ליתא
לוקח
מועד
עי'
אותיות
##מדו
##תימה
זצ"ל
##רונה
הלכך
אמרי
##יכות
##פורים
השכ
כרחך
תנו
הבעלים
מ"א
ושאר
##ביאים
האור
פלוגתא
##פע
והרמב"ם
##כונה
דרי
גרע
המחבר
חסד
טובה
כתובתה
דעיקר
ארבעה
בדעת
לבאר
הלל
ואינה
הנש
סבירא
אולי
דבי
זהב
##ירושין
המזבח
מהל'
##סורי
כדכתיב
דפר
דלעיל
דור
##כלה
וראה
ואפ"ה
הרמ"א
הפסוק
מזונות
לעני
ומותר
##רם
הרש
ארו
תנן
הגיע
לאחרים
ולומר
##מעט
היר
##ודא
שבועת
במסכת
בגט
ומכ
דינ
##רינן
##יחיד
הלכתא
להג
שמש
מה'
מעכב
מעולם
ביאה
הביאו
הייתי
מבטל
וכאן
והאי
דשאני
##ילוק
ב"ה
ליק
שהב
תלו
קש
##ולך
כולן
להמ
##פרו
##נוי
סדר
עירוב
רצ
##כלית
##ושיא
ודוקא
##חית
שליחות
דמתני'
דעלמא
שתים
דאיתא
ובפרט
בער
סי
אעפ"י
##סד
הבר
מזבח
הרג
המד
טז
וחייב
ר"ש
שלפ
לתו
הפירות
פ"ד
##עלם
וזו
##יבל
פסולה
ברב
חפץ
הבהמה
טעות
לחומרא
פט
שבח
##ia
טומאת
בראש
דלפי
והרב
##ראוי
ילפינן
##ב"ש
דמק
עמהם
תקנה
האש
לאיסור
גופו
חצר
שלהם
לר"י
וכתיב
##טת
##גדל
ועשה
קי"ל
##מיו
##דדי
חדשים
שנעשה
לבני
ימצא
נזכר
דפליגי
##ביי
עין
דמשום
השדה
המקו
בברייתא
פירושו
כה"ג
ומפרש
רעה
הנפש
צדקה
בספק
קיום
ולש
העד
##מ"ע
פסחים
##ובד
בפ"ק
כוונתו
האחר
הילכך
יכולה
##למד
##כחה
דבמ
מלתא
צדק
ויצא
חנו
תצא
##דיון
סברת
לתקן
דתניא
א"י
ומצא
ממזר
שלח
כשנ
##שן
ככל
לזכות
מיגו
ודבר
##פול
תפלה
ח"א
נפשו
##גלים
קיימא
תניא
סוג
הגז
גוונא
העת
בערב
אזלינן
באחד
הגה
אמרת
גיר
##בדו
נאסר
והן
עסק
מקודם
למאן
הכלי
ירושלים
מוחזק
מ"ד
מיח
יונה
ואיכא
הגוי
כתובות
ס"ס
וליכא
בפסח
הותר
לראות
גרו
##מונה
##קע
קמי
אלי
##כירה
הריטב"א
##מעת
ממת
##ויי
##מול
##ירושלים
##פרשים
גזרו
##ודים
הגאונים
אמן
בשום
##פנים
##תות
##קור
##ענו
וכ'
מתניתין
שאי
אלף
##שמים
וכו
ה"ל
##כלת
חכמה
בהלכות
##קוט
##יימו
טפחים
##סות
היאך
##כאן
##בירא
אנן
בחי
קע
אביה
הרוב
שנמצא
בנות
##ב"י
##בוש
סנהדרין
דמהני
##ריתות
##ודיע
##רי'
##נ'
##יעא
עצמם
נפשות
דבכל
והרא
ליו
##וייב
בדיקה
דאיסור
ביאר
סתמא
הדרך
##מש"כ
שואל
##טרה
בזו
ולהכי
##נחות
##צין
תהלים
כק
להוכיח
מלמד
ואה
##מרה
בלאו
וע"ש
רובא
שעת
קבוע
לאש
באותה
##פורש
ר"ה
עבור
פ"ה
##מלא
##גון
הברכה
המנהג
##דמה
זרה
##כרת
מדבריו
חלקו
##פיד
שאינן
מנו
הראוי
מספק
למען
עצמן
יתכן
דנא
##סן
שנשא
##דשים
א"נ
דגר
קודש
##כרים
הפקר
##ילוי
##וקר
יי
בפניו
##ולות
ושפיר
דמר
##ביה
גזירה
דוחה
גדולים
שהר
היוצא
טל
מחשב
דנה
בדברים
##תחלה
לכ"ע
ונ"ל
##שיג
ומזה
מעו
שנראה
ה"א
מאוד
לבדו
ח"ו
זרי
לאשה
נהגו
תור
השיב
ולענין
גמ'
##צוות
עובד
אתו
השול
יורש
ושמא
בכמה
אימא
לדקדק
אכילת
בהר
לרבות
מרב
##סרה
באב
שלנו
ופירש
בדבריו
התב
##קב"ה
וז"ש
##דייק
להוסיף
##נתנו
כפיר
מש"כ
##סם
והד
דבלא
אנשי
אטו
פוטר
ואמאי
הטומאה
בעדים
הב"ח
ללמד
לחו
חייא
##שלח
עשי
בתרומה
ית'
##שיל
הויא
והטעם
##יכו
ומן
##תוח
##נסה
כדאמר
כ"ה
וכתבו
בהג
בתוספתא
ידעתי
דיכול
##פי'
עצם
בבח
##יבם
תול
חליצה
בעבור
דלענין
כ"ד
ה"ז
##פלו
איהו
שהג
דשמא
שקר
נכס
מייתי
נוג
בכול
המי
##צע
חסדא
גברא
##טול
בעלים
שכיח
הט"ז
ופי'
לקרות
##שתן
בב"י
##ידש
טהורה
מבית
ל"ש
ולית
##ובע
המרדכי
שעבוד
נכרי
דהיכא
הקשו
מידו
חייבין
גופיה
יקרא
##זים
במ"ש
אבד
פפא
פ"ק
משכחת
פרה
ודלא
מהר"ם
חובה
לילה
דרש
##יניה
במקומו
תרתי
אילו
מלמ
בניו
ולי
חיו
דלר
חוששין
מרי
בפשיטות
דאמרי
לשב
ורבינו
##מס
מנא
בגוף
כוס
ומעתה
מורי
##ברהם
יסוד
במז
להניח
ולאו
##שלו
כמאן
##נור
לאיש
בטלה
לגבות
מדה
במאי
ידים
האחד
למעשה
##עודה
##tr
##ורשת
שמותר
##ורשים
סופר
בכתב
##שוי
תפס
חיי
טענת
לאוק
מאו
##עוט
רבותינו
אנכי
כצ"ל
גמל
שאפשר
במתנה
##מ"ק
ופס
הטב
בעין
להתפלל
##מ"ל
שהס
מתע
מרוב
חפ
חברו
בפסוק
זק
ורבנן
שמחה
יבמות
כוותיה
ברית
לדין
בטו
שאפילו
##לאי
טענה
חשו
והה
בנה
שפסק
be
בפנים
##זית
מסו
מספר
לקח
באין
##עון
גיד
מדעת
שהכל
מאל
טור
ופוסקים
החיים
עבודת
דמל
תפי
##כירו
עיי"ש
יתר
ימות
נפקא
מודים
לאפוקי
מקשה
שכתבנו
נרא
מוציאין
##מתא
כ"ג
דנקט
דשרי
ולח
##תומים
בספרי
##נינן
תד
הכוונה
בחוץ
כלאים
להעיד
שאתה
מתחלה
לבר
ואד
##ah
האר
חידוש
##בחים
ל"ה
##ילתו
בראשו
##יאות
פרט
ששת
שנית
בש"ע
הלך
מאכל
מישראל
בחצר
שדר
ושלא
גרי
לשנות
הערה
אגב
בנדון
נכסי
ואע"ג
כשם
##ינוק
ברשותו
חסרון
ליטול
לישב
##יקת
למשה
ואילך
נפק
שאול
נושא
בקרקע
לקולא
חזי
מילה
תחילה
להאריך
##לע"ד
שבכל
##שאה
הקדושה
באונס
##שרת
דקאי
עלינו
רצון
התירו
##ur
בדיני
##ירוף
התנא
הרח
ויום
בכדי
ועי
במס'
וכמה
##צאי
##שלים
##רישה
##פילה
והשיב
תכ
תיקון
בבת
בהש
##ייהו
הערב
##מנות
##חום
##גדים
שבועות
י"ז
פרוטה
במא
הלילה
להכי
מחלק
להורות
וס"ל
##ייע
הל'
##פחה
נתנו
פ"ו
ולפי"ז
##נד
תקנת
##צץ
העליו
##נוס
תשמיש
צוה
השמי
חיה
בי'
דיה
הניח
##מתין
ק"ו
מתה
##צונו
הגר"א
במתני'
שביאר
##בירה
כותבין
ניתן
לאמר
להשיב
סותר
ממ"ש
גי
##רין
##רבנות
ואמנם
הובא
##זרח
ששה
לדינא
ק'
מרע
##יטל
ס"ת
##בק
כשב
הכלל
איצטריך
##מרת
הקודש
פניו
##פילין
כיוצא
יצאו
##im
לאכילה
קדיש
נכסים
##מט
##כחן
עלי'
כופין
תקו
דסבירא
בבל
המל
דאתי
##סקנא
מכה
##ציאה
דמ"מ
כר"י
המגיד
הפסק
##ולק
שתח
מיהא
דשו
למע
##מכר
##nts
דקיי"ל
##ברות
טפח
לענ"ד
ובעל
לפע
במדרש
ובני
חנינא
לישבע
כחו
חושן
##ושים
##מנים
מתיר
מכירה
ונה
קריאת
לשני
מתירין
##בורה
אתיא
חג
באכילה
##בלת
תקנו
סוד
וכדא
בסתם
##נשא
דאיירי
מעין
בי"ד
##aria
בחולין
דלע
גמרא
במג
varia
variants
>|
##בוה
בעה
פירשו
מועט
קיי"ל
היד
בב"ד
נתחייב
במעשה
דפסק
אבינו
##תובע
בהיות
דכבר
ומשו
דפריך
לעצ
רישא
יודעים
מלה
##בריו
והכל
כהונה
כדר
בתחלה
##בלים
וחזר
שיא
##ראי
מ"ה
לבי
דיב
למלך
העדות
שאח
##זמן
בנין
והוה
כאחד
הגל
בריה
בלתי
##תבו
נאמנת
הטע
לקיש
##זונות
##ריא
##נון
##יכף
##מ"ד
מוכיח
מ"ב
הלואה
בשדה
הברייתא
לגר
##לף
קנו
דבת
סכנה
##et
מלקות
ובק
תהא
חלוק
שתהא
##רבע
מרדכי
##צינו
שלמים
סג
ושמואל
הספר
ודע
##ננו
דהת
להד
מיושב
שבמ
ליום
דידיה
להשתמש
מחויב
##לוגתא
##ארת
לאה
דלק
והקשה
לילך
יאמרו
טבילה
וכנ"ל
עומדת
הבד
תליא
מוקצה
העליון
##בוי
##קדון
בור
שיל
מעתה
דגבי
הקהל
מהאי
וטע
הקטן
##או
חבר
המזון
##מועינן
##סוק
##ירצו
הכהנים
צבור
עיני
רבית
פירש"י
השבועה
שאז
מטה
חייבים
דטעמא
קוד
בגיטין
עליך
וה"נ
ביבמות
ד"א
שבין
לבוא
דשמואל
הב'
איל
##לקה
בתשובת
ח"ב
לבוש
##מכתא
אמ'
##פסד
משב
נהי
לשבת
##לחמה
שצ
##ובים
מאות
דהמ
דוחק
ומש"ה
בע"כ
בהאי
הער
##ולל
חודש
אחריות
ובית
שחל
דייק
לשאר
דע"כ
משאר
לאחד
##מיך
##והר
##ופות
הרוח
דהשתא
לבעלה
כרבנן
שאחר
מברכין
פיו
ברישא
כמש"כ
יושב
יאוש
דעתי
נתבאר
החכם
נצ
##דב"ז
כשיש
קבלה
השאלה
er
מוסיף
קה
##ילף
שבר
בשלמא
מאת
נברא
כדת
לוה
##רצה
ברו
ויהיה
הלוי
##סי'
אוכלין
גורם
למחר
קידוש
הבאה
התע
החמה
##ויה
##ה"ר
ליקח
מחזיר
המיו
ביצה
ביחד
העומד
ויכ
המוציא
הפת
בינו
עמ'
הנקרא
##פקיד
בידים
דבעל
ל"א
באדם
צור
וכאשר
ואמרינן
בחול
עמך
##דליק
מנחה
לכבוד
רבנו
טובים
שעות
לדידן
ותירץ
הגם
בדר
קורין
באות
במד
##בלין
הרה
דריש
שנהגו
פרעה
סאה
לרשות
ואתה
ור"ל
וחד
הולד
למיחש
עמי
מות
בה'
חק
כט
כ"ב
ונש
כולל
כשרים
הפסד
דהך
ובודאי
העיקר
כותב
תענית
שעבר
להלכה
שנש
##דן
ששם
##וני
שנקרא
##ייה
אמרתי
טהרה
בכאן
אפרים
דבזה
סמך
רמ"א
אנא
>"
##מעשה
לזמן
והדר
דבד
נ"י
##כרה
נמשך
זוכה
דאד
קור
##טרת
אומד
בשבועה
##ציאות
בכסף
שירצה
דמילתא
ירצה
להאי
##סוד
ועדיין
דהרמב"ם
##כילת
דהיא
אחי
מלכים
##תיך
ויכול
דפשיטא
וירא
שניה
כשאר
##ch
##פוק
צדיקים
סעודה
דט
במצות
החיוב
שנע
##לון
##זירה
להרמב"ם
מעכ
דפטור
השמש
ציצית
עובדא
##לקל
השכל
##קומו
ומבואר
לצר
##קנת
>:
לפ"ז
הגדולה
עכ"ד
דרק
דרכו
ב"ש
ומל
באשה
בלא"ה
תמצא
ידעו
##גיגה
ביני
פרשה
גוים
החמ
##וין
##תיבה
ק"ש
שבל
##שבועה
החוב
סוטה
##רובות
ומפני
שעדיין
לשאול
##כימו
החול
##קדיש
אחא
שנג
דהק
לבה
המפרשים
מקח
הר"מ
קטנים
בתי
בסוגיא
השות
אומרת
להתע
##זהרה
דאמרי'
המקבל
בבי
##דיש
בסוכה
אליהו
לימא
מלאכת
וכדומה
בנת
##ורם
##רקעות
הנשים
##חורה
אא"כ
עבדי
טרפה
##ובי
ציון
שופ
וודאי
##פ"כ
זית
בפי
בדף
לקדש
##יקרו
תוספות
האות
פוסקים
##פרת
עוף
חמשה
ובלבד
ור"י
ובי
וה'
גמליאל
משלי
כלם
דאינה
##לוח
##זין
דהו"ל
לברר
לגוי
אדו
ירושלמי
מההיא
דעכ"פ
בלבו
בפרשת
##תוספת
שזהו
אלמנה
נקב
בכח
חמש
##פ'
ובו
בהדי
נזירות
##מדה
הדי
הבל
יכ
שיעשה
נולד
וחכמים
##תיה
אלקים
פ"ז
##שאו
##עב
בפחות
אמינא
מדלא
עפר
שהה
הכר
יביא
שנינו
ישא
ופריך
נ"מ
להט
מקור
וסת
סיפא
לפניך
באיזה
רגלים
##דשה
לעבור
##טוען
##לאות
נכסיו
טבל
מעצמו
הריב"ש
חומר
הפני
המשפט
למעו
דיבור
##פירות
סבור
שאלו
##זות
והכ
למיד
##ניבה
דמתניתין
מרשות
כ"ח
אהל
אזיל
העבד
כבודו
##ע"פ
הכסף
כלה
ולר
שסו
שנכנס
##ראות
ת"ח
מדכתיב
אזי
מבע
##פינה
##נתא
ובב
שכיון
כמי
דעו
שראה
##וייהו
הא'
מוצא
דסבר
שמעינן
דרוב
ברירה
זמנו
ה"ג
ב"ח
##שמי
דרו
בגדים
##מוז
תרגום
דעד
מעילה
מעכשיו
בברי
אישות
ביו"ד
שבות
גרסינן
עשרים
לטעון
בפ"ע
ניש
סעי'
דנין
ויא
אמי
##שש
שיתן
מניח
נטמא
ירמיה
##נחת
##כורות
##מוכח
פוסל
בקי
לשום
לדו
לפרוע
##פשו
צל
אבה
ידעינן
החצר
##פתח
שכך
תשובת
מכו
##ויים
בעוד
למעט
דרא
##ופא
המלא
בורא
שמר
סל
##זקאל
בחלב
החפץ
לאור
##חובר
נפר
אלפים
שרוצה
במקצת
##טח
##זב
##ירתו
נבילה
##שב"ג
הדא
##טנה
מנ"ל
מבני
ואחת
להודיע
##en
סופרים
##גבי
ולת
בחיי
##שאל
קלי
יעלה
שופר
##ושין
ודעת
##עא
ומב
אחרינא
לפטור
באש
בעיקר
בהל'
אדרבה
ואב
עיניו
סד
באים
ומשו"ה
ניק
בחד
לידו
רכ
פור
כליו
דאמרו
רביעית
שעושה
##נותו
לרבינו
##יבעי
פ"ח
וא"ל
דבג
ההלכה
מהר"י
שמאי
ללא
בשבו
##חרים
עבוד
מחוייב
ואס
אופן
בביתו
התשובה
בהך
וגד
כשאין
##שלמא
זוזי
לזו
היות
##מנין
רצונו
##בריה
ר"ע
לולב
מהש
להציל
נהנה
##פרה
בשתי
שרו
דאיהו
להעמיד
##שהו
בכתובות
לדבריו
נותנין
המדרש
והרשב"א
הכלים
##ong
תיכף
מגילה
עצים
##ושר
##כמת
##רובת
##חתם
הכרי
##ערות
אוה
##מ"ז
לעיין
אלהי
טעמו
הראש
מסתמא
תשלו
הנמצא
הנדר
תם
##טבול
הרגל
##חיק
ויותר
##תחילה
##סח
דסובר
החכמה
מקצ
שוגג
מראה
תאכל
מקומו
שנתבאר
שלישי
ל"ב
חלי
מיתת
עושים
איפכא
str
##ידות
שטע
מחזיק
##מירה
לעו
והר"ן
מחילה
לרבא
לישא
דצ
הבח
strong
למעוטי
דשל
לבין
##זלן
סהדי
##מונים
ליר
והני
חזרה
##תונה
דאס
אק
מגל
##כ'
##גרש
מסתבר
שאכל
##צטרך
הנך
המצ
נטל
שבאו
איר
מיום
ונעשה
הדור
להיפך
ושת
שתהיה
הבת
שפי'
שהנ
##וקים
זכו
הסוגיא
מפס
ובנ
דרכי
אהדדי
נבלה
##יבו
נתנה
##ידיה
למ"ש
ברש"י
זקן
עי"ש
לתמוה
##ef
תפלת
מיעוט
כהר
בפסחים
דטע
ששו
האחרון
##בלו
##פשיה
##קאמר
מלבד
גדולי
בכ"מ
מכש
פן
דמ"ש
כנג
שעשו
##סתלק
אסורין
לרש"י
השואל
דידה
פוסק
דשבת
העני
קבלת
הטה
סימנים
הר"ב
יליף
לעיר
היחיד
עון
במזיד
יבוא
בשוגג
##בי"ם
מתחת
ריח
והבן
בדא
האוכל
במקדש
שבעת
לפלוני
דן
בריא
הזק
מער
הצדיק
בינ
כפרה
תחתיו
הכ"מ
##שט
עבדים
למית
##טלי
קרבנות
נעשית
כשלא
##יתומים
גאון
##שיות
##an
בקידושין
מלת
אתכם
שוין
מחל
מבחוץ
ופסק
##מני
מטלטלין
דמא
התלמוד
ל"ת
##תימת
לפנים
הישראל
מחיצה
##יכת
##תניא
לשמעון
גדר
##פיס
הנותן
ורבא
להזכיר
אסורים
נגע
שפת
שטה
רבות
דנו
מובן
דחשיב
מעיד
סברי
דחו
##aaaa
לידה
ל"ד
##ורב
דהלכה
תוספת
רז"ל
ששמע
מצוות
סוגיא
ועכ"פ
במינו
##ירסא
##כלל
##דושת
תג
בטור
כראוי
שתו
##פרא
##לוהו
מ"ו
שבט
יצטר
הטבע
בב'
האסור
שדי
##פירה
השי"ת
הנר
ושה
נוכל
ותמה
לבנות
בהכי
הוק
בשמו
##פלת
העזר
##נסו
דמוכח
וי"א
התפלה
##לוש
נשמע
נשב
ממני
מול
בעצם
שיוכל
יהוה
##סיף
וקרא
##יעקב
בך
ולאחר
חלות
##נגד
קדם
אסי
לשמוע
השר
מדינא
אנחנו
בעו
##ליך
ליכ
כפל
יהיב
הוכחה
וטעמא
הנביא
מנחות
##יקש
חרי
תירץ
נתח
הגו
שכרו
ותח
אלהיך
נתינה
העכו"ם
דלעולם
ובלא
הר"ש
חות
התרומה
מסיק
הדיוט
נוהגין
כתיבה
##כ"נ
הפרה
לפסוק
דר"א
בשו"ע
יוציא
##ימנא
קרן
כיו
שערות
ועיקר
אדר
מלבי"ם
אסמכתא
צא
שהקשו
ומצ
וכפי
בלח
באל
בהד
שראוי
התחיל
ראויה
בתוספות
מדוע
שנשת
##משנה
יקשה
העולה
ש"ך
הנח
שיבא
דרבינו
בקנין
##שוטו
הזו
##ותח
##ידנא
דבק
דלכ
ועם
נחלקו
כשמ
##דור
לשמור
##חיצה
ועבד
חתיכה
ורו
ונח
מודו
בעיניו
שמק
ונק
מהמ
##ת'
חובו
מינייהו
##בדל
באור
שבק
במל
מקנה
##יחד
שהבא
##עור
הלחם
השכינה
##רבעה
לפרו
ואע"פ
איסורי
בסו
ערוה
הנראה
כריתות
ולענ"ד
תימה
והי'
לכאן
לפמ"ש
חומרא
מתק
השולחן
##צרות
##ra
ופירש"י
##ולתו
##גלי
בתים
לב"ד
מוקי
##יחות
למז
בליל
>]
השלישי
המג"א
באת
##כהונה
דפליג
ל"ח
הוכיח
בסנהדרין
##פקר
ל"ג
זכרו
בעדות
##ציצית
שיס
בגדר
דחיישינן
הכח
ב"ב
הכות
כולי
ארעא
רמ
##רש"א
שבעל
שחו
בפה
##ואב
##ינתה
בפ"ב
ערלה
פועל
דהל
דלת
בבהמה
מתא
##רומות
תופס
חולה
##ובדא
##מעתין
ואוכל
לתח
הש"י
לערב
למת
פסקו
דשב
##ענית
מ"ג
קבע
שליט
הכפורים
שהוציא
יבו
חרס
מכשיר
התיר
פ"ט
למדנו
ויוצא
שנא'
מעי
##ודל
##נטר
אשם
מהך
כ"ו
המקח
ושני
שיטה
התר
לחלוק
למחות
ישוב
אפו
תס
לפסול
ירק
מיא
נופ
בהת
כשיעור
עשוי
מזיק
מהד
##פיע
##בדיל
בקר
לאוין
כעת
לעדות
הקנין
דכש
ישב
הוסיף
הריני
##ינוך
הדף
##קדשה
זקו
ירד
עקר
##חץ
וכשה
יברך
דאכתי
חובת
וקאמר
דזהו
מתנות
הנכסים
לעתיד
בי"ט
מהימן
ומביא
וכ"ה
##נט
ותה
##ניחא
##זכה
##שב"ם
שנפל
מהרש"א
הנס
ס"א
##ניסה
ה"ר
ברגל
בידם
התק
##ובת
רבן
##עתם
הקושיא
ברם
בשנה
לבב
נמש
ראשי
שורש
ובכ
ספרים
##גלות
לאשתו
לאותו
ליל
נאכל
גבור
הסברא
חייש
פרש"י
##ציאת
##גאון
דיין
אחרונה
החס
כ"ט
מחבירו
##כיו
שינה
ורי
אילן
שזו
שטרות
##יתם
ששים
ישן
עבדו
שיט
כונת
מדבריהם
אביהם
הרואה
הכשר
בדעתו
נתי
החדש
##נשי
איכ
##ושי
בקול
ר"פ
בתוכו
חכמי
דהיה
לבדוק
סמו
לחדש
דרש"י
##ri
ישו
לפעמים
ירושה
ובשו
עזרא
דהע
דסתם
ואינם
שהאריך
בא"י
מתחילה
מחצה
בשער
##ושו
ונוטל
בממון
החל
תדע
יחזקאל
המשכן
מנחת
מספיק
אומרו
##עבוד
וידוע
מגורשת
בהיתר
יעבור
##זן
שוים
מתכוין
ואו
מעשיו
או"ח
הבאים
##נתי
ונותן
לחלו
דלפ
לתלות
בעיא
רס
##ש'
האדמה
שמעתי
##נותן
אהא
השער
הקרבן
ל"ל
דבס
סומ
אדעתא
בתרי
הכתובה
ארבעים
ממי
והביאו
דמעיקרא
הג'
ביין
שלימה
נוגע
השור
ישעיה
צבי
אסרו
חרש
##בלע
##בלות
בהי
כמות
יעשו
##כבד
לשחוט
בתחלת
ונד
כשי
הפתח
האנשים
##נ"י
עניים
וכמבואר
לפניהם
בטעות
ועומד
ודין
מ"ע
ערי
##os
##ולן
עירובין
בגו
יקח
##סקא
יחל
מדעתו
שאלת
##זירת
פדיון
לברכה
שחר
אליה
בבחינת
דינים
ערו
לבטלה
לשתות
שוחט
שנולד
הממון
בלע
כמת
הפרשה
##ev
##פרישית
ריע
שכירות
ספיק
הדחק
בשמים
##שבון
##קונה
בסוד
וישראל
עלייהו
##יעתו
דברייתא
באם
להב
הקודם
##לתר
##גש
##ניתא
ולשון
חזינן
החטא
יונתן
דעבד
##שע
##יתן
בדו
מאתים
דא"א
##משמע
##שונו
ב"מ
##וסין
##לה"ה
מחיים
דנראה
ערך
##ימנים
ורש"י
הר"י
##פירוש
שאדם
דבכה"ג
בהק
עה
ממונו
##שך
להני
האריך
לעכו"ם
לאשמועינן
##צרכו
התנה
ליט
הודאה
ללכת
צער
משלו
ואש
##am
ונשא
לעלות
משעת
##נתה
נביא
בגל
שטרא
היזק
##טנים
מתן
דנהי
##לקא
שלפנינו
##ושט
לאוקמי
ועכשיו
הדמים
ודר
וכמש"כ
##מרם
דאילו
ממך
במצוה
הצבור
הפרי
ונות
בכות
##ינך
ישר
שע"י
##מאל
חנוכה
ראשית
בחר
לגרש
ולדעת
##שמיש
רשב"א
קיימת
לתב
גלי
ba
נקראת
##ניין
רשעים
דנת
פרע
דלמה
מונח
נפשי
כדמוכח
בבשר
מצטרף
##גיש
דמיא
לחוץ
מצר
##טהרה
הוס
יחזיר
זע
##קוה
##ביו
כמותו
זולת
##שואין
וא'
בד'
##ריכות
העוף
מגיע
דלכאורה
שמעו
לאל
למילף
ואית
אהבה
##תך
בג'
ולבסוף
##שיה
ופשוט
לוקין
##פשר
##ולדה
ראתה
שכו
##כבה
ז"א
אסר
בענ
והטור
##גרשה
בההיא
בחלק
אחרון
בא"ד
##יבוד
בר"ה
העלה
##פקד
חדשה
לבסוף
לעבוד
שלמ
וצד
דמבואר
כולהו
גירושין
והפ
##ית'
##כירות
הבנים
דה"ה
כדתנן
##זירו
לטלטל
##יקון
הקידושין
##רובים
השחיטה
תלמודא
עליון
##וה"ק
זא
לקר
בנדרים
בברכת
משקה
יחזור
להפריש
##חס
הנק
##גרת
חורין
##תונים
בישול
מסר
כתבנו
ירי
ניד
דמייתי
ניח
##מוש
##מעו
##ואי
יתירה
שלך
והי
##עתיק
כיס
##ה"כ
ולפמ"ש
מסייע
בתלמוד
##ולהו
שקנה
לבע
##ייס
ושמ
וחי
ותב
רגיל
החזקה
##יתת
קלה
בידך
מצטרפין
##פלג
מיבעיא
מדות
מחובר
מכות
ונאמר
##ט"ז
להכשיר
##יטו
##ויין
חולקים
##לקים
תירוץ
מחשבה
הק'
ים
כלפי
להחזיק
צורת
המיוחד
שרב
רמב
כוונה
איננו
##ירור
ממונא
לעכב
בביאור
##ופים
##יטור
##ליג
וצרי
ההי
##נה"ג
##ישית
מוהר
במצרים
בתחילה
ההיתר
##ושב
##נהוג
##גיח
זכור
##ונש
ביומא
למא
וחוזר
הרמ"ה
לר"מ
ואחרי
תן
להפק
ויתן
דכאן
מותרין
הטו
ברוח
שיתבאר
בטב
רואין
לבל
##וקה
בתשובות
מחדש
הפך
לאלתר
השת
שצרי
טמאים
ס"ג
תרומות
להכרי
מעוברת
והתם
##פיה
מציאות
שחרית
העול
ויבא
הקרבנות
נהרג
##כשר
באלו
דעביד
##ורף
##בדה
למלוה
דר"מ
מתר
פרס
באורך
מעמיד
הבתים
נ'
בזכות
שמס
בוד
שמצא
ממונות
##שאי
נתב
קושיית
ציבור
נוטה
##כוונה
לטמא
בבלי
שאמרנו
המועד
נתע
מגד
משקין
נשאת
צבא
##lah
לדר
##גן
שמביא
ברמב"ם
##ירושה
אינון
כסא
שאמרה
לראובן
וקיי
היסת
בידה
האלו
##ברין
הכוס
זבחים
מובה
מתפלל
בכתוב
לקרא
##ואת
מסתברא
ומכאן
הצדיקים
זי
בגדי
מכיון
##תיים
מפסיק
##ריפה
כענין
רואים
הקרי
עונש
##זירות
ישת
כהנא
דלקמן
דאלו
תוק
להך
##ושת
ככר
שחט
לרו
ימין
דמפרש
יהודא
והיתה
##נאו
שביארנו
##קתני
וחומר
בברכות
מתחייב
והלכה
##ד"ם
מינו
ק"ל
##ונו
המן
המותר
קלא
השחר
אשכחן
מלחמה
השנים
הגדולים
##יאת
חלל
ומוכח
שליט"א
##ורד
דאביי
נחש
רחמים
מ"ז
המלכות
חצות
שפר
ל"מ
נתק
דההיא
פסיק
נפס
מש"ה
##ויות
דילפינן
מזכיר
##קון
בנכסי
הקוד
וכה"ג
מתים
##חטו
תתן
האלהים
בשוה
##מוס
ובמה
##משה
##רוס
##לקת
ראינו
ונע
בטומאה
בפועל
נפשך
##רוף
צמר
אונאה
משכון
להסתפק
השניה
החלב
קים
נכו
שמכר
לשיטתו
לרי
שנות
##פירש
##כחיש
זירא
ודא
שו"ת
דעתיה
משיב
הפירוש
האילן
מוטל
השמשות
ב"ק
##שב"ץ
רבותא
ילקוט
נערה
מלמעלה
##ח"מ
קיבל
העבודה
משועבד
מקיים
תמיה
ואשר
##נ"ח
וראיה
מוע
גזר
ואולם
##תייהו
##לעיל
בכר
##יחוד
דאח
יצר
אוק
השוכר
##רומת
##טלטלי
##ורשין
אצט
תמן
להשב
מוסר
דבור
הראיה
העליונה
הרשות
ריעותא
חור
בשע
הנב
##יקי
המנו
##חלין
##פרק
וא"צ
עיון
דגים
##ולדת
##משים
##צרה
למס
בנידון
תרומת
הקול
וביום
##כיה
והשני
האיך
הגוים
ס"ב
שהכ
##טיר
##זוזה
תמ
ליהנות
משיח
וכגון
שקב
ברח
החת
תשובות
מ"ח
מחול
חלוקה
שמונה
שפס
חייבת
יהי
יבום
מדרש
תמוהים
##פחות
חולקין
ויס
נר"ו
##ודאה
נוהגים
נפסל
בקרא
הכרח
איברא
הסמ"ע
המב
המילה
עברי
והו"ל
סיני
למצוה
המנחה
ס"ט
##וה"ז
חנם
##יקות
##עי'
פסקי
מתחיל
מלכי
##ריב"ל
בקיא
פד
הכבוד
זוז
##עלין
ותוס'
קדושים
מחוסר
עומדים
ומסיק
בשח
המתנה
ל"ו
##כנת
בם
##מלית
ברצון
תירו
לנכרי
ס"ו
פתו
##זלינן
##דאורייתא
שיג
אבהו
הטמא
נתינת
קיצור
דבשלמא
##סתכל
##ידן
כסדר
עצמות
תפיסה
##סורין
שמעת
האומות
יועיל
מקבלין
המטה
ופטור
##יהי
בהלכה
כידוע
דר"ל
בסעיף
שאוכל
להול
##olah
hagolah
אבידה
##חתו
ויראה
בתנאי
וטעם
יוה
##טריא
וביאור
##יננו
הודה
וינ
נאמנות
ר"ג
לבנו
##יבורי
כר"ש
##מיט
10
לעל
זכי
ממעט
כנסת
##ציו
במתניתין
עתיד
קדשי
ודבריו
##נטרס
פקדון
בסוג
הברכות
##es
נוק
רל
אותי
חולי
דמן
ידיעה
בדק
ערבית
##מיות
בינה
דפרק
גופה
##פיל
ירוחם
להמתין
מומר
נגמר
אומדנא
למצ
תלתא
איוב
דבח
בגופו
ילדה
ותא
דיעבד
אלהינו
דדינא
א"ע
בשמ
כשירה
התקנה
העור
ולהת
עשיר
המשכון
ולמעלה
##פלא
נחת
סמכינן
פרעתי
אינשי
התובע
##ינינו
בשביעית
בכורות
בירושלים
טעמים
ומתוך
חיבור
מציעא
##חלים
רשב"ם
תחו
לגרשה
נפשיה
החכמים
ישלם
סמי
##וליך
החמץ
העושה
בהס
##סיא
שתא
##שור
דמסתמא
גדולות
##נותיו
שהגיע
לידע
וברי
יתחייב
התוספתא
מבלי
הוצאה
כמ"ד
תוכל
אלפס
כאומר
המאור
דכתובות
שעיקר
ממצרים
ונכנס
##נאת
הימנו
לביתו
והצ
למנות
##עס
שרצה
מהל
גנב
במלוה
משמעות
##נוע
חמה
מגן
התו'
##שאין
להשלים
מהרא
דלש
דדעת
והלך
הסכים
דקיימא
לק"מ
##צאות
דישראל
לפי'
בשנים
רמב"ם
##מוכר
לשמו
גרם
לתורה
נפטר
ואנן
עצה
ושלום
במנחות
יתומים
השק
שא"א
כשת
ומז
דינר
##חייב
בבבלי
ההר
חיות
חרב
בקדושין
דספק
הסעודה
משנת
דסו
##נוה
אסורות
הענ
כופר
השיג
דשייך
בלו
שנכתב
גמ
בהג"ה
והתוס'
בר'
ואכל
שלד
##בהמה
דהוו
רוצים
בשאלה
גזלן
בשכר
כשהיא
הבריות
##כי'
##תימא
המזיק
##מוק
##ורק
הכתב
##ואתו
מלאכות
ובירושלמי
מעצ
בכי
ועושה
נ"ט
כנגדו
ולפע
שאומרים
##עותא
תי'
בברכה
סתירה
##זקין
סא
ומצאתי
מינים
והקשו
שאפי'
##רוק
מלאך
ומכ"ש
היורשים
לעבד
מוכן
מענין
מעת
##איסור
שיודע
לחייבו
לחי
בראשונה
דקד
תכלית
אצב
שעיר
ואתי
קרובים
בחכמה
מעותיו
נאמנים
היתומים
##שוטה
בשיטת
שדהו
איזהו
מיש
יבם
אדעת
פסולים
##יפו
בתולה
##זרק
שכינה
שפחה
##עלי
פתוח
ס"ה
שומעין
ואנו
##כפר
דאו
נעשו
מהכא
עדיפא
שמד
שקבל
הצל
ובמקום
מבין
עס
מד'
בחידוש
##זרי
משמר
והולך
##טלית
כמא
קיב
יטמא
שנותן
הב"ד
##לוקה
בוודאי
גלות
##מנא
בעה"ב
##שביל
יתבאר
ותי'
והרמב"ן
יחוד
גילוי
##שבים
שנוה
נתכוין
נקבה
בזבחים
עכ"ז
וכתוב
צע
הותרה
מאותו
##קיף
הציבור
בד"א
אבנים
##ירש
##טרופוס
להכניס
הבע
לבעלים
##פד
כזו
מתורת
לפי"ז
השוחט
והניח
תולדות
מסכת
תמורה
דהג
סר
שינ
יוצאין
##נדל
ודי
דית
וחצי
דחולין
מוקמינן
תיבות
כלא
ואיני
לר"ש
עדותן
בפלוגתא
שתב
כמין
וחל
יען
מסירה
##שלומין
הלאו
אצלי
בסיפא
ידיה
ל"ק
למידק
כשיטת
##ובו
##nd
והובא
##לאכת
##na
##יעין
להדליק
בתב
חושש
##גיל
##צרו
##צום
##גייר
אצטריך
לשמואל
והול
הכותל
הרדב"ז
שהביאו
בקדשים
##לחם
##לימות
פא
טי
אזהרה
דליתא
דבנ
##קשינן
צ"ב
לפירוש
העץ
הפו
חכמת
אלקי
אליהם
##זיקו
בפרה
שבתורה
פשע
ובספר
לאביי
המתים
בקד
קשר
ברזל
שמירה
בינייהו
ומג
אדום
##טיל
הבורא
נטילת
גשמים
שמענו
הוחזק
##ישא
דמצי
אליך
פטורין
##שמעינן
##ic
לע"ד
ורוב
דר"ש
כשע
העובר
אדרבא
הפנים
דאה
נביאים
##דרשינן
וראוי
יבואו
ופרש"י
ביאת
שקרא
שראו
ללוקח
אוקי
זנות
נשאל
והשל
ראיות
##מאירי
תוב
מהת
##oh
בב"ק
נשר
##משו
##ec
##גלו
##נאל
אויב
לעשותו
איב
הנכרי
תלמידי
שקורין
##ה"י
הכיפורים
ולכל
הקל
הנד
חשוד
הבור
דכן
##אים
בפיו
בעזרה
11
בסדר
ידה
הפל
רמי
יודעין
שוטה
יצטרך
##ר"ם
וא"ש
##כד
חמורה
דמצ
מומחה
ובאו
מלק
מימרא
שוא
דהח
ישבע
##ילמא
טעה
הכותב
ובפרק
##it
ולעולם
מחיצות
עובדי
בכוונת
וישב
השלחן
מקוה
ואדרבה
כר"מ
בספרו
##מרדכי
בשה
בול
ונקרא
דברו
הפרק
למחול
##כבת
##נויה
ושמע
תשו'
##גמא
##כיב
חטים
בפרט
וסיים
##צחק
השביעי
בכבוד
##ר'
דרבה
דנק
פסידא
שהלך
בע"ז
חמשים
לעניים
עסקינן
העין
מצאו
שהד
דבל
לינ
שאע"פ
וגבי
א"ח
כאמור
מותרים
דוכתי
בכלים
הית
וזאת
נתיב
גרמא
מערבין
בשמן
בב"מ
היב
מקל
חשבון
דהני
דע"י
שעומד
כונתו
שנתערב
ואיש
להרי
וגו
##ראב"ד
סלע
##זרים
אחות
לאביו
ומפרשיו
הנקב
איכפת
במעות
שרה
אשרי
הנתבע
התחתון
הדו
בנימין
חוט
רד
הגירסא
ברה"ר
רבי'
ת"ר
מכת
ותירצו
##דושי
מס'
דיח
התראה
להעיר
לאברהם
והמש
וכעין
##גביה
##al
שבאר
שכח
ישנה
אחרות
זונה
דאנן
בנד
מהג
שסובר
הסדר
##שתים
לרמב"ם
קו'
דמצוה
דנימא
דא"צ
ששנינו
ודוחק
שכיב
##ירוש'
חומש
beur
כשמואל
##נורה
ההם
שזכר
דאיך
##בון
יהודי
ידענא
דבין
שנק
##קוחות
דאיסורא
ישעיהו
##גדיל
##ונות
ואלה
##טיח
תלינן
העומר
מכיר
##ריכו
מבח
שנשבע
המצוות
איסורין
ביו"ט
##צאן
##ימנין
לפענ"ד
##תו'
דרשו
בזה"ז
ופל
בטיל
##טען
##ורתו
לדור
##טער
ליזהר
איתמר
העיד
הדשן
וע"י
##תף
מביאין
ליכנס
משיכה
##צונה
זיל
אומ'
דייקא
מדליק
תיבת
נאה
החג
בפעם
הביאה
הפועל
בימים
רא"ש
##מונא
##ריאת
פשט
##נויי
כפי'
הבכור
##חלקו
לשליח
דמיו
נסך
מחוץ
כשרות
##מידה
שבד
נקיט
תיקשי
##שבועות
ב"ר
##יוה
הזהב
##מדת
מקד
ת"ק
וע"ע
גבר
המקומות
ליח
שנד
שלישית
עמלק
מטבע
לחצר
רחב
זרעו
ונס
יי'
וא"א
צרה
בפת
לכלל
זל
מעש
##מתה
כ"ע
ומדברי
##זרעו
חבית
##il
הנת
בח"מ
החמירו
חו"מ
ל"ט
בתפלה
דדברי
הולכין
קוב
היותר
טעמי
דאורי
##ביצה
טבע
##חרת
מספקא
חלקים
דדבר
שערי
גנ
##קרו
נסת
דרישא
שישראל
סך
##טרפה
תפארת
הבי
בשלו
ואמרה
מעלתו
ה"מ
ומשיב
במקרה
פסולין
ללוה
לכהנים
ינ
רחל
מסברא
זרוע
##ft
לר"א
שבס
בירך
שבג
והראב"ד
תראה
##פחת
ח"מ
##ושל
תשלומין
מלאכי
לשנים
מהלך
הפרש
סוס
ובז
ואעפ"כ
יצ"ו
המבואר
דיליף
הנשמה
הות
##למודא
כבד
החילוק
לחולין
מחלל
בזמנו
דה"ל
שהתורה
לספק
מע"ש
ואומרים
דאמאי
אתרוג
יהו
חוטא
תמי
תחלת
טען
ועשו
נלע"ד
דלגבי
ההש
טריפות
סופו
ונשאר
שהבאתי
מודע
נהר
במועד
ושמעון
לדידיה
sp
נדרו
חיובא
##זהיר
המלאכה
מארץ
להקריב
הנני
##ערים
סח
וכמש
העי
לספר
תבא
הב"ש
היכן
מפתח
להשיג
##קף
##חלט
אסתר
תודה
שנטמא
חביב
להעלות
בשוק
תשוב
12
בקדושה
דלאחר
ועכ
דעתם
הכונה
בבד
##תויי
מוב
יבש
שבוע
להפסיק
יתב
##כתבו
בשלא
דדין
זריקה
הדבור
דמוקי
אביך
ושואל
##קשו
בריך
בים
עלו
יטול
גזרה
מאיסור
מג'
בנזיר
פורע
רבינא
עי"ז
ורוצה
המאמר
חמא
הש"ע
להקדים
וחר
נתבטל
ביט
הבריאה
חגיגה
שיראה
לטבול
אכיל
##כוס
דאזלינן
##ז"ה
אפר
הקנה
##כום
תוספתא
תשעה
##ירך
והיכא
שהזכיר
ודם
גרושה
קבלו
צאן
מכפר
שיעבוד
##ודין
דאתא
לתוכו
בתחילת
גבה
ההל
לכו"ע
מחמ
להנשא
שבתו
פלוג
בע"ח
פטר
##זון
בדם
##מלך
אסרה
שיוצא
##ודף
מצודת
חוצץ
דמסיק
##שוד
תועלת
##ינתו
מפיו
להפר
##eit
##טנ
הנג
ששי
##עבדי
##נחס
וקא
ל"ז
רגליו
##סבר
לפדות
##דיף
##ב"ע
עלתה
##uv
בגין
##קיע
##ודו
סכין
שמתו
ונתנו
לדורות
##פסוק
החמור
התנאים
מליחה
חותם
אבוה
דמג
ניסן
הקונה
השמן
כתר
קמח
דירה
המקרא
להקנות
##גתו
##שאיל
לנהוג
מעידין
##תחו
אחים
והדבר
ההקדש
דא"ל
מצווה
דמאן
לע"ז
כר"א
להז
##ריעה
אמורים
רובו
שנח
בפ"א
##ילק
דחז
עולת
נפיק
רשב"ג
גרידא
הדיבור
המשת
לסו
דילן
הקרן
הריאה
שפרע
ומסת
מעלת
דבני
בחנם
ודברים
דער
בבירור
וטוב
##שרי
פרטי
טעון
שמנה
נתכוון
קח
##זול
מיני'
צירוף
תנאים
##דבק
##טומאת
דהלכתא
חרם
תאכלו
סיי
##ימני
שהדבר
בדרבנן
##קשה
דע"ז
דכ"ע
מיעוטא
כרבא
נתתי
##יהנם
beit
##דמן
אחיך
הסכימו
דאחר
ינאי
והוציא
##ידור
הקדושין
##מוקי
בחצי
##טורת
י"י
יראת
##ניים
טרם
למזבח
בכה
וכ"מ
הספיק
ריק
שידע
נ"א
שהקב"ה
שלפי
אמירה
שיצאו
מצורע
דפ'
##יראו
ולעשות
מהח
וברא
עיסה
יודה
והירושלמי
הגיד
שברא
##יטי
הסת
##פוי
דקשה
מסופק
וגר
בפ"ג
##פואה
השבח
אלק
##כשיר
ולס
שנ'
מכרי
לכהונה
נאמרו
דניחא
בצר
לחול
הושע
רנ
לחברו
##כתה
ידם
הר'
שלקח
##ושית
##שונה
חייבי
דעתך
##סתור
##גלגל
ואכ
ח"ג
##עבר
##כאות
מבפנים
נשמה
בש"ך
שא"צ
יו"ט
בשלשה
לאומר
##מנת
פסוקים
ילך
מיוחדת
זלה"ה
ריו
##וה"ב
קפידא
שמאל
שתמה
בשחיטה
##רצ
נלמד
##רווייהו
##שי"ת
לתבוע
כדמ
השלום
בפירות
בהמות
שנתנו
##לוך
קמייתא
הנאת
##יכורים
למיתה
ובשו"ת
##ידהו
בתה
הזקן
מקפיד
##מעות
מדי
וכנ
ובגמרא
מבעוד
בראשון
מטהר
כור
דחד
שבהם
דמלתא
פטורים
כללא
במחלוקת
הדיו
##um
מתחל
##וגן
הוצרכו
דקידושין
דשפיר
דלדעת
שבידו
כיב
##צוע
נדבה
אע"כ
כנס
הכרם
הברית
במחשבה
בנק
המער
לגבוה
דרכים
ומעשה
חתם
לעז
בשנת
##חטה
במרדכי
נוסף
בתוכה
##דישו
חבור
אומן
יורד
טומא
##יאש
משו"ה
קהל
##ציץ
הדיינים
חן
צלי
במעשר
ועמ"ש
הולכים
פקע
לים
עמדו
מלאכתו
יתנו
משעה
שהבעל
דפסול
תלי
לגד
דכמו
בעבד
העמים
מטב
מעשרה
דהם
ואשה
##לאו
נקראים
בעשה
שבעים
נותנים
אותך
עוז
דלמ
אגדה
שדעת
מסור
לעי
##טום
בטעם
ומשם
בשבועות
##ולדות
והיל
בחידושי
המכה
דהב
ביאורים
ממתני'
ה"ד
מכוין
כסברת
##id
##מדנו
קם
##ישול
חלילה
שתיהן
דיבמות
מוסף
דהס
נכונים
##ליפה
חששא
דאש
דבית
דרשינן
באשר
הנביאים
השוק
##כסיו
ירדו
מצאנו
במלח
דחוק
המורה
מאור
יוכלו
אחריהם
קמן
##שירי
##ינוקות
##קם
וסו
הגשמים
##וז
אוכלים
קונם
לדעתו
13
אנוס
שיאכל
תנשא
כדפרישית
מכדי
העיטור
מאח
קצר
שדרך
תלויה
ומאן
##מיהו
כפול
ורח
מיותר
דגיטין
שעושין
נשיא
במשמע
יוה"כ
בהכרח
##ג"א
שהניח
נשתנה
תשא
הבין
לסלק
ויקח
דלשון
פ"י
נשואין
ובתוס'
המעשר
גבול
##מידו
ללו
ואמו
שמיה
##והי
שבעולם
בהל
בצו
אויר
##מדים
לנס
נדון
##מיע
שדברי
לימוד
הסופר
##ריקה
להתענות
משי
התא
להראות
לפחות
סיים
השאר
נפלה
בטוב
ונושאי
##גור
דלי
כשל
נמצאו
הפרו
לקטן
הסכין
גריס
##ליה
מסיני
והשו
בחידושיו
ראייה
חידושי
האותיות
בפתח
ביצים
וקו
תולין
בב"ב
משך
דתנא
אחריה
שנתחייב
מבעיא
קושי'
כלשון
שרוב
שמצינו
נ"ד
שיגיע
והמח
קרינן
משמ
##כילתא
ללוי
גזילה
מפריש
גזירת
עפ
##פיו
##ורץ
לאתויי
ולקמן
הוזכר
##יכין
כתיבת
הדיין
נקנה
נתקיים
##ליפין
##תחלת
כשבא
הפנימי
כנודע
ולקח
##צטרף
שמחת
##ידשה
שיהו
ועבר
דקדק
נקטינן
לשמש
עוסק
##עסק
המשיח
חומה
בהגהות
דחה
קמיה
יתי
לבנים
מפקינן
המקוה
חופה
ושתי
נקיים
שרץ
הוראה
ההו
##סייע
##צתו
למוכר
מחזק
דאשה
דעתה
המשלח
רחוקה
בקרב
בדור
אכלו
מפור
##תוק
##תיו
קראו
ועלה
ימיו
האבות
שמיני
התיבה
##sha
##פוקי
שלוחו
##למא
הקדשים
עשית
מודעא
שתת
גרים
בשמעתין
המכירה
סלקא
דמודה
באומרו
בקרבן
הקורא
שקלים
בצל
עונות
דברינו
לבניו
בקש
##לקמן
תיפוק
נסתפק
בעוף
##נחנו
##ולח
קסבר
הכתיבה
##ניסו
ור"ש
בטענת
קידש
לעבודה
בפניהם
לטוב
##מירי
מובהק
##ביות
תחומין
כפירוש
השכר
נמצאת
לד'
אחריתי
החזיק
##לקט
המלח
כהוגן
לקי
מטע
ד"ת
שבתות
ותר
אצבעות
כהל
##תבונן
החסד
##ילוח
יבמה
דאדם
##קרב
הארכתי
קהלת
##ביעת
בנס
גירסת
ענינים
תולה
העשה
בב"ח
ותש
לקחת
נתברר
וקשיא
דקדושין
שעמד
שרק
לאלה
יציאת
דנאמן
בנ"י
וכמ
##פלים
והגם
דאשת
דבלא"ה
##av
##עה"ב
פרעון
במקומה
המחשבה
נתערב
בשות
מאליו
הלח"מ
דהכל
זבח
דהתוס'
הזכירו
בההוא
##גוד
##יכים
מחזירין
הספרים
לשוק
ובניו
##דותו
משהו
אעשה
משמיה
ן'
בסת
הסוכה
קרקעות
מפל
##ירסת
ס"ח
מצרי
אמוראי
לדרוש
תשב
לפרושי
ברבי
חט
להפקיע
שעורים
שיעשו
פלגא
##ק"א
סליק
בארו
##שליח
רומז
למול
וגומר
לשוב
##פרך
ליבם
##ס'
סוברים
ויהיו
כעו
דשכיח
##עוטא
##נגדו
מהע
דידע
לער
התנו
דפסחים
תיתי
תקשה
ובן
אשכנ
הלבוש
בחדא
מבוי
כדלעיל
כשהיה
ומטעם
באריכות
שנפלו
בסכין
הרשע
##יחס
הגב
דופן
פשתן
הכנה
לדוד
עשיית
מכחיש
הגהות
לסברת
דהטעם
בחייו
ניתנה
מתנת
בריאה
לראש
ומאחר
נקי
בעצמם
דבשעת
פג
לקרקע
##ימטריא
החומר
בעליו
וממ
דבב
שחטא
בניסן
##מצם
לטעמיה
##טיב
העדה
עבירות
יניח
שלפני
תובע
נאמרה
##צתה
לגלות
##ונין
מהרש"ל
נר'
במקומות
שחזר
ולכ
שורה
עידי
מהס
ניקב
דדמי
חילק
נכלל
מכתב
התפלל
ומחצה
ואעפ"י
##לקי
אימתי
שרש
##קירה
משר
רפואה
מכרו
גניבה
סחורה
שהי
לאוכל
שבזה
##יקנא
מאין
בעני
המ"מ
דיומא
מתב
מעור
וחת
##יתות
הרעה
החר
להיתר
##גדול
קראי
להקדש
מטעמא
מדקאמר
תפילה
ארוך
##yos
אבילות
ציר
קדשה
מאלו
נישואין
יקר
קטנות
מומין
יוצאים
מגדים
הנשאר
שינו
##ולש
הארון
למצוא
##ריבו
hagra
ר"נ
דחל
ולדברי
וטרי
דדי
פכ
מעליא
ונג
מגיד
דההוא
##gg
ורוח
דלמ"ד
##צירה
מזר
לבקש
ואינן
שדעתו
כאחת
והנראה
יובן
דשני
אמצ
מזיד
זקנים
בקונטרס
המות
פטורה
למסור
ראב"ד
היבם
תקון
##רוייהו
הגוזל
תינוק
בעצמה
##מודים
הישר
עראי
מו"ה
##ל"ת
מכ"ש
שפירשו
##ציר
וכדאיתא
מבקש
דעדיין
כותל
וכדי
וג'
הרשעים
במנין
מור"ם
ונפל
המדבר
ידענו
בשרו
בגלות
מהרי"ק
לרוב
##קדשין
נדחה
לטהר
בדי
עולא
כשמת
תקנתא
ואיתא
הדרא
במיגו
הרא"ם
מכמה
##פועל
יפר
לבח
##קומה
באמרו
דכשר
גומר
span
תנאו
##זהרת
שדבר
חובתו
דכוונת
כת"ר
נותר
שעלה
כללי
איסורו
אה"ע
היק
שקיבל
לנפש
ושר
המפקיד
תדיר
שראיתי
אומות
##וראה
##פארת
##yosef
##_yosef
beit_yosef
שירה
שחת
שיביא
##ע"ז
שקל
לשר
##ek
##risha
##בטל
בבקר
דמשני
שלק
החלק
הבגד
מסק
בדד
מיע
עונ
דורות
ויג
ובהא
##פשיט
מהק
הסמוך
יכנס
כמוהו
הצדדים
ריוח
לטעם
##ורג
עריות
תיבה
נפשה
לחלל
הרופא
פנחס
##חומא
##iv
כמר
שהרג
מניין
##ריהם
##יל"מ
שכיר
##לוקו
##מצעי
##שוך
הנפ
דגרסינן
שנתב
המאירי
##מיץ
סמ"ע
בדמים
עדותו
המפור
הכסא
כשאינו
##פירש"י
הנושא
ופירוש
ידך
חלקי
חילול
שריפה
חזרו
לני
נרות
ומוציא
ממלא
בכוונה
מרבה
מדרשי
הבדל
לפק
החודש
בעבירה
שונה
וההיא
ס"ז
קבר
תבואה
הדינים
##יקוטים
##ad
זכאי
פגם
בבעל
##חתה
מכניס
בפיר
שאור
דקשיא
ושי
שנשאר
העולמות
14
דינה
להתח
דורש
להרחיק
לבהמה
לאחו
הסמו
עברו
בחיים
להוציאו
השליחות
##ניע
ארוסה
קיימי
##תי'
##פלות
עונה
##צרת
##ישת
##שרו
בפ"ד
א"ו
כביכול
המקור
עצרת
נוסח
מחשבת
בתע
##תומה
שצה
כדאי
רגע
ודרך
##יימה
אריה
##סתו
שקיל
מיחייב
לעד
דבמקום
תקשי
##ti
##vr
ליעקב
נדו
כלב
מעידים
##ילתה
בשינוי
הקדיש
דסגי
כרם
שהאשה
דפוס
עבדינן
איניש
##מ"ח
בידינו
נידון
להסיר
למדו
גמורים
והבא
מאז
אחותו
ומיו
##ובב
לסוף
מקרה
##ahot
##טרות
להתי
באיש
##תאר
מזוזה
ה"ח
מדינה
שהז
שבלב
לפו
יתרו
עג
נחמיה
העתיק
המדות
19
הניזק
##רפא
דמסת
לתקו
ריבית
הציון
סכ
הפקדון
לעומת
##ue
השולח
תמים
והלכתא
גלוי
לכסות
טלית
בעירובין
הלכו
##ציל
נראין
ורגל
וכ"ז
בורר
וז"ב
##ור'
זכיה
צ'
##בריא
>]</
למק
וכ"פ
כנראה
שהרב
לקרוא
היפך
שהל
מהב
בעי'
עצי
בפרו
לפום
##יו"ט
הקדים
טורח
התלמיד
ומברך
בדיבור
מיר
דלכך
ויאמרו
איזו
##ינר
מרח
והז
##לוס
קיימין
שייר
##סורה
##יטיב
##מוני
לקבוע
שמשון
בבני
אילי
ותרי
##לקול
לחלוץ
ושרי
לשקר
התחתונה
דגן
יתח
המגרש
אמתלא
ותדע
כ"מ
ירמיהו
קולא
קרוי
לעם
לאשמעינן
המעיין
ישאר
כרי
קרח
וער
ופרי
שאת
כדאמרי'
מחשבתו
דכ'
זמ
להמשיך
##ירכא
ביהודה
ובסוף
כתובים
מפסיד
תיקנו
להנ
##ושם
א"ה
##בינן
האר"י
##בהה
בפנינו
דעות
שחיטת
מזמן
לון
##לענ"ד
ש'
היכל
##געים
שנוי
##תיבת
עצמך
תלת
דמדאורייתא
טהורים
ה"ב
דמחייב
ממא
ובס'
ובכה"ג
מסוגיא
לקמיה
ביעור
למל
##ילנות
הקרב
כ"י
אתר
מובא
##יעת
האדון
לטל
ומיד
אצלם
בהע
כדרכה
במגו
דברכות
כמב
##כית
ואיסור
15
הגג
שכחה
##פלין
קודמת
השג
לצרף
במצ
שלאחר
##טוב
חוק
##יער
להיפוך
לרבים
לאת
שותה
נכרים
העו
אבותינו
החיצון
תחל
שתיק
ה"ט
והשב
יוצאה
חוזרת
ועשית
דדו
כחד
##יעים
מיק
דהרא"ש
שלמעלה
הבחירה
נופל
מביתו
##בילה
ערל
הפה
##כרין
אותנו
ויט
שלשתן
איסורים
צב
##סרון
למלא
תכלת
באחריות
דקודם
גודל
דהיכי
שמסר
דכתבו
##דובר
לחד
פלג
##וציא
מבן
יוכיח
וכיו
עמ"ש
דר"ה
בשמחה
במחובר
המציאות
רביעי
לעצמה
העשוי
##גבר
שנעשו
עשא
ואת"ל
פסולי
בנש
##ביב
פתי
בבכורות
מאיזה
##שיית
שמך
##בי"ה
עמנו
האה
באתי
שיאמרו
ואותו
##ושן
שיז
כף
##ys
מחנה
דמוק
פח
##פקע
התמיד
כותיה
במשהו
כרחו
וב"ה
וטב
##משין
ולברך
בונה
ווי
תרווייהו
##יקור
וכדאמרינן
מדמי
##zz
דל"ש
קדמו
בוא
בע"ד
התחלת
רות
קדשו
השמיט
het
והאריך
המיתה
##שאת
hetev
מיתות
##רי"ק
עליכם
באויר
מטמאין
עשרת
##רגם
##ברכין
הספינה
דלהכי
ארון
הפחות
הרגיש
למות
הסמ"ג
סיבה
שהאדם
שבארנו
##יהוי
דז"א
בדבור
יפול
תבע
מקבלים
##ריד
חתן
התנור
שונים
אתן
מקמי
בדבריהם
המדינה
דנדרים
דדריש
באחת
וביאר
מדו
סימני
##חרר
ש"ש
##שונים
לדעתי
נפלו
וב'
בשבילו
והדברים
למדת
ע"ח
מלפני
למימרא
אתמר
מלב
##ידת
האכילה
מנלן
צריכא
גזרינן
קונ
התי
אירע
##טף
הדורות
בזוה"ק
ושכ
שהתחיל
חציו
##pp
ידעת
משנתנו
דה"ק
ושע
צבאות
כזאת
##דשו
דעשה
כשאמר
אמונה
חתימה
שנמ
במעמד
במדה
בחזקה
שותפות
לטובה
שקול
בע"ש
##מכו
וענ
אהבת
השומר
בביאה
כמע
##ינח
לבם
מלכא
גווני
##י"ט
וכלי
ענבים
כמנהג
בפ"ה
##צה"ר
מהניא
לכר
##כנתא
שהחיינו
העליונים
מונה
באינו
גופי'
שריא
והלכך
וכ"ת
כדמשמע
בזיון
היסוד
ה"ק
ניכ
שהדין
לשנויי
דינם
דזו
בפרשה
סלעים
##עול
אפי
בשת
##פשטא
נ"ח
הורה
תואר
המלאכים
במלאכה
משוב
דגמרא
בנפשו
לפ"ק
##פתי
מוטב
אידך
שכיחא
מלבוש
##לד
בסוטה
צורה
##ורן
זעירא
אילנות
נ"ה
ושנים
מדליקין
גביה
הבו
ק"ק
עומדין
כהאי
שבית
להפרי
לחקור
##יתים
ובפ'
לבת
תחילת
לעקור
המחלוקת
פאה
ביל
וטו
במידי
ביארנו
פשיט
הלי
וברור
שהוק
ופשיטא
זול
##נגולת
אדא
##ol
ביטל
לטומאה
דסוף
וברכת
דמקשה
שנפלה
עירו
ולילה
ר"ז
ורע
ככ
ומייתי
וי"ו
אוכלת
בפסק
בטעמא
לכוף
ממין
ובדברי
מנכסי
מכרה
קיט
שמבואר
נאסרה
האחרים
לשלו
וקצת
למקדש
וקורא
ששל
כר"ע
להרא"ש
השלם
הפר"ח
שהובא
הנתינה
נבו
הדב
שופטים
להפ
וענין
אצבע
בעזה
דסברי
אחורי
הנבואה
##יפין
##ט'
ממאי
##זיקין
בס"ק
באהל
דצרי
##שוה
##aaaaaaaa
חטאו
כתבי
שנתח
תמות
בכורים
הצו
חשובה
חם
ורצה
דטעם
ואזיל
ומצות
וו
וממכר
הוש
##ותי'
ונפ
ממקומו
##צ'
שבתוך
השיעור
##מתם
למיתני
לתחום
שאסר
תהי'
מתניתא
מהיום
חליפין
חתימת
לכולי
ש"ס
וספק
הלבנה
ובשר
דעיר
מיבעי
מעלין
למים
מאשר
הכבד
תוע
בכזית
##רי"ט
##ירע
נטע
עקב
ומצד
מעיקר
##us
בירור
דוכתא
הגלילי
וליקוטים
שהוכיח
שבועתו
שצוה
גירסא
##נהיג
ואדרבא
רעות
##וסה
##פירת
מסכים
משכ
##מעינן
והשאר
בזמנה
העידו
וחכ
בקל
דבהא
##בונה
ולז
כני
##qq
הכתובים
הגאולה
דאדרבה
סימנין
מכי
ואנ
ששניהם
טובות
השבטים
שמין
באשת
##כניס
##ותרה
טוע
המ"א
דר"ע
##zv
##ייף
מותו
ציו
וקנה
דרשא
פתחי
החתן
מקיי
דהויא
##קוק
עשיתי
הטובה
אוהב
דלרב
משפטי
שייכות
כדבריו
##בחר
בביה
דאע"פ
ראית
לפל
אודות
מברייתא
שנדר
חייל
ונפש
שכות
וידבר
נחית
פלא
מטר
##כלי
יעמוד
##פתה
בא'
יקנה
התרה
הרא"ה
כפשוטו
גלו
שותפין
##ir
ומכר
שונא
איפשר
##רבעים
ומשה
##עני
שניתן
השוה
יאיר
בעולה
וכלל
ככה
קליפה
דהי'
אזל
ובהכי
אדעתיה
שרת
ששא
בחו"מ
לדחוק
בתשוב
בקהל
מדובר
להעביר
קדישא
##חויב
הנזכרים
דתל
##כורה
דשק
לירושלים
מבעל
לאות
חידושים
שמל
אכלה
ושבת
הנודר
##צדק
כדרכו
להשו
איבעיא
בחלה
שימ
חשבינן
##ולדו
מיב
באנו
16
אילימא
מיט
דיר
שמקבל
לחבר
דיליה
שובר
מבאר
מקצתו
הצריך
חזקיה
להפך
ועיי"ש
ניחוש
אכול
לדרך
רוחות
וכעת
דגלי
בחמץ
##לפע
וקרוב
באותן
בחת
##xx
וילך
באחרי
##eh
##דרגה
##פניו
ומעשר
וקודם
קושיות
הראשונות
והמו
הקבלה
לב'
מעלות
פרוע
לדבריהם
ואשת
שבאמת
בה"ג
מדרי
זיקה
חננאל
הטהור
פוג
חתיכות
בע"א
שהרמב"ם
##ינוס
בחדש
מלמטה
עצמי
במאמר
בציצית
מבטלין
בצי
##פשטות
הוכח
שטרי
שלהן
לבשל
יראו
שביד
##צן
שאילו
ידידי
בלשונו
שוק
בחג
##יפה
לרמוז
##יחו
הלוים
יאכלו
גיטא
נכונה
##צה"ח
סט
לכוין
##קני
וקי"ל
תערובות
סומכין
ענינו
הנהר
צפ
במ"א
רביע
ליור
##וחא
שדות
להדיוט
##טהור
בקיאין
שידוע
במוצאי
ולהיות
חשיבא
המיעוט
##is
אחרא
מבק
הר"ם
תבוא
הירדן
יצאה
ההת
בט"ז
בדיו
##זת
לאוס
הודיע
רעהו
##ינ'
המדה
לתלמיד
##רונות
ט"ס
##שי'
במשפט
ונהי
מכוון
##עתיך
חייו
שהתנה
חמרא
משק
האיר
שהתיר
מראש
פסל
אבין
##פופרת
בהקד
לעשה
היצר
שנברא
לחכמים
והיתר
לעבודת
הניחו
בלחוד
##יביה
טרפון
נחלה
לאיזה
מעיר
מצינן
כדבר
נסים
הוי"ה
גאולה
ספרא
בנדה
בצ"ע
##זוק
מהרי"ל
הרבנים
מה"ט
תלה
בעול
דתו
הגלות
כותי
תורתו
ישנו
וערב
מחוור
ופירשו
##רייתא
##פלגי
prisha
האבן
##שונות
מיהת
היהודים
לחזק
הפסול
מאמ
שנזכר
לקיימו
כדלקמן
קלים
מהר"ר
בנפש
דבוק
##ישור
הקטנים
##יקין
חמין
בשלום
##ילתיה
ביחיד
ומשפט
מגר
בע"ה
המאכל
כמש"ל
דניאל
##ib
בבג
מתקן
בטהרה
בפרהסיא
וכר
לשנה
##טון
##פרנס
לחיות
ומנ
הילך
ועז
בקיצור
לר"ע
לחופה
המשניות
כרך
המין
מגע
יזכה
טענות
אעפ"כ
מנחם
נעלם
במלחמה
שהעידו
ליורש
מונ
מהנ
המביא
##ff
בשיטה
מתרץ
בכתובה
ותני
הסתם
עשאו
סעודת
המלו
משבועה
##שתם
הקדושים
בספרים
יבואר
דכולהו
מציאה
וסובר
מקוב
ישנים
ויפה
כבש
לרבה
לדמות
שהות
##שתא
ומשת
##צוי
החיצו
לענות
##צבע
תרוייהו
##vv
לשלוח
שייכא
למנ
לסתור
והוסיף
לקט
מעמד
##חקו
##ברכו
##זקן
ולרב
##כרון
רוחב
דאתיא
הגפן
וארץ
והמה
משוי
בזוהר
##jk
בתענית
עדן
דס"ד
##יני'
הבנין
הנשה
תז
##פתו
עברה
אקרא
שמפרש
שתקנו
אלוה
##ed
כת'
האונס
בהקדש
שעליו
וכדכתיב
ולפענ"ד
רמב"ן
##מישי
ברבים
לטרו
בחו"ל
##מ"ט
אדוני
בחזק
כשאומר
בעבודה
בימות
##שק
הד'
באוכל
אבני
העגל
hagahot
בהמתו
עוק
שהודה
פירי
פול
##פם
ומני
בתנור
ידבר
השותפין
בדלא
כמובן
בע"פ
והעלה
בכותל
הפשט
לקרבן
שוות
טהרות
וכס
מדברים
היראה
##יוע
החטאת
דקל
התרומות
והמע
טלטול
הקודמת
##שאים
החזיר
לחודיה
##מיענו
להגאון
שבי
לשאלה
מיימו
וסי'
מקדיש
דסנהדרין
##צמות
##רושה
לאכל
שהצ
דמצות
וראו
השמות
יגיע
בסופו
מתקיים
דיבר
פרנס
שיוד
עולות
בעשרה
בעור
השו"ע
ביוה"כ
במשנתנו
כסות
תצ
ברכו
מזון
מלאה
שזכה
ואהרן
קנא
פרשיות
שבני
מג"א
מואב
מרה
הפי'
כדאמרן
##סט
אדון
המהרש"א
ענו
השקל
##רהר
בשפת
מדקתני
##יובתא
##ul
יטע
##שבתו
ונכון
הנוגע
שוחטין
##זיל
במציאות
פות
צריכות
##טלת
צרכי
כנען
מתני
הנשואין
הרצון
דתרי
לרה
יקבל
ובגמ'
שיור
ואמת
בח"א
להתירה
##יחת
##מחין
הנרות
##em
כחכמים
##qk
##מיון
כרשב"ג
שטו
##מוץ
להרוג
דממ
עולין
בלק
בשכ
עינים
הצר
וכבוד
קידושי
ומתן
##as
צרתה
פשוטה
דהואיל
דמתקרי
לבנה
ג"ש
בכ"ז
חלון
זכותו
זרעים
##סקל
ואוק
העובד
שימצא
קלו
אבדה
ואיהו
בבן
והש"ך
##פ"ז
ולמטה
ידיהם
זכרון
דוג
המגילה
בטלו
שניהן
לשמים
הראה
##jj
לכות
##כסה
במגילה
אוחז
בתק
תעשו
מוקדם
##פקו
ובנו
ב"א
ומודה
דביצה
##מחים
למקומו
הקר
דחזי
תשמע
17
חינוך
השכירות
מאוחר
בקב
##שוש
אשכח
לעלמא
ועיי'
טמאין
בהב
##עז
בשניהם
שנתע
בנותן
מוחל
סבה
##תייר
הפע
##נתינו
לתרומה
נקראו
##מרות
שתירץ
לשתי
חסדים
והאשה
##uk
באלה
במזונות
##חיל
ונשת
שעתא
להתוס'
ירושלם
ברבית
ויצ
הזרע
ומתה
במנחה
אמנה
נ"ז
ג"פ
מלכותו
קרית
##פחתו
בהני
הסימנים
הצורך
דרבו
המוחזק
ראיית
מהרי"ט
##נבה
מתבאר
נ"ג
מניה
תושב
שבכתב
למדין
דאב
##יבי
ואכתי
שיוציא
שהני
כחות
החיות
חששו
אברים
עינו
והיכי
##יטים
יגע
חשיבי
זא"ז
ותק
וקטן
##דימה
בפל
ועמד
ממר
##לקין
דיינים
לטב
המכר
לפתוח
לראשון
באהבה
ובשעת
ואמרי
המחזיק
ולמד
כדאי'
##חרונים
לתפלה
דסתמא
תערובת
סומך
הנכנס
לחתוך
ערכין
##in
והתורה
יורשים
יכתוב
את"ל
מועלת
ועולה
העבירה
דכות
גיטה
בפקדון
תירצו
מדאי
לנח
מיתתו
##קדוק
##רמב"ם
רי"ד
כאלה
נצר
בע"מ
##צדיק
עולים
העשו
יורשי
נטילה
בשור
##מועה
תבשיל
התרו
שסיים
דבכ
ושק
##צוה"ח
השומע
נ"ו
##נוכה
נסכים
הצדקה
דבתר
תיקן
בשיעור
##קדשו
18
מכם
לכפר
בערך
בסק
ש"ח
מאומה
כפים
##ud
הגנב
נשמת
גדי
הרביעי
וטמא
##ברתיו
השרת
קרובה
חמי
ומינה
גוד
גילה
אמרנו
נפסק
##שיתי
שקודם
בהמת
ויעקב
##נוני
ברכי
בלעם
מעבר
נזהר
להרבות
מימי
והענין
##דימו
##ירושלם
ופרק
##רש"ל
##נוב
##מינא
דחזקה
בהגהת
לחשוב
המלחמה
וכשא
מציא
הוצאת
מתוכו
לצדקה
ויין
קיל
מחצית
אהני
מצויה
להטיל
במלא
בעובדא
לפע"ד
מועלין
ולפעמים
##גמר
למצות
להבא
מעמידין
לעניין
##ux
הכין
תנור
והתניא
דלישנא
משפחה
וסוף
##יוני
##קדשי
המור
דשי
##פנה
בצבור
שיקנה
יחידי
תתא
דרשה
עבה
זומ
##פרד
ובשבת
זוטא
##cc
שנייה
וה"ל
ודומה
העצם
ועי"ז
נער
וכדברי
##מורת
הר"ר
##טוו
##טהרות
ס"פ
יתיר
ואר
שאכלו
וסבר
בתמיה
שחיטתו
במיתה
שיקרא
רגלי
ומצוה
הסוברים
מוזהר
ירך
בשלימות
צפון
בעינא
אירוסין
גיט
מביאה
##ik
בעוה"ז
ואתם
לאשת
אחין
יוסיף
נפילה
##מו"ר
וקבל
להתחייב
תופסין
לאחיו
בצירוף
##פסה
להגיד
דמצינו
הכיר
טרח
מלוג
##מאות
בחל
##yy
למכתב
קבו
לההיא
פעולה
והרבה
הרשב"ם
שמוציא
נתרצה
פריש
בביצה
ושאל
שעברו
היובל
##וריא
גיסא
עניני
20
##גהות
החבית
האמצעי
##וקק
נפלא
להוציאה
ניט
מבשל
פעל
וע"ד
לרע
בנכסים
##כחי
קצוב
שהלוה
מפורשת
שלימות
מעכ"ת
נהירא
פיגול
ודמי
דוק
מוח
אדני
מחר
השמיני
להתנות
והילכך
דידי
ובסי'
יולדת
ואידך
הנחה
ושניהם
רש"ל
##קבלו
ולג
הדלת
להקב"ה
עשתה
שאותו
בבחי'
דת"ק
בשמי
אימת
לו'
הנמצאים
דתימא
מתחלת
נשך
הצאן
הבקר
##יעבוד
בדקה
ביניהן
ונשבע
לחיים
בכהן
המקשה
בזה"ל
לטעות
ריבוי
הקי
##בורות
בישוב
שיעורא
##סחא
דינין
נוטלין
מטו
הגרע
דר"ח
##פאר
##קופה
האמ
##כנים
חושב
במג"א
זהובים
מינין
הזכר
סתום
ניתנו
##ww
תקלה
מקדשין
משמש
ההס
שחרור
היותו
לגמור
המינים
##zm
הנשיא
יודעת
החוט
יחשב
ופרט
מותרות
##זה"כ
כההיא
לתק
צח
שנטל
תנינן
בהיותו
מכשול
בר"ן
לרבו
מנשה
לשמן
שעי
כת"ק
כמעשה
##ניהן
לפיר
לגוף
שיכתוב
##לוע
בדיקת
רה"ר
בפירושו
##ארו
כדמפרש
נחלת
והודה
עיניך
שותף
##מסיק
וקדש
לוק
טובת
גשמי
מכירין
##bb
להשביע
כרא
לשה
כסדרן
הדדי
לחכם
##צוק
##דס
##ציה
גופי
##ph
מגרש
בבגד
גרוע
חציצה
הפסיד
לפלו
לחירות
מעשים
הכחשה
המלכים
##ראת
ויברך
פועלים
למעבד
##יכ'
בד"מ
בקטן
נשואה
רבוותא
וידע
וקל
##גלחת
אוסרין
בקצרה
הסימן
וחלק
הויה
משכן
וגדולה
##ותייהו
רופא
לבדה
##כ"ת
עופות
תוסיף
הנעשה
לקיום
מסיים
קושי
ראויים
לשחיטה
##סיפא
שקו
ואיזה
דחזינן
שכש
##מיהם
ממ"נ
ודחי
ומרן
התקבל
שפע
אורך
שלב
כשהם
נוהגת
ניהו
דלרבנן
חטאות
בעבודת
מטמאה
ולוי
##פשע
ומעלה
##פוץ
##od
דלר'
מקובצת
בדדמי
מב'
מיכן
##סקינן
לשמא
השפ
##ע"ה
שמור
ומה"ט
הבאת
ערות
למנוע
ור"א
הרוצה
נותנת
##רקעי
##ס"ד
אבותיו
שכלו
##אשר
בקדושת
##af
##ug
שדו
##בי"ט
בגלל
שחלקו
##ישן
רשאין
##מיים
##עושה
וקיים
אינש
בגדיו
לכלי
וכשם
שקשה
וביותר
גואל
פותח
##nn
מזוי
כלישנא
בבבל
להקדיש
העיסה
דידהו
לינשא
מק"ו
ניזו
טעין
יפרע
יתירא
##og
חסיד
לפירות
ק"י
במדת
##בתו
##בדי
באחר
דמכל
לתנא
ליבום
שמתה
אזלא
ותניא
ויתכן
דקה
פי"א
יקום
דב"מ
כשו
דיכ
והמת
במב
לשונות
דמספקא
המנין
כ"ת
##ym
##גודה
הנחש
##ב'
##מייהו
ואתא
##ישר
לפקפק
מהדר
אורה
משתעבד
##פקיר
בעזה"י
ושמו
##ac
ויתר
##ok
תנינא
דהתורה
חבל
דהנ
הילכתא
הערות
מחזקת
סופ
##uq
שליחותו
באחרונה
לגזור
במשא
לרצון
עבודתו
להתחיל
##יאו
##ת"ד
שדרכו
מתוק
חסידים
כמעט
לשבח
הגזלן
דכשה
בגר
כרש"י
למנין
תיקו
למצרים
מדאמרינן
מסתפק
##צוץ
שהבין
אחריני
ותי
הטבילה
סמיכה
##zs
בזמ
היורש
יוצר
בנוגע
##ודתו
לעדים
הבדלה
##פנו
המלאך
##אות
##jg
איהי
החצי
##לוץ
באילן
למעשר
בגב
##פיסה
##רתי
##בורים
ארוכה
מטלטלי
קולו
מלי
שפתי
לחתום
נפרש
נתר
חלוקים
##שלום
##גזר
לעילא
דבן
יע"א
האידנא
וליתן
כיום
שטוען
ואשתו
כהרמב"ם
הקברות
##שכה
לאכלו
במטלטלין
בטומאת
##יד"א
##ה"מ
מחלה
זיתים
שהשיב
דעי
דמות
רעים
במקרא
בשי
##צוף
##yk
ור"ת
סעודות
##אתו
##bg
התוספת
וחמור
ששלח
##כסף
דשבועות
ברע
נתגרשה
משועבדים
המצר
בשליח
##ex
##jh
בכס
אומנות
##נתם
עליונה
מקפ
הגשמי
שיבוא
כשח
כנה"ג
נהג
אמצעי
##uw
מבשר
הכוכבים
הרחמים
שתק
בציבור
ומנין
נכל
להגיה
חשבו
קץ
##קתו
בידוע
התבואה
מעורב
שלחן
כשני
פירושא
##קבא
שאחד
כדכתב
הוציאו
הצורה
שכולם
בס"ת
##בב
לסדר
להתירו
להורי
יצרו
רי"ף
האלמנה
##רבות
##צאין
שנב
תפלתו
פנויה
##חיה
##נבא
##uh
המבול
בקנס
יבנה
שכותב
חיישי'
וד'
אידי
דמאחר
##ברוך
מעליו
השנית
##פוט
במדינה
בבעלים
דתנאי
ומשלם
##ט"ו
##צק
ומלכות
להכריע
יתיב
מערכת
הבאתי
##מורי
ומסתמא
##ut
דממילא
עדין
יומו
נאבד
##ov
מתעסק
כתבה
לשניהם
שלמד
דב"ק
הנהו
יני
גמירי
השעה
##ינתי
קאמרי
שזינתה
##eg
ובתו
פז
ובטל
מעכבת
בשלה
האמונה
לבינה
##ושטא
קנוי
הזב
ההיכל
לא"י
האחין
הקה
מזל
##עיפים
##bt
מימר
##לונות
ידעי
דנעשה
אצלה
פיהם
בכת
דפי'
בסתמא
##כילו
ששמו
לר"ל
לידיה
##ew
##ולקים
ועליו
מקרב
דתלמודא
##פתים
והנני
בשג
בטול
הנכון
קנאה
##וסס
קורה
##ינינן
הכה
##שועה
צונן
גי'
שימות
הקריאה
פשיעה
ונותנין
בפ"ו
מחט
ולעיל
בדוחק
ותימה
##סום
תביעה
חבורה
פלונית
הגולה
קדושי
והך
ועו
וחלב
מרים
לוגין
העונש
ח"י
דרחמנא
בשבח
בבכור
שדין
היית
דסיפא
שולח
##הג
בשחרית
##jc
לקידושין
אמרין
תרועה
כרתי
נוד
##zk
##קומות
##ורבן
ממתניתין
זיו
קפיד
זקני
##zd
ובעי
לבער
##zw
##רוסה
הנע
קבורה
יתפלל
חנה
ושחט
החש
כדפי'
דכר
כצ
דמלכות
ניטל
דאומר
בחמין
מכזית
ההג
שבודאי
דקים
הערבים
##zg
תרין
כנזכר
##ep
נעל
##ובות
תשע
לוג
ולהוציא
מבושל
דסת
ששאל
בודקין
וכולן
בחק
דאוק
שיזכה
תפלין
קרע
מבעלה
ובעיקר
##iq
##יבורית
באיסורי
##פף
##בדלה
##yg
בתפילין
הבגדים
לחת
ולהבא
שמועה
##jr
הה"ד
פורים
אלים
במנה
שהמש
דרבים
עלאה
##לויי
##ישות
##כיות
פניהם
בבבא
משתי
##js
##חזי
##נף
##ילם
וכדאמר
ועוף
יתע
ושות
בשותפות
זכרים
הידים
##ב"ן
טול
##eq
התה
##ow
הה"מ
המובחר
נתקדשה
נשבעין
קריאה
עמהן
לפסח
בטלים
החולה
מחייבין
הפשוט
קצו
לשער
מניחין
##yd
בסוגיין
##כינה
גדל
מוכרחים
##jw
שתצא
##מונו
והיאך
לדברים
##bd
יכלו
חזקתו
##fv
דנזיר
לחטאת
שלוה
תומו
הגיעו
תשת
##סורים
בחטאת
הקבר
##דיו
##דוני
וא"ו
ביכורים
הו"א
הטענה
##zp
##חלל
פחד
דדילמא
כתובת
##יאשו
שהרא
ישיבה
קנסא
נתפס
לר"ה
הנישואין
##yc
##ינתא
שבב
##קול
בגמר
הקטנה
נדרי
##zc
דדייק
זמנה
המנונא
דאזיל
##מטום
מדרך
##טוט
##קוח
כתם
באה"ע
בנדר
שטעה
מראית
הטעמים
כמפורש
כיוון
בסעודה
ששחט
לפניה
לממון
##פוח
בתולים
מרבנן
אכילתו
הקילו
בארנו
מזמור
אונק
והריטב"א
בדרכי
סקילה
ויהי'
באכילת
הריוח
##bw
האחת
דאטו
לזרע
לגא
לבור
זכרונם
החופה
גובין
בספינה
והאר
שבשעת
מגלח
והפר
בב"א
bach
בנפ
מעשיהם
שקבלו
אומרין
העיון
העצים
לעיני
מהר"מ
מפש
ככתוב
במשיכה
##fd
שרבינו
דזבחים
הופ
##לאל
מזרח
ממל
לעסוק
נאם
אסיק
כוסות
שקדם
ומחמת
וכפר
כעיקר
הנחת
ילכו
##עדים
##yw
כיסוי
דבריה
מבורר
##jd
##op
כוונתם
##כני
מתיב
ומיירי
משפטים
בדל
ת"ש
וסיפא
כשש
מעכבין
דבכורות
החרי
שותפים
למשנה
##uc
וקב
כלו'
והרי"ף
הרים
ויו"ט
##סוך
המחילה
משח
##ng
##פללים
ויודע
נמכר
משלשה
למלכות
להרשב"א
דלכ"ע
מפרק
##jm
##ox
מהתם
##ציצה
ולהלן
השגת
דאיצטריך
##jx
שביעי
קבלתי
השלישית
איד
בימינו
להתא
טועה
וספר
##יותו
בשאינו
עגו
##נעו
##ak
##oc
##דונו
מעלי
##bk
##שעה
דיק
עט
שהעיד
דסוכה
ברא"ש
##ריאה
חדשות
לתוכה
שפל
ור"ח
לר"ת
ה"ו
טענינן
ורביה
שכב
ביובל
##כריע
##ומים
רבעי
פרש
##חיצות
##ידע
ומתו
##חריו
הפוסק
ע"ט
בקרן
המשכיר
בגזל
הצרי
החולקים
השע
כמח
דדרשינן
##זוב
הפרט
לבשר
##ופיה
ישיב
##ns
אפוטרופוס
ומתרץ
הקנאה
שנשאל
דבלאו
וכיו"ב
עונשין
##ירוב
##פטרו
דר"נ
ירבה
ואימא
החולץ
##ידי'
##ושי'
ללבוש
הפסוקים
נבד
##ערין
השותפות
קבין
##oq
משתמש
ממשעבדי
##zh
וישלח
##iw
גסה
##עהו
כשהן
שנודע
אורים
קבור
הגירושין
##פורן
אשו
##zt
המוד
##אתים
האחרונה
רד"ק
שכ"מ
נקוב
##שבועת
##שהה
ובשל
##שבות
תקח
דשלא
נוש
נצח
אנס
הראויה
דגרמי
שומא
ושלשה
דלפ"ז
נפשם
הר"א
להדדי
ופסול
כמלא
למשל
לכופו
לבתר
לההוא
הפריש
נורא
הזמה
##גלח
##ילונית
יהרג
שדרשו
##זבול
לעזר
##חזקו
מחמיר
ופלי
וימ
אוי
דהרשב"א
##jq
להשה
##ערת
להפסיד
רם
התינוק
מהר"ש
##jl
ודור
##שרף
בשופר
וישמע
ובענין
דיצא
אלהיכם
דכולי
דאסר
ראוים
שעד
הינו
וכתבתי
ואכמ"ל
קומי
שבאה
יתה
אשל
אפס
שמירת
הצעיר
המשך
לעזרה
למיעבד
##fh
##לבוש
##yq
פרעתיך
נחשבת
ולוה
##עודת
ובכן
שנתנה
##גרא
ולהש
נוח
עכת"ד
לעיקר
הכריע
תשלומי
שמב
ומבטל
הרשאה
לטעמא
לדם
הייתה
##נינים
כפירש"י
המסקנא
##כלות
תרצה
עילאה
נגר
מאחד
ופעמים
צ"ט
תשרי
##אב
פיה
הדל
דדר
המנורה
##yt
להשכיר
חזית
בקדש
ניה
אמירת
איגר
חולץ
דהה
שכנגדו
##ix
דידי'
בדאורייתא
בקיום
ומסתברא
לנק
איריא
sh
קרום
לנד
##דרינן
##לתות
הכת
##fx
##aw
מקודש
##yh
##ומה
דחייש
דיהיב
לרח
לעשותה
וירד
בטענה
מחשבות
האהבה
אגד
##ישים
לעולה
##חרט
דרישה
שחולק
ורבים
בימין
המוש
להזיק
בהח
ונט
##בועות
תכט
##מצום
שהלכה
החרם
עוברת
שלחו
כשנת
תהי
ביתר
##fp
המעשים
##ורל
##כמי
##טיפה
צ"א
משבת
ובכלל
מעשי
סדום
לעורר
##טנות
הי"א
ואנכי
ופו
אושע
משגיח
##יתרא
המוק
שאיני
ונמצאת
נסתר
##ליפות
##ישע
ואגב
השמחה
דבודאי
להאכיל
and
ההלואה
לעשר
תביא
שערים
##yx
ההלכות
שאובין
באנ
הנפקד
ומניח
הוראת
##bm
##nm
ע"ע
מוג
מנייהו
אחו
##גחה
הקפ
מהירושלמי
דקנה
דמשו
מכ"מ
##נאתו
בבור
שיקבל
##שעים
בטבע
חרו
וכת
מעב
בטר
##יבים
צה
וקמ"ל
##חזקה
משוה
##bq
להודות
התחילו
תכש
##צוצות
והוכיח
##חלב
##ראו
הגעלה
##ובדי
ת"ת
האבל
איכה
כסתם
חילו
ובשאר
##קדשים
כבשים
שיתנו
ש"ע
שיחזור
ומעשרות
מפאת
דיחוי
בזאת
דוה
והואיל
ואור
השמועה
##יאין
שהול
שהתירו
מרגיש
##זלו
בדינא
ענף
##וריה
דנפ
דנפקא
דב"ש
לב"ה
לזר
תענו
צרות
##כחות
משע
בקרוב
צאת
##ספין
##ינית
מהה
קצרה
רחבה
הלה
שיפ
במקוה
וזר
וכלה
בחטא
והארץ
המל"מ
##zx
להאמין
לבלתי
והאמר
ויעו
למתני
יושבי
דמדברי
שגד
דמגילה
ודייק
כונה
איננה
המשל
הדברות
מהיכן
##zr
וטר
מעיקרו
וסימן
ומש"כ
בעליה
מפו
עשאה
הגזירה
##וה"מ
אבלות
היכר
פגום
ינו
##כירת
לאר
הסוג
אינהו
זולתו
וחס
שומן
איה
סודר
ומלא
##np
##jt
שנתי
שחשב
דיא
לקד
פחותה
בקודש
צ"ו
##קרה
הטורים
בעדי
שנוטל
##ריים
משנ
בא"ח
אלקיך
דעובר
ת'
הבנות
לאלו
כנו
יימר
וכדעת
שו"ע
##פסול
בעיניך
זכיתי
שישת
ק"ה
העירוב
מהי
##פטיר
##bh
וקיימא
כירה
##zl
הנזק
רוצח
גלגול
##aq
לומד
ר"ן
וכוונתו
שפסקו
##לש
מדאמר
אר"י
נתכו
במלכות
בביא
שלדעת
הלז
דקטן
הקומץ
הוצא
##br
מציל
קרבנו
לכמה
##ב"ח
##נבו
##רויח
צמח
##yl
בעילת
המבוי
##זרתי
##fk
##פשטה
התפילה
הביטול
דמשת
סיד
ידעה
##פטים
ויהא
מגלה
הסבה
שבהן
אהיה
צ"ח
ומדלא
##עילו
מאותה
בבנין
ולע"ד
ספיקות
ומקום
חוצה
טהורין
ומיושב
ביתך
ברך
הגזילה
ויצאו
קבעו
דימי
##כו'
##מודו
מאתו
דיחיד
##yr
ומסיים
למסקנא
נזקקין
מפורסם
##bl
כמס
נבל
##ih
אביהן
##nh
רוק
##לוקין
מכתבו
לבוד
דגז
הכניס
##yp
נגעים
לסלקו
גני
סילוק
דוודאי
בידיה
ארישא
שמוע
בכולה
אומה
כבית
שמצוה
הודו
נבדל
צפו
כשעת
דעדי
התפילין
ול"ש
שלפניו
אחזקה
דקב
##bc
הקרא
##מוח
##קהל
תהילים
ובשביל
##בורי
וסמך
סעיפים
מרשותו
כמאמר
בבוקר
תבש
למוד
כדתניא
לשבועה
שתחת
מש"ס
ק"ד
נבעלה
טיר
מדיני
ותת
דהד
דאינון
וכולם
מכשירין
בתמורה
פרקים
דממונא
ותנא
יחדיו
וכשב
אונקלוס
##פסו
דשאר
הוקשה
יובל
דלר"י
הודאת
##תיחה
עמרם
חסידות
עינינו
יחלוקו
נחלק
וכמש"ל
צרת
יבמתו
לח"מ
##zq
##bs
בתוספת
שנסתפק
ההרים
מעשרות
ישי
במעי
נוחלין
##גישו
רבוי
##לתו
##חתך
וצר
לטובת
##גישה
קשור
רועה
אי"ה
לגופה
בר"פ
ברורים
תרע
שמשה
##כף
אימור
##מום
החשש
##fg
לרוח
מאכלות
דהש"ס
ועשרים
##עתיד
הש"ץ
שמצ
וילדה
מקבלת
וביו
וטעמו
בנוסח
##ודיעו
הבדיקה
##nk
מילין
##תהו
אזלי
דאע
##ובאה
דבמת
##חור
לחולה
שבערוה
וכולי
בעלת
##פום
השעבוד
מצותו
יומת
צ"ה
דשניהם
דדם
לדידי
שידעו
##bv
השבוע
דמלוה
ומתנה
ודעתו
שמצד
עקירה
ברה"י
דנקיט
הזר
בנר
בעודו
מגופו
לקבלה
ושמן
שאלתו
דבעלמא
##פללו
האחים
שאיסור
שאו
נשארו
מדמה
בנט
##וסת
וכנגד
עוברים
##ותך
ושלח
באו"ח
אב"ד
בנך
שומרים
עא
שחלק
וכשר
##פקדון
המפורש
##חיך
ישבו
וכ"נ
לנג
מעלמא
חוזרין
##יהיה
עומר
שעתה
בניהם
##jp
במגע
דסמ
יבין
נזקי
לחש
מאב
קדמה
תאחר
דקרי
שביתה
לבבו
החתיכה
21
חזו
כדכתיבנא
לגל
ופסקו
אי'
פתוחה
ורבו
במשך
לביה
לג'
דנפשיה
ברמ"א
היחוד
סמכו
##כינו
כתי'
##jv
ידועים
שיבואו
חופ
הגדר
ונ"מ
ילד
שנחלקו
מחללין
שטרו
דכה"ג
זבין
##לדת
עינוי
הגון
צדדים
תקיעה
דלדידיה
קשים
##כורים
##מירת
בתכלית
שי"ל
יוצאת
הפטור
לראיה
עטרת
שמשמע
גרסי'
ק"א
הכניסה
##כבו
מאתמול
איברים
שבמקום
הזהיר
וקאי
בשאין
דחמץ
##רעור
ושואלים
קיימו
##ונב
ליתנו
נתיבות
גרס
י"ו
המכונה
פירכא
ככול
בח"ל
האסורים
האויר
גברי
הידוע
##bx
##fr
הס"ת
הוצאות
מבל
##פכו
נושאים
הנייר
באלף
ומדו
בהמ
פלוגת
השפע
תנחומא
קביעות
אגו
דחש
תאנים
הדיוטות
כרמלית
##טעי
לאקשו
##ודק
ביבש
שרינן
##נז
להוש
##מינה
שנצ
מטלטל
שנשאת
צדוק
בריתי
##פריך
ערבי
המנ
אדמה
הפוס
הקדמונים
הזורק
שמשת
שחור
והעיקר
ישל
תפילת
ע"ו
##וסים
זרק
##yv
##נונים
##ראלי
יחול
התחייב
דאדרבא
נשי
חמיו
דשיל"מ
המדיר
בכיס
מכור
לצור
שלע
me
דפו
ואדם
מידה
##ניף
דגמ'
וסייע
עשירי
הזאה
יפסיד
הדחה
נגדו
כמוך
הארוך
שכיחי
##חוה
המצרי
השירים
להזהיר
במספר
ותומים
נוב
שהשו
עגלה
בחיוב
דהדר
ושנה
##צווה
דעתא
##ip
בנא
להשמיענו
דבריך
ונתתי
מנס
בטלית
יהוד
בשורש
מומחין
##נ"ב
##fc
הג"ה
פר"ח
לגב
להכחיש
הכס
המברך
היורשין
שעושים
עסקי
קצבה
משכב
הגבורה
##כמתו
וחמשה
לתקוע
##ברי'
ובאה
##ift
בתיקו
שכותבין
וכלים
לישני
מביאים
דמלכותא
דיום
רובע
דמז
כאביי
דמכ
מטי
ובצ
בניך
והלה
אייתי
לשת
דאור
בתשובותיו
דהרב
תחתיה
סריס
ובמח
לציון
עזר
>.</
וניחא
ותנן
ניצ
משכו
שפטור
הנשר
האנו
קניא
דסוטה
שמנו
לכנוס
##מיכה
שוכר
##bp
דמיון
##ננה
##fm
##פרשה
ונפטר
הערוך
בפרי
ונמצאו
תשו
התבשיל
לאקשויי
והדין
ולמי
מקצתה
דלו
##fw
בסתר
המטלטלין
##פסי
נק'
לרגל
וברייתא
פב
##ייתם
דלב
מכן
העזרה
חטין
נסתלק
דמדינא
חטה
נאסרת
פנוי
דרשות
נכנסו
צ"ג
העומדים
וברכה
לתפוס
בניה
העמק
להגיע
##הר
הס"ד
תמימה
גג
##שכר
אורחא
ידידו
אישת
דמחלק
ועיר
כפיו
ואבד
כוותי'
שהשיג
מתבטל
זקוקה
מצויין
תלך
##מו'
אח"ז
שטען
ובזמן
וחדא
שעתיד
האחרת
ואשם
טבח
העניים
##fs
ומזו
לאותה
מוסיפין
##בשים
המעשרות
אשתי
ערום
בצונן
דאמרה
שילך
שמיא
מסוג
תאוה
לנת
שיעלה
שאח"כ
הכלה
נשוי
סכך
##פיות
רע"א
שאתם
תמרים
אלין
גורס
לצדד
וחשיב
לזרוק
דוא
הלקוחות
רצוני
שאמרתי
המובא
דקסבר
ענה
ובשלמא
תצד
חייבות
נזר
##fq
מעיין
בנמצא
אברם
##צי'
יתעלה
נגמרה
לביאה
בפשיעה
לבטלו
עגל
מהפ
ובמש
וזכר
מוהר"ר
להזהר
קמה
ופלוני
בחלקו
דפירש
דע"א
הו'
שאירע
##ריח
ותע
לרחוץ
מאהבה
##גז
מכירת
##גרשת
וליתא
המעלה
ביטוי
בקבר
לב"ש
מגדולי
חוצ
ונקט
בהרבה
החליצה
הזוהר
##fl
ור"מ
המקנה
להבדיל
לעין
רגלו
הפועלים
ודילמא
שהחזיק
נבראו
דרבוותא
##פטו
בעיניהם
תעלה
ויאכל
הכולל
שהוסיף
שכ"כ
בחזרה
שונות
##יבורו
בארוכה
דכוונתו
##כתם
ונודע
א"ב
##נו'
ששון
##דיר
פתא
ק"ח
סומא
למזונות
##קבות
נטלו
##nx
ונטל
אמורא
פוטרת
הצי
שלמות
מדכתב
ואחרים
חמיר
ק"ב
פקח
##וסף
##מיהן
מכלי
מפיק
שירד
##ונתן
לחצאין
ושייך
למיפרך
המוצא
##פורי
וחזקה
בקדוש
רה
לרה"ר
וסתם
דמדרבנן
הענינים
שביתת
חשיבות
##ohen
משנים
תועבה
יעלו
בפ"ז
לקחו
להרמב"ן
חיצו
לבבך
מרחוק
דנח
לשיט
הימנה
לאויר
ואכלו
בעפר
ואמרי'
שאסרו
שבנ
עוקר
שחוזר
רה"י
וצריכה
שממנו
חמד
פסקינן
דיוצא
באמירה
##וחר
ושיעור
מתרומה
כבי
##ושש
במהרה
טרפות
שהשב
משלה
מהול
שמחל
##ap
הרה"ג
בירוש'
##סרים
חולצת
מלע
במנהג
דרובא
העמדה
##נסין
##">
הזבח
sift
שמגיע
בערכין
kohen
##00
דמעשה
siftei
דב"ב
במראה
##nl
לקב
להכות
התלו
יקראו
ומשיבים
במכר
עירובו
חכמתו
##כילין
דל"מ
##גיד
הנמ
לשכור
להור
רישיה
בשבועת
הפרעון
ומהם
ראויין
באדר
חדר
תולדה
תכף
דלכתחלה
##לימו
ערבות
הגורם
לנפשיה
להדי
מהריב"ל
הזיק
לתא
חי'
ולר'
אושעיא
נתא
עובדיה
והשת
רעב
##זכרו
##בריך
מדוק
##קבע
ולדעתי
שביק
שהעלה
באמצ
##סורת
ובמדרש
מכין
קצה
##nw
האת
לאיסורא
##עתק
ידיעת
שלשת
בזול
##ימה
מברי
מטתו
שצריכה
להון
כאדם
שפירשתי
איק
כיד
באז
צ"ד
פי"ב
חובות
החובל
מגוף
לדייק
מורידין
בשליחות
##זמו
שהמים
משקר
ללישנא
בעא
מי'
יושבים
פודין
למדינת
ללאו
##צילות
אדומה
בחינות
עירב
שמאחר
להחזירו
טבול
לחיוב
נגלה
לדירה
##כת'
סאתים
בר"ח
ישרים
##tt
מברכים
הנט
מתכות
##יז
שבטים
דטרי
שישא
הסכמת
##חותו
נקנית
קודשא
טעמיה
בכריתות
קובע
וכח
##יומו
למלחמה
שלושה
##nc
כדפירש
להצילו
ביתא
דפיר
פשוטו
קום
לאפות
##nr
ראשה
ואמרת
תיובתא
מתרי
זכתה
ויעש
והקב"ה
התחתונים
לענ
הקדירה
שרג
אמתני'
שנגע
ית"ש
ביה"ד
דבעי'
דיי
##חרש
זוג
בנב
דקו
מל'
##קדשת
ומקשה
און
רותח
דבשאר
הנגע
##שותו
בינונית
עמדה
##חמץ
דכך
ובלא"ה
בקריאת
זקוק
ה"י
הולכת
ביקש
במערב
לחיי
התיקון
שכוונתו
לאידך
יאר
שנס
בפוסקים
בעדו
##לבש
והכוונה
בשמות
ומוקי
שהעיר
לצדיקים
עבודות
וראובן
כדקאמר
נאמנין
בכתיבה
ודרשו
##ילוך
הנץ
##פורת
##"></
נכנסין
הול"ל
נתת
ד"מ
עמא
לתרו
ופירושו
וסייעתו
הסוכות
דעכשיו
ואות
דהלא
בוגרת
##יימת
ולגבי
##מותה
מההוא
תד"ה
##צך
אצלנו
מהר"א
למלאות
לפגם
בחליצה
הרמז
##טיא
שמיטה
אשמעינן
משקל
זוטרא
דרוש
##yim
בסיני
זוממין
אבאר
במבוי
##ירוח
שנכנסו
שעובר
דמ"ד
##וש"ע
דאמ'
ב"נ
לקוחות
ולנ
דקנין
שיטתו
הילד
לפנות
בכולן
דמנחות
בבתי
לטלטלו
הקריב
סק"ב
והעל
ההד
מהרא"י
ליתני
נשחט
ושלש
פושע
ויעשה
ותאמר
דקני
פעולת
במכילתא
##זוז
##nq
ומתני'
הלולב
וסופו
משמט
לולי
דחכמים
נכר
שהטעם
בפ"ח
נדרה
סקי
דפריש
דמית
יענה
דב'
##ברוח
עסוק
##כלים
ומתח
לאינ
עשויה
מדאורי
דש"ס
מהימנא
##נאים
המוקדשין
##חיב
ספיקו
פרץ
גיל
משביעין
דבפ
דתרומה
אמרן
הורו
דינרין
להרג
דכא
בטח
לבעלי
שודאי
מדם
העפר
מעל"ע
סברתו
גלגל
בגי
ובתשו'
22
##ish
מעביר
בפסקיו
בארבעה
זרו
חדוש
##יל'
כדקתני
בחודש
עירובי
ומצאו
ועפ"ז
לאחריו
האבר
צואה
נשמתו
נילף
אוסרים
tur
##גבה
דשמ
ממח
וטוען
פנאי
העתיד
והמחבר
רך
##nv
לפדותו
סק"א
##mg
ומ"ה
יורשין
##בירות
##מודי
ור"ע
נגעו
עזריה
לשעה
##עבדים
המשו
בהמשך
גנאי
המבי"ט
מהרה
הידיעה
אה"נ
##רוגינוס
בלה
האבנים
הבינה
נשבר
##קיעת
##מלט
דאל"ה
ליע
דדרך
מנכסיו
שיתחייב
##לקלו
ריה
התהו
רשו
לכב
דכלי
וכותב
דעבר
החסיד
הקרוב
ממצות
בתוכם
התענית
בדפוס
רודף
לאס
השיבו
יבר
שצריכין
פניה
יבטל
והלאה
ושכר
וזכה
גזרת
כינוי
ממעשה
היכ
פריה
וקרי
הערוה
מוציאה
ויורד
הסכנה
רחמ
מזב
דבטל
סוגי
ואנחנו
דרוסה
קיימים
שהזכר
##ax
הארי
ואהבת
להשאיל
בקטנה
וכדכתיבנא
מחשש
מסי
לירד
דייני
הבנתי
האופן
וברש"י
דמחמת
האומרים
סכום
תט
דתק
המקדיש
הסיבה
שלוש
וידו
הקצר
יומם
##פיקו
מסלק
בסי
למאכל
להעל
וצו
גיטך
ואמרתי
לוט
ויחזור
איקרי
וגובה
בון
הדעות
פאר
קלקול
בחליפין
דחול
בעניני
ואחריו
האירוסין
##דוניא
ולשיטת
משמו
מיית
כרו
לתוס'
ומים
כרבה
רבוא
ממעשר
החשבון
לכולם
##חתן
משלח
##עטף
הקבוע
מנכסים
כנעני
בסברא
בששים
כבן
העדר
ותנו
צרכיו
##פסת
דלכן
ומהני
לכה
##שבעין
מהראוי
פרישה
##kh
בשמא
רשאים
אנפשיה
הנזכרת
תתאה
##צלו
מקלקל
דראוי
שכאשר
בדמי
##שתות
מונין
בשמאל
פשרה
ולפני
סמוכים
ואכלת
ח"ש
והתח
הקרובים
##וששין
חוטין
בטילה
דל"ה
דבדיעבד
סיוע
מסיח
ובע"כ
יפלו
ועכ"ז
##חינן
לפוס
זינתה
ללב
ואליבא
ולמ"ד
הפש
נוסחא
פלוגתייהו
העבר
שרואה
ערופה
האילנות
ואכן
דל"ל
נעשים
היח
דתליא
במלת
ועובר
לת"ק
משונה
שיחול
הגרי
##ישבו
הקדרה
##עק
מאיש
מרמז
למרן
דמצד
והב"ח
תפיסת
##סקי
הלימוד
##פרעון
טעו
שגר
##פי"ז
וישא
##טורי
חתמו
למיכל
##נעה
עוברין
מדרס
נלענ"ד
ומורה
נערות
##dd
השביעית
באפי
מלאכים
##מוק"י
##ונתי
##חמירו
בשלש
##כ"ד
הבינו
משניות
##עיס
לרפואה
בביטול
לפ'
יהודים
דתי
מלכיות
##קעה
##ביריו
דרכם
נראית
המוח
בשש
מפרי
שמעתא
בחור
חולים
לאחרי
ושכן
להלו
הולכה
דמיה
וכאילו
##כלא
איסר
השלמים
החזק
דירושלמי
##ד"א
##ה"ק
בכוס
ק"ג
המחמיר
שלוחי
במוכר
לאבד
שני'
שגזרו
והרו
אחז
דתנינן
משמעון
שהוצרך
והבעל
כספים
מאביו
בושת
23
דהביא
ש"א
דשמעתין
בצלאל
##מחול
##ינון
פינ
לדידהו
שדקדק
אחיות
הבט
שמעתתא
הישן
לאוסרה
##כוב
שקנו
כלהו
ש"ד
פוסלת
לשעבר
אשכנז
הפמ"ג
ולפע"ד
עמים
בשט
##עביד
עולמים
כנז'
ובתר
ארצה
שהבאנו
##לתא
##כימים
שראינו
בשול
במשכן
קושטא
שהוכח
זאב
לגלח
דבהמה
בסקילה
צרור
ותלמיד
רשותו
מועטת
הקנס
וטור
הועיל
שראתה
ולפנים
יקיים
##פנות
שמתוך
באס
השליש
קעביד
נודר
דתרומות
לאוקמא
בכולו
מעבירין
ממד
מחזיקין
יאשיה
סותרים
הרקיע
ההבדל
מיפר
אפשרות
לפרוש
##בורו
##עית
דאולי
במין
ונימא
יתו
מתורץ
כתנאי
ההק
בערכאות
בעבר
למהר
בבריא
>.<
הפסיק
##בך
לאבות
דפסח
לא'
צרכו
לישן
תנאה
וע"פ
מנהיג
דהדין
אפות
למיש
בדוק
שדבריו
שבירך
##זיקה
זור
ורבה
חזיא
קיח
הל"ל
בחוב
בשלח
גיהנם
פניך
ידיד
##קלקל
ואמור
התבאר
ברפ
דרכן
שרצו
בחייה
דכהן
##צתי
אלפסי
לזכר
עדיו
מוצאי
##יראה
העמיד
שישלם
##יבש
נחתם
##טרין
חסרה
ומתפלל
בקנה
וכנראה
קט"ו
##כחו
##טוע
דנדה
יומין
דאבא
פירותיו
פורתא
תבין
להכיר
##יתום
להסביר
מחלוק
בתפלת
הנאמר
וחיה
##רי"ל
הבאר
הרשב"ץ
זימנא
ההלל
נמסר
סס
בנשים
נרג
יהונתן
אפים
עבדך
ורואה
השטרות
בכם
רושם
##זקו
שעבודא
הורא
##סכת
דאר
מבור
מקש
דמה"ת
התערובות
##גלת
אינך
להקפיד
דוב
מאכיל
יפות
מחד
הרבית
מושל
דשטר
תורף
דעירובין
בבע
כשמו
יתקיים
ופתח
בעודה
לדידי'
עליונים
משים
איז
מנח
##ons
הפרישה
ולהנ"ל
לפירש"י
##פלתו
איתרע
##רי"ף
דכלים
פליגא
הבערה
ומשל
לחוב
חו"ל
הרהור
ושמר
הערל
שאבד
חובל
מארי
בגימטריא
עמוק
לפשוט
חיובו
גמרינן
טהרת
הכרת
במלאכת
יוחסין
שן
עולמית
דא"י
בס"ס
שהעדים
הרגו
##ריק
##נצר
הנשמות
עניין
דנפק
כנפי
צדדין
מיין
המחייב
ששוה
דמתני
ימכר
ur
חתיכת
פוסלין
דמנ
ירקות
מחזקינן
והעו
##גלין
ומהאי
נאנס
עיניהם
ש"פ
##דורי
מתכת
נדע
דיקא
שבתוכו
עורות
נשמות
הנוסח
לשי
הגיעני
##זרין
צריכי
מבחינת
##פייס
מאמין
האומה
בגדול
מפסיקין
לנש
בעכו"ם
הגיה
דא"ר
##ט"א
##תפו
היס
מארבע
דיינינן
הנוב"י
ריאה
תשל
כלאי
תעניות
הרעות
כהלכה
לבך
זכוכית
לחשוש
בהפך
##פצא
שעכ"פ
24
##מלי
השיטה
דארעא
עלך
זוכר
לקדשה
##ריב"ש
חריף
מתשובת
הלידה
מיחה
הימ
מסל"ת
כדאית
כתו
בארבע
כאב
ובמו
יקרה
מפקיע
חשובים
אלפי
##שלת
שאע
הטר
מהרשד"ם
##מחו
תרנג
הסל
ענן
כתבם
כרוב
דבדבר
ודלמא
וה"ק
במכות
ראבי"ה
ויטול
מוריש
רחם
תבעו
שיעבור
מכוסה
בריאת
##נוהו
למקוה
##mm
רגילין
והראיה
ובתוך
ציץ
הרעים
זיבה
לקרוע
וחול
מבת
וידעו
הלוחות
השיגו
##שלמה
##בחין
משלים
באונסין
שהמת
מרג
שי'
היהודי
הנברא
שהפ
##גליות
שקידש
מרדות
נפלאות
תקכ
חציה
בק"ו
טפל
אמצע
דשת
ונתנה
האבד
דרכה
הדיינין
משכח
ובפני
לאוקו
נפ"מ
לעצמן
האמורה
אוהל
הגר"ח
##שירו
##יהון
לכלבים
לנשים
בשכירות
לשומר
טענתו
בכהאי
נגיעה
מעני
חפצא
רמה
רפא
דאתו
שסתם
והמרדכי
גביו
וחשב
אשא
קי"ט
כנסיות
עיקרו
##ייבי
שצד
ממשנה
וסתה
הכנה"ג
הקשר
חברתה
קריעה
##בורג
סמיך
חלבו
בהיכל
מלשלם
לכת
שפירש"י
ראשונות
בגליון
מעולה
בפ"י
##כדנצר
כתי
ובדבר
##נותא
להתקיים
בהשגות
פרים
נועם
ותהיה
שא"כ
רבר
שעם
מחמירין
##פיא
נשרף
##מדבר
תינח
שהשם
דאינם
במתנת
נקבע
שיטות
##ליגו
נהוג
עיכ
פגי
שקורא
ביחוד
קצוצה
##רוגרות
דבפרק
דבשבת
ברצונו
##סרא
אחותה
והוצרך
שפו
##ג'
קדושות
ברגליו
וקיי"ל
לשאת
בסמ"ע
טיב
תינוקות
בארעא
בקום
חזרת
דכונת
אוסרת
שעבד
מקדי
החסרון
סעד
שאוסר
##ושך
הוסיפו
שלמי
##גרות
מרצה
תשלום
קדירה
##cg
מהתורה
הפי
מרישא
הבהמות
דאסורה
כשהיו
##שנה
##וך
##פשה
רדב"ז
בכולהו
##כרות
כחדא
לומ'
ונרא
קנים
וכשהוא
סד"א
בתריה
למתני'
##תוסף
זכריה
כשק
דטב
דאותו
צרעת
##vx
שחסר
להרא
##קרן
בת"כ
רחוקים
מיי
נקודה
מצאה
##צתן
מראות
ניתר
##cx
לשור
##זקי
לאשר
רומי
ויור
סק"ג
בפ"ט
הריב
פקד
ארצות
ישלח
שנוהגין
##kk
כותבים
בהדיה
מילת
נחשבים
##צורך
##ניעות
##עבדו
גידולי
מהיכא
לשרוף
מסויים
לפמש"כ
חמישי
שבשעה
דאפ"ה
הנער
ביבמה
מגולה
ופעם
בצורת
הקדמה
רמיא
הסחורה
שיחזיר
סכנת
##שינו
ומוק
מאמינים
רבתי
העלם
וכאלו
שישב
וגדול
שנותנין
##hh
דאמור
כותים
דלשיטת
בקדירה
ששני
המחנה
כביצה
לזרוע
מנעל
25
יומי
ויז
דנשים
ברובא
לפ"ד
שיעורו
תמורת
בעשיית
הרגיל
אסיר
מורא
דמקרי
שחי
להשוות
מעומד
הסמוכה
הפעולה
יבאו
ובדין
הרצו
לסבול
הכרע
ירושת
טובי
בראיה
שבשמים
אדה
מימיו
דאנו
##כמות
וארבע
לגו
מחבר
ושור
בצפון
##orr
##נהגה
במסירה
לפועל
פירושים
דרשב"ג
לרבותא
יגיד
מלובלין
המחובר
דאינן
מלאו
לקיימה
##שובו
יגרש
##צתם
כעס
חוששת
ההפסד
גולה
השנייה
להמית
באתרא
לאכילת
שנתקדשה
הטלית
לפתח
שמפני
באיסורא
החלה
מרור
דפסיק
מוקף
##משל
דמוקמינן
##רגו
עמדי
יושבת
והלכו
ופי
חומרי
##דוף
גבינה
לבע"ח
לסוכה
בנח
חוזרים
הנזיר
זולתי
דעדיף
##חיית
במש"כ
שהולך
החלון
עונג
רי"ו
משתה
הוי'
ומצינו
וע"ל
דלתות
שרבי
אשור
מיימוני
שרצים
בשגגה
##שיהם
בשבט
##ls
ימכור
שיטול
דול
##ערו
מרבו
אבק
שידו
המתנות
לקוח
איבה
הדרי
והנכון
לשונם
כופ
קדים
##יוקא
עבורו
טח
לאית
אפוא
קמאי
לסתום
מפה
ואסורה
##קוף
מחת
בקדרה
##יבין
ישתה
הוכרח
דיתמי
שישבע
העריות
##מגם
##פסח
שיברך
שאחזו
קיא
##נקט
ותפלה
החת"ס
##ידית
חצרות
וממה
הגזול
למינ
שנאסר
מקיף
##והל
##טהורה
שמחמת
מרובים
להחזירה
##ע'
urim
##פעל
##7d
##לו'
דנפל
חזיר
האמצע
הגשם
הסלע
סתומה
שחיט
מטא
לגביה
בלחש
דקדוק
בעית
##זרות
נראים
היקר
דכ"ז
כפרן
בסיס
הובאו
דאדעתא
הקליפה
עולמות
ול"ד
דקמ"ל
תקרה
להיותו
הערלה
המניח
גוז
##ירם
השעיר
##vq
נענש
ול"נ
##שימה
שט"ח
ימותו
תלמידו
יתבטל
דמלכא
קיד
לנר
לנט
אסיפא
באבן
חלול
עזאי
חומץ
לפוטרו
מוה'
עשב
ולאפוקי
מהרב
ההוצאה
ק"ט
##כבר
ונטען
גזלה
טבעת
דוגמת
פסולת
##פוד
מקראי
סיר
##מטה
וחמש
אול
מלפניו
הפעם
ושתים
המפורסם
זמם
דשמע
דרבינא
חשך
שנט
מתוקן
מזרע
תבלין
שטח
##למנה
במדר
בספ
##רשד"ם
צז
קין
בשריפה
התירוץ
טיט
##רובין
משלמין
שראובן
ועונה
טהורות
##יחון
##מנתו
בקושיא
יכל
דוגמא
לאומרו
הנ"י
איתיה
קציר
##תיבות
יגבה
דמכות
תענוג
בעסק
המזרח
בקוב
בנג
ללמדנו
פוש
בשבוע
למעל
פיסקא
לאמצע
##מתך
ושתיה
חתי
רזא
השלשה
כת"י
כוון
נמחק
מקריב
אוצר
מחייבי
שתאמר
והעדים
ותורה
##ks
וזק
הגדה
שעולה
הציצית
חייה
גונא
##wr
שא"י
מצריך
ov
##קעו
י"ה
והט
למערב
##וד"ה
דמשלם
לימים
ארור
ומדוע
##יישוב
דנמצא
הרופאים
מהימ
בכ"ש
מידם
ישמח
ראות
##זהרים
בכרת
תירא
האלקים
ולדות
כדמסיק
שלקחו
צ"ז
וכאמור
ול"ת
שתות
דשליח
תהיו
והנו
שארי
יודן
##דף
חנן
פרוזבול
דנש
נכנסים
קאתי
דפי
חברי
נדרש
שנעשית
##ייש
החינוך
תוכן
לצי
##סופר
מוכרין
##כנ"ס
להש"ס
למלאכה
וזהב
נאסרו
שכמו
ממעל
הרביעית
השבע
החולין
וכות
וכדמוכח
וחזרו
התחום
##פרסם
מגדל
תקפ
במילי
##נדב
אחריך
הזכות
הדירה
ובשם
ובתוספתא
נבוא
יכתבו
לבתו
ישכח
ולהע
דדעתו
ולמחר
וחזרה
בתרתי
##סאות
מנוח
##פוש
בגז
טעונה
יכולת
##טרף
הריח
וא"י
לחבריה
הסכך
עיירות
##יונות
שבחו
וק"ו
בזר
היטיב
בפרקין
רגילים
##ינור
סק"ד
סורר
קדרה
סוכות
נבואה
במעשיו
##ובש
##וסרים
ליהוי
שנויה
יעוין
שומרת
מיוחדים
##ושיות
בעון
כבוש
סיום
ישראלים
##עומת
##tions
##vl
זוכין
אנוש
דלרבי
לאוכלו
דמשה
הרז"ה
שהאב
משול
לתרום
מאחו
שעור
דיותר
בישיבה
אפותיקי
בקידוש
גבורה
וצריכין
ויעשו
יסורין
ככלי
הספיקות
בגוי
ובסימן
לכבודו
לאהרן
חגי
מאליה
והמטיב
דסי'
תוקף
תחזור
חנניה
למקו
פסיקתא
##יר'
וש"מ
למיעוטא
לאין
זרעך
עמכם
##u3
באותם
מחודש
וסי
##lay
הי"ל
לאלהים
הדרכים
ככולו
בטוח
שנפר
נתון
להתבונן
המערב
##נהגו
באיסורין
שיראו
##נ"פ
##סקו
האמינו
מתירים
בעניין
החמיר
הקמח
החיה
כגו
חידש
וכוונת
במדינת
שה'
ושמחה
ר"ט
דכתי'
חתו
שהותר
מינץ
##ענה
דמתיר
דהי
דהיו
יקריב
קנסו
בתרומת
##שירים
זביני
והגאון
להכנס
נפרע
לברכת
##דישה
בציר
אתך
##ections
ואנא
##שורוש
##wx
התירה
משו'
##גלאי
corr
נקל
כשרין
בנוי
לוקחין
ותמיה
השופר
כמשפט
##יתין
איפשיטא
יתרון
לחליצה
יפתח
קדימה
לשי'
ובמע
במזוזה
מוחין
##כולן
שפירושו
##לקלה
corrections
דדלמא
ויוציא
ולהח
ולק"מ
##רחק
##טריף
אפלו
בעומד
נמצאים
הזרוע
דנים
ציד
לכולהו
והוד
ואביי
שר'
##כובה
##דרו
##pt
המחברים
וביה
מאלה
כליל
גרושתו
דלכתחילה
##ינשא
מחברו
מאידך
יחיה
דבנ"ד
קלות
כמנין
הבכורה
##יותא
המצרים
לזאת
##סוברים
##ילנא
##cs
##סב
שימור
במחנה
דאלמא
ואכלה
במעלה
##תחזק
להשיא
בקבלת
##הדי
קידשה
##ms
##חב
##לאין
ומטמא
הזכרת
##כשרו
משיג
הקטרה
##פרשת
והוו
##ניסן
והב'
בדאיכא
רמ"ח
##טרח
דמשכחת
דבזמן
שנין
משרת
פיס
נוספת
מרע"ה
התלמידים
##md
נעו
פוק
הנולד
פסקה
דפנות
##לוף
השבה
##כריח
ק"ז
##כחשה
##wq
גבו
ובעינן
בהפסד
ומחזיר
שהט
וישר
ומקשינן
דמכשיר
כשלו
הרמ
להסת
שמניח
##cq
לקדושה
גו'
תמו
שמכרו
מנוחה
משובח
##px
קטל
מקשינן
##כ"י
מקשים
בנהר
דמטעם
להתקדש
##פרשי
שנגח
דאוסר
ולבו
שכוונת
##טהרו
over
וגמר
תשובתו
הטבעת
שבז
מסקינן
val
##pd
ולאח
שחין
אורחים
ובאר
כוללת
הששי
עח
##בראשית
ש"ץ
בדרישה
ויפ
לרשותו
הקטרת
קנאו
##פסלו
הכיס
סייעתא
באבר
##טביל
דידוע
נפת
ומהר
וכב
לתתא
הטל
התכלית
מדברת
##ליץ
לעובד
תשיב
להטות
שהתבאר
value
ריא
למוכרו
דמב
הודאתו
##גולת
בקרבו
להאיר
הלזו
ימצאו
הישיבה
מבי
##ריבה
דבשר
הסבר
ושאני
שורות
מפולש
##עילא
לשלום
לקרב
דק"ק
שלמטה
פנו
overlay
מעד
שיפרע
##יתון
שבצ
##שכחן
ממעטינן
##לופי
מחיל
ידינו
יצאת
מלאים
נבאר
החמישי
קמ"א
##ניך
ורא"ש
##wg
ק"כ
ידיך
בשטרות
קנד
במצה
##עירי
דצ"ל
במאה
##mt
באשתו
פרכינן
ושותה
יחטא
עבדיו
מרד
שיצטרך
##וייה
במטה
פיל
דקי
הנדחת
##יונו
גפן
##ימון
עולמו
##⚬"></
="⚬"></
דמה"ט
דליתיה
דוס
##בעיא
ופליגי
##צנו
##שאלה
מר'
דהעיקר
אלול
##חזקת
##חישו
קפרא
טהר
גירש
##פו'
##טם
##בוח
חסדו
##חמו
ספינה
##ביך
דהנך
##מען
##mq
בחשבון
ישמעו
שסמך
וקתני
שמורה
הנכבד
כפרש"י
בהיפך
ושמעתי
##vd
וארבעה
לעבר
הביעור
בשפתיו
במיעוט
רצתה
בשק
הארצות
מצטער
לצמצם
קוץ
שנגמר
הענן
מאר
למחוק
מסוף
##ina
ומותרת
והאמת
תירוצא
יראים
לשדה
צבע
מלין
קכ"ט
סמוכה
בפרוטה
דאשכחן
חשד
##בישה
מבה
נשאלתי
פסוקי
סמוכין
וחטא
להקרבה
ממכר
דשיעור
אופנים
##cd
שקונה
החלוקה
##מ"ו
מאשה
מנות
בחדר
לקראת
למחנה
ההיזק
##נ"א
אחשורוש
שוו
ונסת
##פסקת
בתקו
להנות
מאדם
##נהר
##כולהו
##סקנת
לחודש
המשתה
אבד"ק
##צירו
ברי'
##ws
בתור
נמנע
נפקותא
##rr
כלן
ומוכרח
הטובים
##ממות
לצדיק
ושתה
צפור
שמלא
פותחין
ומלבד
##לפענ"ד
פרנסה
בל'
שבאותו
פירשתי
העמידו
מונחים
לחזקה
##משלה
ושכח
מספיקא
ביכול
חלום
דמש"ה
הרע"ב
הנאתו
למדים
נצטוו
כד'
בחתיכה
העוסק
נטמאו
והט"ז
##זהרות
בעזרת
המהר
והניחו
וב"י
ולל
בירושה
שלוח
תכו
##טט
בעניות
דבשעה
לריעותא
##mx
ר"ס
מקב
ערבה
יחשוב
סעודתו
שנוהגים
מצב
מקילין
##כוש
##בודו
חסרו
##גאונים
דממעט
הנוסחא
26
ובגין
המערער
חביר
לקול
תו'
שיקח
מדוקדק
מרבי
##מסר
מכבר
##חסין
##פסידו
שנהנה
ir
##wl
עדותם
##תבח
המשחה
וחומש
משניהם
פרעו
##פותא
שכופין
לנצח
תבשילין
יציאה
כמים
דר"ג
פי"ג
יצו
שנפ
לפת
שמשם
מיאון
גזירות
התחלה
##ספו
ואמה
שהתח
ששמעו
הושט
ומ'
כספו
ויען
לזרים
ומכיון
אחוז
אפק
##תוספ'
פלשתים
##ענוג
שמיע
##33
שיוכלו
יכיר
ששב
הלואתו
לכי
בתקנת
בראוי
יכוין
##ולע
##חקת
##kg
ונשים
##aaaaaaaaaaaaaaaa
באמר
קאמרינן
ומקבל
##z5
והתוספות
וה"פ
קי"ד
ודבש
כפות
בזק
וסבירא
בוק
שהעתיק
דמילה
שבסוף
תעמוד
זבחי
חייך
בהעלם
ובלשון
שבבית
סירכא
וצוה
להל
נפתח
ביוצא
וריש
ושח
##לוט
שמברך
דסוגיא
האז
הי"ב
ולכאן
שהאיסור
ורמב"ם
דג"כ
##מידין
דמציעא
ליחיד
שעכשיו
והתיר
הודיעו
ידועה
שנתגייר
שערו
##וליה
ורצו
לסברא
דנ"מ
מתייב
למרות
ולתת
##vt
מקואות
##ach
יתיישב
##ps
ביומו
##עלמא
לקדושין
גבאי
ושבע
ודחה
בכשרות
חלוקות
ותמהני
החתימה
דחיוב
במקומן
הניחא
דבגמ'
אזהרת
הגבהה
לזון
בפסול
שנאה
בעיניה
דחק
##וראת
משג
הסך
מסקנת
במכירה
רבקה
איתתא
שעשאו
בעניי
בה"א
##לוג
אפש
##מתן
פתחו
אקרי
אונן
בקצת
גימטריא
במילתא
שתיה
יחיאל
נרמז
##"פי
להרע
מפ'
בנחת
ראוי'
שתע
תקרא
ואפי
כש"ת
א"ד
מקול
משנתינו
##mh
בהול
##כחישו
ריבה
##צוצרות
בפיה
ובלי
##kq
##vh
שא"ל
במילה
דק"ל
דגמר
הכול
שחטו
שרמז
##קיי
במ"מ
##משי
דחזקת
כסוי
באמה
##77
##יווי
##יקרה
##מצינו
גבוהה
היפה
חמר
##ילהי
כלול
אורחיה
##חומרא
עמל
תרומתו
שאה
כשמש
גרש
דמעשר
##יראים
גמרו
##ii
משמרות
אשמועינן
בצדק
וקורין
מאכילין
פנימי
קוראים
##pl
המפרש
דחלה
##צפה
חתנים
בפ"נ
יודא
ונשאת
שעברה
וחותם
מתחילין
קברתיו
ועבודה
##pq
שמם
לעול
##שונם
ומלח
ליגע
##מורות
ותהי
##pg
##חוקים
במלחמות
בת"ה
תועיל
כתיבי
בבגדי
הגי
אוד
וגב
נרא'
מבעי
##וקימתא
##wd
הקטורת
בפו
הקודמים
שהכוונה
בז'
שאסורה
##פרס
נוטלת
פוחת
ותיק
וי"מ
המרחץ
ונקבה
בראיות
בסלע
ופליג
שורו
פסקים
מדל
##ופנים
חביות
דר"פ
##טיש
פר'
דחלב
דספיקא
קונות
##99
דהקדש
##צאו
דפ"ק
דמוכר
בחוצה
גליות
דבידו
מאותן
בזב
ספרו
איפוא
בסעי'
שנתערבו
שקד
דאיהי
השכיר
סאין
מליח
פרא
יעב
##עיה
בקרבנות
שישנו
ונפקא
ובהמה
##פרש"י
בקבל
נוחה
שהזמן
טרוד
משות
דדווקא
באותיות
יואל
קופ
אישה
המופלג
תוש
שבזמן
מסטרא
בקדשי
שנתבשל
הנית
ירצו
ובש"ע
אנה
ובשעה
##מירתו
##קולא
##וה"ג
מבו
##ירוצו
אצלינו
רחום
וקני
עכשו
לקיחה
ויושב
##kx
הרגלים
לאז
למכרו
בדורות
שנוגע
דאמרן
צרורות
חיזוק
חלקם
##ותיהם
##פשי'
ליקו
ספקא
##דעי
##יכון
הקצ
בחס
תלוש
ש"ה
בחבירו
ולמאי
עבדות
דתח
וחקירה
וראי'
נתחייבו
להחליף
##icag
המונח
##דלות
קשי'
חיב
##גנון
דזב
##ידוי
מסרו
המגן
ומכח
וחז
דאינהו
חדשיו
תפו
טלה
מ"ק
ישאל
אחזקת
המינין
##בורת
תקנות
בשטרי
לולא
לחטא
הלבן
מל"ת
חמצו
להסתכל
שגגות
מורים
שלשון
מאבות
##זהרו
לשלשה
עגול
תהו
ובתשובת
השגה
הקורה
האיי
הערמה
##חנן
נכבד
ימינו
##ושיית
דעכו"ם
##ודשים
לעשותן
משמרת
דר"ת
יאות
המראה
שבע"פ
##תק
ההולך
דכופין
ויביא
השרץ
הכהונה
איידי
אמ"ה
מ"ת
ונתחייב
eina
והגיע
einayim
##גיר
##kl
##ערכה
irat
תמר
תשי
ויוסף
בידיו
סלה
האתרוג
הויין
במעילה
##פילת
נכרית
בלחם
וזב
נהפך
פשוטים
##כבי
השבועות
החורבן
סייג
ואתח
נשלם
הפירושים
##לקח
דלמאי
דנפיק
לדיין
הסר
והסכים
שעבודו
הז'
ומוכר
הפרשיות
תענה
כש"כ
סרו
חצירות
מתוס'
##צלת
אכס
החומה
תמוהין
##פיח
בערלה
ומסר
דהקשה
יציל
##בדוק
ולהא
מקחו
מתפללין
מוליד
שלכן
ונעלם
ודאית
קמו
דפלוגתא
לעוה"ב
ההול
ופשט
עוברי
תפסי
שולט
לכבד
החיצונה
הגמור
##בשן
בכונת
ch
דטומאה
שנסת
שהמח
וחזק
להרגו
דתלינן
יחסר
כרחין
##oo
תפלות
והאיך
מבע"י
ריב"א
דמסתבר
וגל
נדות
##כיהם
והרע
החנות
##ינס
לנא
##דוק
להלחם
קודמין
ברמז
לגדול
##ml
ולרבנן
רעו
קי"ב
אריס
##וארו
דמעות
יתא
ולדידיה
##יניכם
לשכר
זכין
##קוס
ואמ'
ובדרך
קוצר
שמתח
אורי
הכלב
בגובה
##חלתו
##rg
דתוס'
זימני
##יליה
לירא
דהירושלמי
מד"ס
מרכבת
וכשנ
החיצונים
באמצעות
נמלך
חדושי
##wh
דאוכל
כישראל
דמביא
דוש
קצירה
##שב"י
ירש
עפי
מבוארים
##לוים
קללה
דשביעית
ברש
מסיפא
28
כוותייהו
התעור
רבנים
כשנים
יון
מופלג
בדרום
אחור
דבגמרא
הארת
דנותן
##ערבו
בעמוד
מצרא
##6d
התקדשי
עיגון
##tx
השינוי
יקרב
נתגלה
דכולה
יחזרו
גופייהו
הדק
בפיך
דתמורה
דהרי"ף
דכשא
עדת
יושבין
יפלא
ומשנינן
חשיכה
לחצי
ויהיב
אכתוב
בחומש
##rq
דרגא
ביעקב
##שוק
הותרו
שחילק
ולטע
יוחאי
מחיה
ישרה
שרש"י
והגר
בשתיה
ממק
ממשמע
ששכח
מבקשים
מוריד
הקליפות
מתפשט
מפסוק
רואות
##יוחד
וסברא
##פוטרופוס
##מ"ר
פרח
בבדיקה
וממנו
נעקר
רוחו
כהא
סברה
מועטים
במפורש
דחשב
##מימות
כוליה
תביעת
לסופר
כיבוד
וש"ע
עירבו
שלפעמים
סבא
הקידוש
עמם
רחיצה
הרחקה
התהום
##vg
##בודתו
דהשו
ושאין
בקונ
להראב"ד
דגרסי
מכוונים
פרקין
וכיצד
זביד
##kd
לאביה
ולאכול
למיכתב
לדברינו
שנבעלה
##יבום
##זלזל
כבני
המון
המצוי
שהוציאו
בטיט
30
רשב"י
בק"ש
מאיס
להגביה
אתנן
אריכות
בקיאים
מקדשי
בר"מ
מנהגי
ובלילה
שצריכים
מושב
##נייה
הדת
##vs
שמתי
##icagicag
27
בעמ
##ודשא
##מעא
##לימה
אתמול
אלך
יורדין
וענבים
##פשי
ושטר
גלותא
דאוריתא
וחכ"א
מסירת
מדקד
קי"ג
נבילות
פגע
פתחים
קי"א
##ברכות
##מצו
לטרוף
מסכימים
##כתי'
טענו
##רובה
סמ"ג
דמיד
קולות
אהב
הטובות
##כו"ע
המפה
מצויים
היוצאים
בחרב
שפתים
מטבילין
לגדל
מדר'
נתעברה
בלישנא
ורמז
בתלוש
הדרן
##נסים
תקע
הנז"ל
לתשמיש
בבמה
הנגזל
מירושלמי
קכ"ח
דהרא
ח"ד
##כז
##חקים
ודווקא
##מעטו
ענוה
בעצמן
ש"ב
##לושה
קי"ז
מכשיעור
ויתנו
שגנב
וקדוש
הרב"י
ואיב
חללה
שר"ל
##הי
דאבוה
ששנה
מקיימין
בטמא
נתקדש
לר"ח
המשתלח
לכשת
משתנה
שיניח
היודע
ומכרו
בתראי
בק"ק
ובעלה
הפנימית
ושמח
שתי'
כמשמעו
להוליד
ריקם
חתך
נידו
##צטרו
בב"ש
מפליג
##לפע"ד
קיר
המטבע
בהחלט
אלכס
יוסה
##מיק
דמתנה
באלמנה
למלקות
בתשרי
סק"ה
לכס
דומים
ימש
שמפורש
לרמז
בכרם
יהנה
דכריתות
ובנה
דלכל
בנ"א
##ts
##ages
מיקל
גול
קלב
להביאו
לטרוח
המתחיל
זבה
קומץ
דשמיא
במק"א
גנו
שכת'
ואנשי
דאי'
באמונה
טמאות
והב"י
וב"ש
ישחוט
שתפס
שדחה
הדומה
ובכמה
שישאר
ונאמן
##גדלו
##esh
הדלקת
במקח
והאחרונים
שומעים
למדה
שעי"ז
מתקנת
הוכיחו
בעידנא
ליפרע
גומא
בחגיגה
האומן
שהלכו
בהז
ופ'
31
המצה
דמיהן
ישים
השט
ברה
עזים
ערוכה
דאיש
פרות
חורבן
שנמשך
וההוא
##טש
שאב
בשמיני
האמיתי
גלה
ני'
##ריגה
ומצה
שבטלה
ובעת
לאוקומי
וכענין
דעדים
כב'
קכ"א
מדתנן
רקח
בכורה
מלאכתן
א"מ
##מאמר
##ליות
בקט
חילקו
העבדים
ויעוין
שטב
המנה
שחוק
##טתו
##ויח
ונזכר
ניכרת
טוענת
הנבראים
##מוקים
שואלין
##כותב
חלקת
##שותה
אלישע
בטיב
##rl
צורתו
יירש
הגניבה
תמהו
טומאתו
##משת
##עדו
שנשתנה
משיעור
גחלים
##נדרי
צדקת
em
הזמנה
שילדה
פטורות
קכז
דבבא
שגזל
הי"ו
##יקח
וחציו
ומהו
הח"ס
מסוים
ואהא
ביבי
ורגליו
pages
יכו
ויקחו
שהקדיש
##ee
לצל
ותמצא
לאשתי
מוכיחות
צידה
מעבד
דג'
בבוא
##בורא
גן
שפה
בש"מ
הפיל
##cl
הספרי
דמטמא
##בט
##ציאתו
הפ"י
מרכבה
בתו'
ואידי
דמשו"ה
הכף
##סטים
דתרווייהו
וכדת
מקדם
להכעיס
וכהן
ולימא
בעירו
ועמדו
יתברר
להתכבד
קדושתו
זקנה
##גמה
כרחה
זל"ז
##נינא
הציל
לפירושו
יית
במשנתינו
להחיות
אשיב
##יובא
בצורה
שתהי'
בהיותם
למנהג
ואביו
##מ"י
החק
##סופק
ראוין
היו"ד
ודרשינן
##יוון
במ"ב
שימוש
נזיקין
מתפרש
דריב
סופה
תמידין
בהנך
בקשה
שהמו
דאחד
שפירשנו
לעצמי
יששכר
לקל
ביתה
דמברך
השדרה
##בערה
דכ"ש
בילקוט
ובקי
ריב"ל
+/
כקנין
האברים
לאנשי
המוסר
נדמה
לבונה
תשמי
ובהיות
פתאום
שבשביל
בכלאים
ומפור
ועושין
הב"ה
מלשונו
יצירה
##y5
דגט
קונטר
כקרקע
השמיטה
גזה"כ
##rx
שאכתוב
##tg
דכלאים
הבה"ג
הכשרים
והבאתי
עוס
המלוכה
הורי
##כלין
לוחות
באורייתא
שתתן
לנ"ד
ובאי
הנוד
שטעם
שהייה
למיה
הי"ד
##תייע
תחלתו
מדתו
רקיע
נדחק
בלע"ז
דבשל
סימון
בתשובתו
הנסים
בתשמיש
פרסה
##ahav
שעשא
שהור
דאתמר
דמרן
שתעשה
ועת
דדחי
דכתיבנא
שעליה
שאחרי
עננו
##וליד
בנקב
כהרא"ש
שמחות
##נשו
נכנסה
וטען
כלאחר
שמ"ש
להוליך
דשתי
ואסיקנא
zahav
הון
turei
קבועה
פלגינן
ד"ז
##u2
ובדיעבד
##u1
המשפחה
ועבדים
וקר
ברק
נחו
בחינה
לאכלה
##ירשה
ההפקר
##רוטה
עייל
שירדו
##ריהן
איבעי
ולכתוב
מדותיו
עובי
להקטיר
וביד
מאימתי
יסבור
חתום
ישראלית
ורשב"א
וחסד
בגוונא
ב"פ
זכייה
שנשב
קנ"ד
נגזר
##גילה
דאקני
משתות
דמנ"ל
הי"ג
אמימר
בואו
שייכי
ויראו
ישובו
למחצה
ת"י
לכש
כו"ע
##שב"ל
יצטרכו
בלוקח
נטו
תשמור
המלמד
שבטל
הטמאים
בסימנים
להנצל
##יקוח
המגיע
מצילין
##רהור
הזקנים
משטה
להבחין
##ינוח
לזכור
##וסל
נפרד
גבורות
שמרו
אחריתא
בעז"ה
בועל
א"ז
הר"ז
ששמ
נבלות
החזרתי
##ינוקת
וחליצה
ראייתו
בזוזי
השבט
##נחומא
רו"מ
מכסה
קכח
הנהגת
גאונים
תרגם
##קלין
##נבים
ואלא
דבז
לפרעה
ללמדך
עלייה
בפירש"י
פסיקא
מסדר
דגוף
כרצונו
שמיעה
בס"פ
חנות
חפצים
תוקעין
עמון
לרעה
ויבוא
חיו"ד
הואי
##וקשה
נקטו
חלים
שנותנים
שזכרנו
ובבית
בהפ
ויליף
פיך
למיקם
הבליעה
דאליבא
##tq
הדמיון
דהאיסור
לעצמם
האמנם
##צלה
תרל
מעשרים
בשלהי
##נקי
ההכרח
##רגשה
##נסך
הקריבו
ותימא
מפיר
שארית
נישאת
נתונה
##יומא
##זקק
חא
קטו
האהל
ונב
ונלע"ד
##מורים
ערעור
המאה
והלוה
נלמוד
ירב
ופת
חנוך
##th
שלל
מחאה
ביתי
דלוקח
תרצ
טבא
בכף
##ilna
שכרה
החלוק
ברשב"א
בכורי
לדא
##כנין
לגלויי
##נחיל
מלחמת
##td
והתחיל
פי"ד
שקראו
והמים
טבילת
יקחו
##ברתו
הנוה
vilna
ש"ר
הנו"ב
שחש
סז
בתירוץ
נפקע
בשיע
אדרב
החוטא
##יומי
להכריח
בכתובתה
לס"ת
##חיצת
גאל
##y8
ממעות
ועליהם
##דושיו
פשטה
ואבידה
##נחם
דבאיסור
התכלת
32
מדקדק
##פית
בממ
ועדים
ותפילין
מקובל
דהול
דינרים
##מיעוט
הדס
עיבור
ולפי'
אמונת
לפרט
דקדושה
בעירוב
פוגם
יעויין
לנדון
ומתי
העק
זקנו
דרמי
##שותף
התביעה
פודה
ומט
לגרום
אדרבי
דברי'
##מש"ל
קובעת
תער
##כרית
##יענו
לשיטתיה
ודינו
שהק'
להיכא
ותל
מגוי
עניות
כהני
לילות
##zi
להנ"ל
שהשטר
בספרא
אוקימתא
דורו
יורשיו
ולהתפלל
תסור
המזונות
ועמ
שהמה
טומטום
למזרח
אורו
##שתי
##ילול
נשתייר
##חרם
להרי"ף
29
החייב
רעך
##rs
משוך
מיטמא
ובש"ך
נצרך
דמקבל
##tl
##וחת
ואתו
דאכל
המודר
##דריגה
שהפריש
מוצ
דחוי
בהלואה
עיניה
דל"ת
ולולב
ליוסף
שיורי
המיקל
הצריכו
המספר
להתעסק
במהרש"א
והרמ"א
הנזירות
שורפין
ובשב
##בושל
לדוכתא
ופירות
מרחיק
זריקת
המורים
דירתו
המפתח
המזוזה
ובמת
לסייע
נבוכדנצר
שביניהם
כד"א
##רוגרת
נדב
לאחת
המלה
בכונה
בערוך
מעם
יסור
##hei
מונע
ש"ז
ונתח
מדרשא
באצבע
הוכר
כנף
מזרחי
לאמו
דעולא
שעלו
חקר
פתיל
##nj
##ונתה
דביום
שבשטר
גבורים
יואב
התה"ד
##יו'
הלשכה
דכה
יתום
כולכם
בלבוש
וכת'
שהמוכר
בעולמו
הסנדל
במקומם
הרועים
סנדל
שהעל
שנאבד
נדפס
קרחה
הר"ח
שמעיד
פקפוק
הנדון
מתקיף
מעצמם
לתרוצי
וכשי
מגופה
לאורה
##מדם
הכושר
התגלות
שנמצאו
ראוהו
##פסידה
שמתחלה
לתירוץ
דאינ
הקיום
מזכירין
##רוץ
##נטי
ונגד
הצרה
רבני
##וגיין
תוכו
##וא'
וזמן
##ורי'
שהאר
כמיניה
כתנא
להדי'
מוכחא
כ"פ
יכיל
ברצו
עבדא
וסיעתו
מחוקק
החומש
קטורת
להשתדל
##לשל
דוחין
מטרא
לסימן
שניות
כזכי
ונשמע
בטוען
לבערו
בינת
דלח
ויניח
הכפל
וכדין
דלדידן
ליורשו
השירה
חום
ימול
מערי
עוסקים
קז
##והמא
וקי
דשח
חכמינו
מאריך
ועפ"י
וקם
דשבועה
נשתמש
גשם
מתענין
בסופה
ומפורש
##תיחת
מראובן
##וסיפו
אלקינו
בדיוק
ובנות
הילדים
ונפיק
בר"ש
ערבים
דאונס
שמכ
המוס
ליורשיו
שפוסק
דיוק
בשחיטת
כללות
tesh
teshuv
ב"כ
##פצים
##עוד
ציווי
ליא
##ילון
בינוני
תכשיט
המכוון
ואלהי
בחמשה
האמה
לעוף
פקו
קונין
##וביינא
הנערה
חצירו
שניים
##37
דבשו
מקריבין
כר"ת
שאמרת
##ש"ה
לברי
ליתומים
יגדל
##עותיו
דנע
לב"ח
בחלום
כתירוץ
ששית
##he
דחיי
דאיתיה
ומושב
ה"חיי
המעלות
לנחלה
עושר
היצה"ר
עצומה
שחוטה
ושמה
וקבלו
האמתי
##נצ
ובכי
שנולדה
האמורים
##שלומי
מפירות
שנתו
שתש
##פקיע
המוטל
שוכב
מציאת
##נאות
ללשון
שלכ
מעון
לשבע
השמאל
מוה"ר
##תבשל
וה"ר
ממונה
לחודא
דאה"נ
שהגט
בצדקה
##צטרופי
דגד
דב"ה
מבעלי
קי"ח
##מאתו
בנתינת
לעשרה
וקול
נשחטה
ממזרים
אשכנזי
ומכש
עיי'
ארכו
מרוטנ
זימנין
ובנ"ד
היבמה
שייכים
צדקו
מקדימין
##יתוך
שהוחזק
דמזה
דפרה
יקו
סתו
הרמב
אליביה
ימנע
דצריכה
וז"פ
תקינו
אחוזה
סברות
באבות
בסיד
שחכמים
מ"ם
בגלוי
באברהם
מע"כ
ולוקח
##גוזל
בריבית
דזבין
הממונה
הוצר
לרפא
מכבד
לספור
ביסוד
אמית
מנורה
ומלת
במצוות
##ע"א
##רבת
באומד
ופרע
##וי"ו
וק'
להר"ן
ובאת
טעונין
המיוחס
ודוד
##נקס
דקנס
המהרי"ט
קפד
וב"ח
כדינו
ושינוי
דמועיל
ליורשי
נאות
ואומרת
דכתוב
התאוה
דבירושלמי
נחלות
##זריע
##ידתו
##vk
אלינו
דחוזר
ממרא
עמידה
המתפלל
##דרות
קורע
להכין
קס"ד
מורדת
##גדה
##z8
להשתנות
##זם
בוש
שיירי
בזהר
##ליו
ועפי"ז
כשיו
שיכולין
דלג
ברביעית
##מינהו
ריטב
בט"ו
לוח
וזכות
מהלכה
לעניות
שכנגד
ויוד
במשכון
וריב
שהורה
טובל
##קיימו
מכירים
##מימר
##חטים
##והן
כשחל
##mu
הצדדין
מוסכם
והארכתי
ובט
כב"ש
לקידוש
הטעות
שנקראת
תמוז
שדרכן
פעול
שיתר
במשה
במסקנא
למולו
מתנתו
בבאר
בגיד
לישאל
מתג
בל"ת
יאודה
לינה
##wc
##ורח
ואך
למדרש
לעשותם
שהרבה
החוזר
תפוס
באחריותו
ריטב"א
עולי
##oj
##y4
המנחות
##בריח
והרג
ובכ"מ
הנפשות
מלוי
שמדברי
ובספרי
העיבור
בחנות
היושב
הקן
להצטרף
ולשתות
הפדיון
רכו
ויבואו
שמשו
ומאה
##עתן
לקנין
לגירושין
דאמרת
ושאינו
לירש
ובאותו
##מלה
ורצונו
באבל
נבלע
שיעידו
השותף
החטים
שואלים
ולהביא
החלל
דהטור
בתבשיל
##פינא
קג
מוחזקת
ופלגא
שדינו
חימוץ
מעברין
ודכו
כשית
המערכה
שחייבין
ברזא
ורובו
##rh
##לוקי
האריכו
במנחת
המלאכות
מתשו'
יחדו
והחזיק
ויחי
וחטאת
ממשו
שלושים
וצל
התקינו
וליח
השמר
שקלי
מצווין
לטו
וצע"ג
למשמע
##ולדים
ונפלה
אורות
ביה"ש
אמתניתין
ובבבלי
לפרשו
##טיה
##zj
חלוצה
כ"ק
מ"ל
בקשו
##3d
דלפני
##כולי
רווחא
בתירא
##כנות
אליכם
כפת
##צטרי
מדור
וי"ט
##מהר
##זו"א
להנך
שהתוס'
בחסד
בנושא
##טרג
מלמדין
סם
היפוך
יעמדו
לקצר
מגמ'
כודאי
החזן
הוחזקו
יקדש
##נני
השה
יינם
ותמוה
המתיר
בקביעות
משפיע
שברי
שתיקה
קכ"ז
שאנחנו
מצטרפים
הגורל
שכשה
אפוטרו
המתח
ומפ
מהרח
ושאלו
פט"ו
ותן
יכפר
דיעות
מתכפר
שמכרה
לפרש"י
##חקרה
הצמר
מתכו
בחייבי
##pk
בהון
דברכת
תירוצו
להזי
בכחו
תניינא
הכנע
יתחיל
##נץ
ולולי
להפרישו
מר"ן
נון
עוני
ביהכ"נ
הירח
++
לס'
גויים
ולמ"ש
הנהוג
ריהטא
##והב
מפע
בתפילה
##שיגו
##umim
דפרי
בפסקי
##יבורא
בקערה
בשומר
דהלכות
עכ'
בכתבי
הבע"ד
בפרישה
אונסא
שבקדושה
שמברכין
מאחרים
משבו
וקד
ומזלות
הנדה
צערא
##מדות
ומלך
חלונות
שכנים
הגזל
ונתע
חמס
שיתפלל
זצוק
דל"ד
לתנאי
##באו
חיילא
תפיס
שאולה
ורגלים
חוטי
העליה
מפיהם
והפוסקים
צורבא
שתר
יקבלו
לריב
לריש
##y2
לעיכ
##בלונות
עשרון
מובנים
הקרבה
וימצא
נמנה
ובטור
עקיבה
דטו
קרבנותיו
עטרה
דהפקר
##פרשו
גביית
תלין
האגודה
בערי
בלולב
וקצר
נפרדים
##ya
##חהו
יאבד
ואברהם
##לוחית
וחש
בינינו
ח"ה
שיכולה
להמת
הגידין
מתחילת
דלר"מ
חותמין
##o0
מזוייף
שתראה
##גומו
חטאתו
ונהגו
בחומר
שנמצאת
וה"מ
כמק
שהגיד
##כ"א
##כנסה
פטרו
שבתי
בקשת
יעברו
מרבינן
ובקש
##יכתו
שומרי
לבחינת
סגולה
בוקר
הקרום
מונחת
ספירת
הכרזה
דאצטריך
##mc
האשם
שבעלה
##פקידו
פסלה
מיפטר
וסמ
תשים
תקי
הרגשה
##טעות
דגזל
סתרי
מבדיל
לאנשים
##טרים
##חליט
מרובא
להניחו
גידל
דהז
חזקות
דידעינן
בצער
זוטר
רוכב
יחס
ספרד
מבד
לקחה
קונים
דהבעל
##קצה
קדשת
יזהר
ומשא
דוסא
##uu
העלו
בחות
שמחלק
מרובין
בשפחה
מזכה
##ברכת
צפנת
##קבה
מימות
החסדים
יתמי
יהבינן
דפסקינן
סידור
כדה
אמרם
שירא
ליצחק
החלו
רגילה
וצדקה
החדשים
##יתהו
השומרים
ברוחב
ואצ"ל
עינא
##כוה
שאיתא
דהן
דערכין
פס"ד
להצריך
וראש
בהדי'
לפרעון
ליתיה
הימין
לויה
נורי
מכולם
בסך
מלאכול
##mk
שביש
בלבי
ונר
שנאמרו
ומצאה
ובנת
מקרוב
ועני
נשאו
מפרישין
שכולו
ופגם
זורע
להשל
לתינוק
ונפלו
איילונית
מדד
מושך
שלמדו
ויוכל
הירש
האוסר
##מעיט
##פליא
אכלתי
כבשר
ושמרתם
ובביא
הכבש
מעשיך
הציץ
שירצו
פתיחת
דה"נ
>[</
ולמר
##שתמש
##גוע
דמלבד
משלש
הגבוה
לדיני
מנע
ומנה
שלוחים
שמודה
בטלטול
יפת
תאות
##לחין
##z4
בכללי
להשפיע
עיסקא
למיתב
##pat
מפניו
ורש
חלין
##שבח
ולדבריו
סק"ו
דהר"ן
מניחים
##מקשה
קבלן
##ד'
אלם
החריף
##z2
הנקראת
ומביאו
ואק
אורייתא
##תובעו
השרים
זרים
שרף
במזרח
השמיטו
נחום
יביאו
דבמה
שגמר
הנדפס
##rc
##דרת
נתקן
##תיח
כנלע"ד
דלהרמב"ם
ששהה
##ננים
דמקדש
אונסין
טבלה
ולקיים
##תהפך
הפנ"י
##rk
להרויח
מעיים
כיבוס
##קלל
שכרן
ביטלו
דרום
מלבו
החתומים
בושה
ביאתו
גמיר
ויתבאר
פוסקין
ההנאה
השורש
שכבת
דה"ט
מקורה
לבדק
ודב
ודף
דסתרי
##שירה
בגוים
דגברא
והויא
##למידי
##נדרוגינוס
ועין
כתות
תגלחת
שדך
אנת
אלי'
טוענין
הרוצח
הנסקל
דרכיו
שכלי
דמהאי
פשטא
התראת
מצל
השני'
בר"י
תשמישו
לעמו
מתגרשת
וכשבא
כמאה
לקרותו
זעיר
##fj
בשרי
הלשונות
דקאמרי
##יטלו
ולרבי
למיגזר
גרשום
##ej
בדינר
טבת
שהרו
לעינים
העברה
דמס'
הבטיח
שמצאו
משפחות
ונעשית
ואיל
סטרא
כגירסת
הנקראים
להריח
דלוקה
ביורה
##יימין
האמוראים
##eb
הביאור
דנס
אייר
וכדתנן
בשלמות
##1d
במנ
מדרב
דתרוייהו
הפעל
מקצתן
רץ
ושלמים
דיוקא
יורשה
##דשות
הדג
טרף
השלמה
##מזבח
ובעבור
אתינן
מטומאת
בירושלם
דעדות
תוכיח
שלעולם
יפסיק
##לוגת
שיכנס
הצדק
דכו"ע
שהניחו
דיהיה
הגי'
מגביה
פענח
העסק
אדע
וראתה
לכוון
התשלומין
ששינה
מתכוון
ייע
ואבדה
##qg
##יגו
##xl
אבלים
רוחא
שהעולם
##wk
והעד
בולע
בא"א
##69
הלח
מתייבמת
ימלא
זריעה
תלי'
בקבלה
ונוה
שגור
##דיינים
שכם
##בודות
וג"כ
##ירוצם
ידות
נאנסו
לשבעה
##מותי
##יתיך
חוששים
חטאים
ובאופן
מנהגם
באתרוג
##עלתו
בחובו
ואתיא
ומוד
##חון
ומתניתין
באכיל
העון
ציוה
כהך
חזון
זכרונו
##צף
במיתת
קסו
וצדיק
יכין
לחפש
כדאשכחן
##וריות
ולדידי
##בעי
אשתכח
בדליכא
העברי
סני
והראה
מחוברים
דא'
ודן
לכ"ג
הרחם
שבכללות
##פי"כ
נוי
שהשל
ישיבת
אמך
ילמד
יספיק
חזינא
הקרבת
נמר
כאו
דיעה
##u7
ואכיל
שעשתה
שוש
שמצות
ש"י
זורק
##qs
##בעינן
משורת
קשורה
כוחו
##דך
בלח"מ
##pc
זרות
מירוח
##כרא
ולר"י
הראי'
אתון
ל"צ
ומחל
וניעור
##ירן
מכילתא
לאחריני
##yj
אבוד
להכריז
דערלה
##תארסה
הפרטים
טבעי
ואתחנן
שדן
##באים
בורות
רובה
מחצי
ישראלי
שינויא
לבקר
##בהו
בשנ
בהערה
יזיק
רכה
מתקדשת
תבן
יחלל
גורל
##z9
עניינים
בובר
דסברא
טועם
הועילו
מסורת
מדרכי
הלוהו
לפרנס
הענבים
##פקח
תתי
יושר
ושבועה
לאותן
ודעי
לטעמי'
זוב
דאוריי'
שמטמא
לשיעור
לשוא
ודרש
דאכילה
לשכ
הירושה
ממאה
סבת
סדרי
הת"ח
תקל
מלכנו
לדעתם
לעשי
ההע
##z7
ויצחק
##דעא
שרים
##כומ"ז
המועיל
דהיתר
תחילתו
הנשבעין
והבשר
שפט
אבותם
חשדא
דאימא
למש"כ
ונשאל
טופ
שנאמן
מלאת
עוברה
וישת
שנהרג
מהרי"ו
שחוט
לתוכן
##כנסת
שביום
דלעילא
סובל
קבעה
שבממון
וזרק
חירות
למאה
##סוכה
דמוציא
דחצר
חנוני
יחידים
הלקט
לכבות
ממיתה
שהשליח
דררא
יבחר
דלפעמים
##רינו
האט
דשור
ואותה
שהזיק
מ"ר
תשבע
הנשבע
נעבד
אלימא
##שמואל
למנחה
מקרבן
יער
השבעה
אל"ף
וכדכתב
באמו
בשיש
דשנים
##צדיקים
##פאים
דייקינן
דתלי
שיפול
דודי
לבושי
המדר
##סהו
ה"פ
וכש"כ
דגל
בנזירות
נצטרך
קן
השלימות
יפרש
בלוע
מיכא
לכותל
##פטרה
##ishpat
##ולט
להתגרש
בשפ
תלמידיו
ואכ"מ
שבינו
נותנו
לכפרה
בפרש"י
##נקנים
והכתיב
ששכר
שגג
וחתמו
המוחין
הטו"ז
דקרקע
דשקיל
##נינהו
##ה"ב
אתנו
השטן
היבום
העצמות
##ירותא
בכבודו
נולדו
לפסק
תטמא
דגוי
##oi
לעבדו
##ותיות
קראה
דגזרו
##ילוף
תפסה
hab
מעצמה
אפשי
זוית
##ברכים
אגרא
סמכה
בנתיב
##כנא
השתח
לדבריה
##צול
שכאן
דבעיא
##aham
בהקדמה
חת"ס
נאכלין
התש
בחבר
מאמרם
##נעים
והוציאו
כהלכתא
לייבם
##יכוין
שהרא"ש
וידוי
יצה"ר
##מ"מ
בתערובות
avr
לספוקי
הדלקה
בזמנינו
שהסכימו
לשיטתם
ניזונת
##y0
בחבית
נזקין
מכריע
הביצה
פקעה
נתערבו
מקדים
נבנה
דלדברי
##בי'
לדח
דמסכת
גיורת
דגזרינן
avraham
בעושה
הככר
לתלמודא
שנמש
מממון
בחנוכה
דתרתי
שהביאה
קניין
##כ"ה
מיתיבי
mam
דפל
משאת
וסגי
habach
תרי"ג
כאי
##עובר
נמל
בגידין
נקבים
דתלוי
בטבילה
הערים
##z0
שאביו
בהכשר
##יכנס
שיעמוד
ביחס
תתק
ואוסר
דטמא
ניסא
הזמנים
והשיג
והתנן
מדרגות
קלף
##zb
או"א
ולכא
נתבשל
והאו
שיבטל
##מחבר
מקשי
לבעול
שכתבת
שנתגרשה
מתפללים
ארך
כטעם
הגבורים
##מאס
דה"א
##zn
ונפק
בטרם
פרנסתו
ונעשו
סולם
תתח
בחכמת
דנשבע
היותם
מצויות
קונטרס
מחייבו
עשיה
רז
מרגליות
חמותו
הבלוע
העשיר
דברישא
בנכרי
תאו
ואוקימנא
##פרות
שמונים
הרוקח
והשיבו
בפטיש
##of
וקידושין
לזכרון
אתוון
ונותנים
שצו
החזירו
הרה"מ
הלוא
דחגיגה
ומעשים
##ניתי
ובעלי
למסכת
והבית
הקדישו
לברורי
בראשי
דעשו
הקבורה
ארם
##55
ומור
להוציאם
שקיב
יגרע
דלפי"ז
##רובי
##פיפה
בקשר
אסרינן
כלות
בב"ר
לשהות
לחנ
ונמשך
כאיש
ומסירה
השמירה
שופך
אימר
ספור
ודיו
תשכח
שיכולים
##לב"ל
אוחזין
נטר
שהכניסה
בדברינו
להאכילו
##ופני
משכיר
דאוריית'
##פחד
פדוי
מהלכת
במכתב
##בשו
בשביעי
המקשן
בלבם
שהכניס
נתכוונו
שמזכיר
וברכות
למראה
ששמעתי
רכב
והטוב
מקרקעי
פעולות
דיאוש
זיין
והפרי
בארון
רחמי
יסודות
שילם
ששייך
מיעט
##עומד
זח
##3x
הממ
לדרום
הסוד
להלוות
בהמ"ז
ועדיף
תפול
שוגגין
סנ
נוצר
שבים
הנמש
##ותרים
האחריות
קכ"ו
ריא"ז
וזבין
##uf
הקצה
איתנהו
ובב"י
במתנות
להודיעו
##יבמה
##ub
לתקנו
הוסת
השאלות
כתבינן
דעבידא
##u9
חצרו
ברשותיה
וחייבין
טירחא
מעיני
הלמד
במשנת
ההשגחה
פקודי
לסכך
##כלך
דהינו
##ימו
קמיפלגי
תירוצים
נ"ע
לנכסי
שעמדו
דבהכי
דרצה
לרשע
בחרם
ממדת
מכפרת
שהוד
מקץ
ובקו
בחמה
יב"ח
נוקשה
עגונה
##שנו
##וי'
##y1
החיד"א
ביהמ"ק
ובמ"ש
לשפוך
כב"ה
תעשון
שהדברים
##נר
בכולל
ומנא
##y6
מוחה
מוכנים
##חררו
דחויה
הגרע"א
מאירות
אגרת
וישם
לודאי
העביר
ופרכינן
והנלע"ד
קרה
##yb
##y9
במדות
כשהא
##פתן
והזכיר
##פתר
ותס
מכחו
פלט
טוהר
הבועל
##זורק
##ד"ק
אחדות
לגזירה
ומשנה
היציאה
מב"מ
סיחון
##טנורא
מבהמה
תבל
##88
שהראה
שלחנו
נפסלו
נתמעט
משתח
##רור
ומנ"ל
##טעו
העטרה
הקלף
ך'
##zf
וחלה
הפרס
שהקדים
לברוח
והמב
שלאחריו
וארא
שמדבר
קיבול
ישועות
ח"ל
וברמב"ם
##gd
נעשין
גירשה
##מצית
וטהר
פייס
תחום
ולמאן
בצע
ושייר
כתבת
##בתם
נחמני
##ייתו
##פרין
ור"ן
רמו
בריטב"א
חיטין
נבא
נתנאל
שיותר
הפרשת
והחו
בעריות
לחל
המשא
לקבור
הקצוה"ח
בתמיד
דפרע
במכה
דלק"מ
זימון
פנה
בקרקעות
עומק
נפתלי
הצרות
זמנא
##yn
לעתים
עשן
##ובדים
האלהית
נושאין
33
ולמעשה
מכבה
באשם
פדא
דחצי
בשלחן
דגריס
תורתך
##z1
שלענין
מרק
דעושה
##חרו
ואיננו
##שה"ט
אביא
ימתין
##4d
חמירא
מתקיימת
דפרישית
בודק
משיאין
דלמאן
##מכם
בתפלתו
בריוח
טבעו
איס
תרנגולת
בדיינים
נמו
##יתיה
במתכוין
שיכתבו
להניק
הקרקעות
מנגד
##ירק
##ברם
##ופם
שוחד
כמדובר
עובדים
מטרי
עזרה
דבשביל
הבלתי
משדה
##ob
שמז
העצ
בכהנים
נטלה
דון
##פסקה
האלף
גירות
בצדו
בכ"י
מתנהג
דסליק
דמשנה
##mw
קלט
מטות
ובידו
השערה
אלמלא
דחדא
כבת
קושייתו
בצא
והוש
שכינתו
##ציות
שיער
שגגה
דמסקינן
הכותי
##מריה
מכביצה
במחשבתו
רבש
##ייג
יולד
ליורשים
##רצינן
הח"מ
כדיל
שמתפלל
##מצה
הארה
גדלו
והכונה
צדדי
דאק
קכ"ה
דירת
והאדם
נימול
מצית
דמיעוטא
ניסת
וכדמשמע
תוד"ה
##qd
אגר
כיח
שבעיר
והש"ע
נמשכים
##uj
##u0
אבדו
קושיתו
שנטמאו
דמקרא
דרומית
מדעתה
וש"ך
שבתוכה
הקפיד
שחלה
##חזינן
שופט
המשפטים
והכר
נתיר
והזה
מופת
ק"פ
##mp
דכמה
והאיש
גוזל
משכנתא
##כהו
וחשוב
דאחרי
מוחלט
ומראה
הצער
דשוב
לתועלת
מדוי
##וגרת
אגרות
##u6
לאבי
לבעליו
מיתוק
רוטב
##e2
המתא
שמבאר
נהיה
ומורי
מדרגה
##ממו
קמב
בדוקא
הלאוין
רצונך
לבבכם
אילא
שהמע
צווח
טוענים
שהחמירו
שמנהג
קכ"ד
גוסס
ירח
שבנה
שבנו
##דיח
למיעוט
והבאת
לנוי
השיר
הבנה
עיבוד
##yf
מטומאה
באומרת
##u5
ועליה
ילפי'
שנוהג
יטעון
ביוקר
מוחזקים
לפעול
לאחוריו
##מכוס
לחברתה
התערובת
net
כתיבא
הגרים
גפנים
לז"א
למכר
ומסתבר
צורות
בדופן
ושתק
##זיון
##טלטלים
מזויף
לב"נ
דרשי
הדינין
וילפינן
אוקימנא
לפלפל
##בוני
דשלב"ל
שהכתוב
בבתים
מחולקים
החולי
נקרע
יסת
שאיננו
לסיים
שקיים
מוהרי
הגלגל
דבפ'
מקומה
זמני
##o2
וממש
ירוש'
ואח"ז
נעילת
ונוטלין
יכב
ליתמי
התומים
עקרו
בטעמו
34
ידן
למשפט
שנתא
הנאתן
בענינים
גז"ש
##זדור
בבי"ד
##נט'
##א"ז
אמש
נטה
##yi
דאלים
סק"ז
הידו
##e6
##un
ומרור
והאב
##79
##hd
לבבל
##ופל
קנתה
סגיא
##vc
פטרי
נפק"מ
להשק
ומגיד
סולדת
ארי'
פינחס
35
mag
לויתי
לחט
מרש"י
מצרימה
והיוצא
ובמשנה
בגירושין
ויצאה
וטבל
קברו
בשבתות
מתענה
בנשבע
מוהר"י
חישב
##שותפין
בבגדים
לימי
הפתחים
פירא
בפדיון
##כ"ו
דיבורו
וקדושה
רש"ש
עשאן
##z6
סלק
##פסקו
תרד
התשב"ץ
##xd
מהדרינן
הפילה
סבורים
היע
ילמדנו
המחיצה
הנמשך
הזיקה
שתירצו
קטטה
ויקם
נשתעבד
הלק
אנינות
במקור
זמנים
ת"ה
שנתבטל
בנד"ד
העמוד
אזו
וקבלה
הצואר
פורש
קפי
משכיל
ולבטל
וקנו
שדומה
##פעה
להעתיק
כמוה
זיקת
##חותה
נחשת
והצל
##מוטי
לומדים
עצום
מחק
לסעודה
ק"מ
רמאי
הבעה"ב
בקה
שתוכל
שלכאורה
שהתפלל
ש"צ
סמכא
פתר
נתיישב
ששמעון
להשביעו
כחי
והלוקח
חנינה
דליהוי
##vp
כת"ה
שיתקיים
נתבטלה
##שייר
שעו
כשהת
הפסולים
הטענות
מוא
מכירו
מטמאים
בפניה
מובהקים
מוטלת
##יאבון
ליין
מלחמות
ר"ב
בצינ
##כ"ע
לאמת
באחרים
יעביר
כר"ל
גס
סתומים
##e9
שמעולם
גאוני
השקר
ויציב
pit
בחפץ
לעשו
מפסח
##gs
##e3
נדתה
שספק
חריץ
##יתירא
##סרין
רציתי
לבריות
הרוג
צררי
טורף
שהותרה
אוזן
רובם
והתירו
ובפ"ק
וישוב
בגליל
בהיפוך
ספירות
וז'
מקלט
המשכה
היתרא
דכונתו
##שטיין
ושהה
אבותי
תפסו
לפוסלו
יכנו
החידוש
שלזה
##פותה
כסברא
magen
##זקיה
למשוך
לשיטה
משביע
מועילה
בחזקתו
ממס
ללוות
##ql
כניסה
פרוטות
##יבול
וכסף
תפדה
דרוצה
שנז
בפיהם
##חתיכה
נקבות
דברתי
המובה
המאורסה
ידחה
##יימים
הנשארים
דמיין
קינוי
מקושר
36
והמל
עמודי
ובוודאי
רמא
##שבוע
כחה
##זרא
ברמב"ן
דנג
מינך
וכלו
פרצוף
מפלוני
דדינו
תקיעות
שמוכר
teshuva
pithei
##גיעת
מצור
##גונא
##ריה"ג
##ריפות
##שוף
לעובר
מקי
דנד
הדרשה
ניהליה
בזריקה
לכלב
קדשנו
מחוס
לחר
מוסב
הוציאה
בדקדוק
##קבצו
דל"א
ובהש
מסקנא
בתשעה
התפשטות
מענה
במעו
התינוקות
שתיקנו
להולכה
דיע
דתענית
כשנו
בזנות
>'
##ודאתו
##כתן
תקופת
netiv
##z3
להפסד
דמין
דהיאך
##רוי
ותראה
הנידון
##צהר
שבכ
שנתברר
ונדבות
ושמחת
מראשית
דהבא
די"א
מדרשות
הירק
לנזיר
##לאת
ליפול
הבאות
ומתר
נשיאת
הברזל
ומשקין
מאכילת
בגן
האומנין
והלב
דהמו
##נעא
בשעריך
התרת
הראיות
בשוחט
ומלמד
מכך
ואחרונים
ומצי
לשות
מ"י
המנהיג
בכגון
בסוגי'
ראב"י
בגניבה
לגט
כיו"ב
הטיל
מפשט
האס
שמכיר
שנדרה
נתחדש
יינו
השפחה
צווי
לת"ח
ובתשובה
בחיבורי
וימת
מגונה
יישוב
דתה
ובחו
קפדי
תורמין
כפשט
##tk
לטעום
למבוי
שירי
##ui
הגזרה
מחיוב
בלחי
מרחץ
שרגיל
תצה
להבעל
##חול
מהנך
ושוק
##o6
##o1
##xs
הבעיא
ונתי
##ושרין
שאצל
בגופה
קל"ד
לנגד
הניזקין
מאותם
שלוקח
להתנהג
##כסון
שהמלוה
##סומי
לבש
שו"פ
##מיח
דפוסק
נפקי
קיבלו
ולחזור
מחמץ
לכתובה
הנוטל
ופריק
בהרת
בהדייהו
##פרם
בולד
ציין
##בוט
##יובו
##תובעת
בשתים
ורשב"ג
קביל
מכרת
שיושב
מעה
##כותל
גדלות
##זכרת
הוליד
צורי
נהרות
וטעה
כזב
##מדי
דל"ח
סתר
##צטוה
בשתיקה
##ע"ק
או"ה
יצוה
צפר
##דומים
נפשי'
חקת
ומנו
דהרמב"ן
ניסוך
איתן
דמתוך
למהוי
וחוץ
בנגעים
בדורו
דברא
אחיזה
ששאלו
תקרי
נידוי
ברגע
להיותם
לילד
תנהו
הדיון
ממקו
מל"מ
##mr
זהיר
הנתיבות
ונשיא
לכלול
תקס
וצריכים
גזולה
דילה
##כיא
מופיע
מוכרחת
רבונו
למנקט
דטריפה
לפרק
משתעי
העולמים
פתוחות
למינקט
##aj
המשקין
פסקא
שהוקשה
##גרו
אח'
##צטרפין
##0d
##צבו
##ניאל
מושבע
##5d
חבילות
חזה
##וו
ביאוש
דהראב"ד
דמפורש
הספירה
עשבים
##ניש
מאיל
בדמיו
##ינונית
שפתח
ובחי'
בארתי
להלך
##ירושת
שימש
מגרע
הבישול
כשיר
מהרש"ם
שהסכים
בדקו
##כסין
הובאה
כללו
וסתירה
מורין
שרבו
לזנות
כבעל
כפירת
ומזיק
ומערב
הגביה
הדגים
אכלי
נוגעים
הוחזקה
ולך
בהמ"ק
דשינוי
זצוק"ל
##יתני
ליהודה
וקיבל
חפצו
ק"ס
ואצל
##מודות
שיני
דגופא
##חטין
##זבז
נצרכה
מעים
נייר
הטבעי
לאחוז
בממונו
##בורתו
##קראי
חלוקת
זביחה
מהרש"ך
ואותן
הסיר
הכירו
ושעיר
בכולם
##פצו
דשמעתא
להנאת
##ודאת
להתברר
##לותא
לבדם
כיי
ארא
שא'
אליב
הסמ"ק
כהודאה
כנגדה
חורש
למפרך
וקראו
והותרה
לכשי
שויא
פנימית
קורקוס
הביט
פצוע
##ck
ממשה
יודו
משש
ברכתו
ליונתן
מעיז
ליבר
לאמור
עו"ג
קכ"ב
נחושת
מוציאים
מלעשות
והעידו
נמלח
לקנותו
אלהיו
החזרה
##עורר
משמת
##פייה
מריש
בהעלות
##ליפו
בוראו
ירבעם
מטהרין
דה'
ham
מעכו"ם
כשיב
באידך
ניתק
קכ"ג
מרובע
חתנו
השופט
סתמו
להפקיר
במות
העומדת
בגבולין
##ענים
דאלת
דנתן
שאבאר
דקדשה
נסר
לבנין
ולישנא
##בתר
לר"נ
ילבש
במעשרות
נמשכת
מטראני
פאת
##tp
קומה
##פוהו
##קבץ
האומד
מילתיה
צום
##פרקת
בתך
להרהר
דחשוב
תומים
תכ"ד
מחוי
והגב
אפ"ל
להורגו
כנפות
פרוץ
בהגהותיו
תמימים
שוי
מוכת
למעיין
שעקר
כיבוי
דלרש"י
netivot
hamishpat
דאגב
דמקום
דמכיון
##y7
העבירות
שהייתי
שיתא
נשארה
מצותיו
שבישראל
כדקא
on
לגור
וסדר
שחייבים
אבותיהם
עילו
##כתיה
חותך
להסוברים
בפסיק
שהזכרנו
הגבול
הוינא
רברבי
וחסר
דפתח
דסמך
שמתיר
הנשרפין
ועדי
מרת
לעיכובא
##y3
בחבל
##והנים
##שביע
חיין
תלכו
##ש"כ
שלוחין
בעיסה
נשתנו
הקונטרס
ופרקינן
ייתכן
##hg
אחיה
דיהא
דהקשו
שרטוט
בישא
##יאון
ופורים
מוכרת
סס"י
##מיטת
מזמנין
ומקנה
יגאל
מכרעת
נהרגין
##יטהר
##ld
הרשב
דזמן
כפועל
שג"כ
עלמין
##גוז
עקרה
ביארתי
##מכין
כשיהיה
השערות
נו"ן
תתמה
עשירית
דמסייע
הדפוס
ניזק
מהיות
תשחית
ויראת
##ציאו
אמירתו
בחוה"מ
כמלוה
נטמאת
יתומה
קנינו
וטומאה
האפר
ממקור
דעדיפא
בניגוד
שעורין
בימיו
מניעת
ואקשינן
והסמ"ג
שקבע
##ניני
##שבי
לעונת
יקוק
שיצאה
##שכת
לכולן
##כונות
קרנות
הבע"ח
סבלונות
שתרצה
הכללי
ביארו
נכתבו
ובירך
משער
וגדולי
ועשיתם
דכשם
##e1
מאנשי
##ותרו
והעיד
##משני
ערער
מהש"ס
י"מ
אסירי
גנבה
מקומן
דבסמוך
קשי
##עה"ת
אגודה
השיעבוד
בטבל
בתערובת
בדיק
כא'
וניכר
חלוקין
מעקה
אלשיך
ותרומה
השלמות
מכניסין
##o3
ואמ
העגלה
מקדשים
דאלת"ה
ירוק
עניי
בשערי
ויקר
דאיק
##רושי
עשות
מקויים
כפורים
##ai
לערער
בח"ב
הכריח
##גיירה
ספיר
סולת
אתחזק
שמט
הסמ
נתעורר
במיל
והמלוה
פירשה
נדוי
כגוונא
בעומק
לימין
חושך
כמותם
תצוה
##2d
כוכב
רוחני
אסת
עוה"ז
אתי'
מבוארת
חייבה
טבריא
רבותי
לחובה
בסה
ימשך
לוים
השלים
הרגישו
גרמה
ע"ת
מסוטה
יצדק
##עילה
פלפול
##רבין
הכחות
ומוסיף
מוליך
סור
לכף
מהרמב"ם
בשלישי
החלום
ונסתפק
אלהיהם
קובץ
וגרסינן
חברים
##o4
למיזל
ועכצ"ל
וצ"ב
נדוניא
##טית
מהות
ושמאל
בחוש
בתשלומין
דהאשה
##יניהן
בנ"ט
לרבויי
##שביתו
ממונם
ובשני
שכולן
הפתילה
##e8
מיחוש
לגג
מיכה
רבין
שמג
קחשיב
אהע"ז
אדבר
תנופה
ברכיה
אנפין
##פכה
דבו
גדלה
בכרי
רעק"א
הדליקה
##בם
##דוי
מוקים
ירו'
##o7
דדברים
##ק'
התורף
פדה
שהבעלים
##דורא
בעולת
ארג
הזוג
##מנע
והיכן
חזן
הגהת
בברית
שזוכה
תיר
בב"ה
וחלו
##ערכת
אסא
לצלי
מגלחין
שמחויב
##כולת
ישתמש
ששחטו
במזבח
ותיפוק
##טעים
ליראה
הקצה"ח
מתפיס
ונטמא
ואביה
קרינא
בשכל
צוו
בצרה
##גלא
וכהאי
עידית
שבתא
##נחריב
משתעבדי
גידול
לציין
##יבמות
דהדבר
בשיר
תלד
וטהור
הכוסות
מכחישו
שטות
קפג
יגלה
ולפום
לפור
ומקדש
הרמה
ובמסכת
הכונס
רי"א
לצוות
##ענת
ותחת
>]:
דנקרא
##עץ
שהעד
העופות
מחזי
ויתפלל
קצות
##סורא
התשמיש
הטבל
מבחינה
ככו
##בררו
##זע
##פשטו
מיחזי
דסמכינן
##vw
##סרת
יגמור
הושעיא
יארע
מאוס
ומואב
תקיעת
מריה
תובעת
פרטים
וילנא
חני
סיפור
##o9
ומגו
מאבד
מרחם
פו"ר
##גמו
כגריס
ושלשים
שרוצים
שלכך
##דיך
מכס
קנב
##ר"ר
שהגוי
ושליש
##o8
עיינתי
##יכנו
לחזר
לחינוך
דשחיטה
החתיכות
בכתיבת
מתנ
שתלה
מחטא
##בעיר
המאורות
שחתמו
##27
ירשו
סק"ח
תופ
אהי
##כאה
אומרי'
לאמה
דהאידנא
מטיל
תורם
מזרחית
ליבון
##זלה
לקהל
רום
לצפון
##רועה
##גיירו
המעט
ומקני
התחייבות
סיג
##טעין
כיבוש
מחנות
והעמיד
וטריא
ועי"ל
ועביד
גחלת
לכתב
מולד
##זוי
דחיה
שניכר
ואוקי
העינים
יעיד
קמט
היקש
ופשיט
המחט
גורן
שהרגיש
צפונית
הכאה
כחצי
חיובי
הסתרים
##יובי
בספיקא
##חייה
המגיה
דסברת
הפ"מ
בתומים
##tw
##תונות
הפלגה
כמראה
במתני
נתנם
ספירה
רמ"ה
יבמין
שיחה
והגד
בט'
והשם
דמכח
במשמעות
דעצם
ש"ק
בהכ"נ
מידת
שאומרת
קולי
החרש
נחוש
ונתת
שסופו
ושמעינן
>]:</
##מאו
##שתני
ילדים
קמיירי
ותהא
שהלוקח
העצה
##דומי
להחשיב
אוקמוה
##u8
שחידש
שנולדו
א"ת
##פח"ח
דנאמר
דראובן
דממ"נ
##5s
שביטל
שכפי
וחכם
דקדושת
דנ"ד
הזרעים
דצד
רעי
נתמלא
מאיסורא
רבותיו
הקושיות
##פליג
שנרא
החדר
##כוחי
תחמוד
##נשמה
למתניתין
ועשא
לכד
ידיע
כנוס
קל"ה
מזומן
האמורי
יחוס
מורכב
בפורים
אחרי'
הפסידה
בצלם
##xg
שכלם
מחייבת
וקדשים
מפחד
שמלת
משפחתו
דבחד
צנו
מאש
ל"פ
##כסת
היסח
ושש
ישעי'
##זרחי
מיתסר
##,</
למתים
יהב
למדינה
40
##קוד
##מלים
כופה
##טהרת
וא"ר
מרגלים
ופשתים
##u4
דשלו
התעוררות
במל"מ
לאבא
שירים
##סיפין
להמלוה
ובסיפא
הזכרים
יאסר
לתובע
בתיבה
בציעת
במלך
פירושנו
קנסות
לאהדורי
ליברמן
בגדולה
אדוניו
שהיום
ומ"ד
הטהורה
פרוסה
##ריע
רשותא
ולחם
כגבוי
האנושי
##גלית
קנז
להפוסקים
ורחוק
קב"ה
הנדוניא
מהדורה
התקיעה
##e0
##qh
משוח
##ודאות
שיועיל
אדמו"ר
##נחים
משבח
נגח
כבה
מחמתו
הסוס
נחלתו
דה"פ
המום
שנקראו
ישועה
קופה
חמשת
דהמע
חבי
נמנו
תזרע
דליק
משכנות
בבראשית
ומיעוט
הנלע"ד
אהך
##מיתך
הקדום
דטפי
מקיל
רגליה
##e7
להשי"ת
שעטנ
וז"א
שבירה
בהוצאה
בהרי
##פעת
עונין
הירוש'
##ינויא
בחדושיו
##ילתן
##חוז
##שרין
מקיש
##יכוך
להשהות
ממלאכה
פקוד
נלך
שפרש"י
דאו'
כשאדם
מכרן
הקשת
ילמדו
##ריסות
המהר"ל
##vf
מזונותיה
דהגם
נצב
צולין
##יהרא
##כסות
##pw
##הכ"פ
מציין
מועל
מבוא
הזן
##מראות
המערה
38
מרצונו
מנדין
שביה
ישרף
להוי
פרסאות
ואינון
המקרה
ומדרבנן
לגוים
נשות
הקור
ספיח
כלתה
מרוטנבורג
##נ"ה
המשקה
שבאים
חברותא
##שורי
ובפס
בעם
##יטרא
בועז
שוורים
נקבר
נגזל
גרמו
בעידי
בכליו
כהה
##קבן
מחייבים
קרובו
קבועים
דינן
לרצונו
שפתיו
שלכם
יפטר
ציור
תקוה
דיבורא
ומלשון
אמד
##lg
ומעולם
##עדות
כרגלי
לחשבון
החושן
מופלא
עושי
השייך
37
##bn
לשלוחו
השחתה
##רש"ך
פיקוח
##קפה
מזי
הפסולת
שדוקא
ל"י
כשג
הרעב
וכונתו
במשקל
שיי
נחזור
מרויח
ונדחה
ובדר
הרוטב
לשלש
דבכלל
גוש
נידה
בתורתו
##חומין
ליכי
האולם
הלכתי
##עיז
אחאב
יחפור
בלילי
##טריס
##צריכו
סומכים
##ji
לצבור
בברוך
כדו
מיחו
יוק
וכולהו
ובכ"ז
הפקיר
שנשארו
ולקחה
תולעים
דטעמו
בהעלותך
סיבת
עשין
שמזה
מעורר
בפתיחה
כר"ג
כדמות
מצרף
ייח
##כוהו
דממה
דברת
בשבעה
שאעפ"י
שהדם
##דונות
קשת
קברות
תורא
מינוי
לקיי
דחוששין
תאנה
ובח"א
##נויות
##רגרת
ומדה
ויעל
הרשד"ם
##יונים
עמיד
כשמע
שנוכל
קרבו
מהרימ"ט
סובב
חייבו
וימים
נזו
משור
התוי"ט
גגו
הצלת
מודי
הפקיד
וברוך
הגן
לעצם
וגדר
##44
לשטר
ממנהג
שבראש
עוקבא
##za
גומות
כרבינו
קשירה
איגלאי
תלמידים
הזיתים
גע
יטה
לאורו
והמד
להשקות
בכת"י
דעתי'
לחמץ
וזור
דמעילה
וחיישינן
##tc
לשוכר
שווה
ולקבל
נמוך
##נפת
לדרשא
ול"ל
כתו'
שמעה
המהר"ם
רפ"ב
כעד
##רבים
פירקין
קנויה
הייתם
מגילת
רגילות
דב"ד
שישמע
והייתי
##מורין
חטאתי
ללות
ושלו
בזרוע
מאמרות
ודפח"ח
לקצור
להקדישו
לנתבע
##ודד
##שאיר
פרוש
בפי"א
עדיות
הבאין
מרביעית
לתיאבון
לרשב"א
ושהוא
בבישול
##חותא
אברי
##יקול
סנה
ההוראה
רובן
שאשתו
ולקחת
מהדורא
אתק
קיימינן
##5c
תזריע
יקדים
וברח
להמציא
במית
מצפה
האזינו
טופס
מיכאל
בחנק
##ותרת
שהבטיח
חפצי
ובנים
אגוד
קצתם
עתידין
מהמשנה
במלאכתו
מששים
השפל
להשמיע
ופק
בשורה
דמיקרי
בחיבור
שיצ
פסוקה
מחוייבים
המסייע
משמשת
בעונש
שכינתא
דבספק
בעמידה
ממאנת
בעילתו
יהל
דשכיחי
ביע
והנח
המפלת
תחיה
קשק
קלח
ונחלקו
מושבות
##oa
כר"נ
דיו"ט
ובריש
עדיפי
דבהדיא
אבימלך
##xh
מלכו
מורשה
זצל
בהנאת
ממטה
ללקות
vet
קל"ג
דבאומר
ההודאה
בעה"ת
דקדקו
##פשרות
גיבורים
ובאין
וכמדומה
הט"ו
נשמר
שהמנהג
דלר"ש
החזה
gt
זמנין
##נוז
מריבה
ולהס
דבאו
לכה"ג
וחבירו
משתמע
חוה
בשינה
השתי
לגזול
לשלח
דחטאת
דמחמיר
נעי
המחק
ווא
וחג
דקות
ההסכמה
עוה"ב
שלג
בתא
ונכר
דבטלה
##שיע
וליטול
וערבה
ונגע
גורמת
והעיר
בינתיים
דאח"כ
הצל"ח
יכנסו
מדריגה
פיסול
vetumim
מקצה
נכנסת
חיותו
בגויה
והחזיר
נתלה
לקבלת
##ילקו
הפנימיות
הרפואה
פנימיות
##רידה
##נאמר
ענני
נולדה
אלחנן
נשברה
ריב"ש
ירידה
בבגדו
שלים
חזקיהו
##פיהם
ממחרת
ומהר"ם
>],</
המודעא
שגבה
הק"ו
תשמישי
אילין
##בעו
המכות
דבכור
שמצאתי
שהעיקר
ורבותינו
אמ"ש
דקונה
התקבלתי
מכתוב
וטרפה
קורות
##נוש
באפר
ויקה
עזרת
ומבאר
כהנת
אדברי
יעב"ץ
דסמיך
ולשם
ובארץ
##48
ללמדו
קפט
גופן
למידע
דראש
החלקים
הה'
מדנקט
ידא
תהום
קרוביו
קל"ב
שקבעו
כנפים
נשנית
קורט
ואסר
ובור
ליטלו
בשמחת
הקנים
לתכלית
הזוכה
הרגישה
בקיומו
להתגייר
למזיד
ומית
דנשת
יוצאות
סימנא
עדה
מחזקה
ובתוספות
##pr
##11
##ea
הח'
ממשיך
ואמוראים
דנדר
מניחו
שע"ג
נט"י
##רושין
ארמי
קשרים
##חלות
תקפו
סיון
שטעמו
מבואות
לפלוגי
לאיבוד
בעץ
שנפסל
##טחון
##פילות
##ייסו
נתפשט
והשלישי
ניצוצות
המוקף
ההשת
הבונה
שעוסק
לתרי
לפרסם
דנכרי
דמחוסר
טעמ'
יד"ח
טומאות
במרו
כשעושה
בלימוד
הפסקה
נזירותו
ורבינא
##זקנים
הרבני
ובלאו
העשויה
סותם
מתרת
והנורא
לאוקמה
דחשבינן
הילוך
##גדר
יסיר
אדה"ר
תגר
דאיתמר
שכשם
שפי
בת"ח
ויסוד
39
ח"ס
בשרה
תעבור
ומאתים
צלם
כאור
נזדמן
קריבה
להכשירו
##גרי
באמרם
נגאל
בפה"א
מיפסל
ולקחו
מב"ד
צג
##ולחן
מקבלי
דפשיט
ט"ב
מרום
דהגמ'
יבקש
תרפ
ארוכים
##ערי
ובקר
מחמי
דו"ח
ינתן
הזהר
בעילה
מחמירים
דהאומר
##רעם
ולוק
וטהרה
להאמינו
בביהכ"נ
מעשרין
נשמט
##ומדנא
##דוהו
דמפני
ברי"ף
והביאה
דשכירות
השקיעה
##ter
עפמ"ש
במפרש
##כהאי
פרת
##חמיו
גרסי
בירר
חלץ
דלזה
וליש
הדבש
יחוש
בחוזק
שהקנה
ידור
יתקן
לנפשו
יתבע
מנש
משתמר
הורג
הבדיל
דולק
##יהא
דורשין
הש'
וכדמ
לאותם
תחטא
לנדבה
סתימה
##9d
דבמע
וכזה
שבפנים
משפחת
לשמ
הגזבר
וקנין
##ימניה
איתחזק
כמש"ש
אשתך
משקים
החשוב
##צרף
ליי
השיטות
יונק
שבטי
והר"מ
לאחריה
נניח
באפשר
##ולעים
ההפרש
וקשר
דפחות
ט"ל
##דיה
שקדמו
המצווה
כר"ח
שקדש
המט
ולמדנו
אא"ז
אלימתא
ווייס
שורת
וחיוב
נתקדשו
מתייחס
שקבלה
קל"ט
דלתתא
שפסול
צואר
##o5
שיגרש
האיסורין
הנאות
ב"ת
וכשמ
שמכניס
ושו"ע
ומוציאין
##ד"ה
הסובר
שביר
חללים
הידור
ישר'
##ush
דלילה
גרשון
כדבריהם
חבלה
אקני
רשויות
לקדשו
מפרשינן
וירדו
צט
שאובים
האד
הה"א
שבחא
מועטין
##vb
כשתי
מזאת
בדומה
##ממא
לזמנו
ששבת
ושוה
ועקר
בינתים
יקי
תקום
שמבטל
מיכל
חוות
לה"ר
מתערב
רט
מחמרינן
לכבוש
המעיד
##ילוג
ומקצת
תאר
##sg
הנאמנות
בתשוב'
משבועת
אנוסה
והודאה
דאכילת
אחרונות
אוו
יחלוק
ירבו
##lh
נפרעין
שתלוי
בבהכ"נ
באצב
בעק
נטמאה
לרש
##גהת
זכי'
##בתים
נשאה
השותפים
מוקדש
לכפור
בגא
המרגלים
ופסח
בפשטות
בשניה
##נסוהו
יחשבו
מעכבות
כפירה
ויי
עש"ב
מאמו
הסכמה
זך
##e4
בהגיע
פי"ח
אשכול
לנכון
ולבני
עבידא
כוב
ת"כ
##יבוש
וקטנים
##16
רבש"ע
עתים
וקדשה
תמהני
לרקיע
שגרם
הטפל
יסודי
תקכט
שבתון
ולדידן
ובד"ה
מעלייתא
דברה
וסמיך
והסכימו
מערכה
##ורתא
נחתך
סחיטה
קנ"ה
מש"פ
שזאת
דענין
ואי"ה
ממדינת
משמעו
שושן
לבועל
פוטרין
##משות
##כתית
ונחשב
בגבול
מברכת
ודקדק
איע
וביש
שנפטר
אלילים
ניצו
ואוכלין
דרים
דסד"א
זן
בגרושה
גמורין
דכד
שפרעו
הישוב
אחדים
פורענות
חרטה
דפשוט
ומתרצינן
הוכחתי
שהשת
ודורש
מנודה
##נוך
החבל
וכדפרישית
ולהר
דנאמנת
##סרי
##רגמינן
##דלו
בנכס
דדמאי
וסבור
מועדים
שענין
תימר
המצורע
כנישתא
##גונה
המחיצות
רוחי
להיכן
בראובן
חטאתם
כהרשב"א
ישנם
שזכו
לאד
בד"ת
כסו
שגגת
שבמע
פגו
מגב
נהנין
והורי
בצלי
##סמים
ובזו
שנתר
מברטנורא
להיכל
תיבעי
##סתה
##kc
ול"מ
סעוד
שותק
ת"ו
לימות
ומרדכי
כנסה
כדרב
מטפח
ימחה
לפרשה
גניזה
החלות
במאכל
שמסרו
האיפה
##e5
מהיכי
כאוכל
מגלגלין
מהטעם
בהרא"ש
ממש"כ
##לח"מ
##יורי
הסנהדרין
נו"ב
וולד
בחכמתו
שניקב
לנכסיו
##יווג
הנכרים
קמ"ב
##צצו
שתדע
ירמי'
##f3
שעוה
וקברתיו
אנוסים
מינקת
ויכתוב
שחטאו
חיטים
##j0
ובהלכות
שיכוין
רצופים
נצבים
חית
שאשה
בחרו
דזכי
טעמייהו
לאסוקי
תחתון
שנשחטו
להטיב
גמילות
ליתי
מכ"ת
הכריחו
הקפידה
כמד
##qx
להתם
ובחד
##ניחוש
אושא
סרי
ובינה
בסל
הוושט
סתירת
מקני
וב"ד
ביציאת
שתבא
כפו
להרים
שמי'
##עורי
ורמ"א
משומד
ובנדון
##קביל
ריחא
##נכם
##fn
המאוחר
##לחו
מיגא
להקים
בעליהן
לתשובה
ולהק
##ימטא
כדון
יזכו
##וקין
שגדל
בתי'
שהאו
שילה
בעשר
כחם
גמלים
קט"ז
צונ
לגופו
גמול
##sd
ופני
עליות
בהודאה
ליצ
##משכן
רשב"ל
כניסת
בנבואה
##פלי
##ונשין
לחומר
נהרא
לטהרה
##ספים
בחבורה
דלרבא
נאים
תמיהת
חמודות
המקיף
אשירה
שבמנין
לדרכו
##סע
כנים
הא"ר
וסל
##ניסתו
קטרת
עמודים
נוסחאות
דתב
אדנ"י
##דרי'
להאשה
ובשו"ע
והיום
ניזונית
נובע
איצטרי
אפיה
ונכתב
דכדי
והכתוב
יורנו
עשירים
להתאבל
דמדא
עלול
אחוה
ואינך
אחשב
האיברים
זצללה"ה
היקף
במותר
תלמודי
ועי"ש
שכונת
בלינה
שדוחה
העמד
פונה
לגופיה
##מקי
ולפרש
הכתר
דזכות
##פרט
מעובדא
לגדור
וקדושין
שבירת
רא"ם
הנכונה
דחמיר
בפשוט
וחלילה
והבל
שבמשנה
בפעל
גירי
תה"ד
בחוט
לדמי
דעם
גרמי
דמותרת
וכולה
שלבו
מכוער
ונשארו
מערבי
תצטרך
העברת
הוכשרו
ותשכח
הכרה
עבות
שמדובר
והמצוה
ויחל
למב
##שועת
מש"ל
הדרש
הבעלי
והב"ד
ההמון
דס"ס
פקוח
תקן
וסמ"ג
כרבים
##יבון
הנהנין
מאחיו
המצריים
ומהא
יראי
ובפירוש
דמתחלה
דמהימן
##נגול
פריו
קיחה
כריב
וכ"ד
ובתה
ובגד
בח'
מעצמן
##צלים
דהכוונה
דשטרא
בשארי
יצתה
##גוב
ושנ
לאכלן
דלוה
והר"ש
##lx
##ירתה
שמ"מ
הגע
באחרונים
מחטאת
מערבית
מאחרי
דומין
למוכרה
שישמעו
ביבשה
הקש
מופר
מחוברין
ברחמים
בפע
בגילוי
להפוך
##מייתא
יחזיק
מתיישב
האסורין
דלמסקנא
##יתוף
##תימות
דמחזי
לוקחים
והתו
האלהי
להשגיח
נזד
האמית
דממון
הנפטר
כנגדן
שהתנו
ונאבד
להטריף
בנפל
שהחזיר
נענה
קנ"ג
לקבלו
##עיסה
מבחי'
שסוברים
לחלוטין
מסא
אצלך
ויחיד
החרב
לרשב"ג
משחש
במשקין
תשלח
ששואל
מחצר
מקרקע
##גדף
מגזרת
מניקה
והשליח
##טעה
מצדו
עמוס
דורס
המ"ל
הוריות
מצטרפת
גליון
שו'
##חורי
שאלתי
ליטרא
שילוח
בסגנון
דקר
##qc
בעלות
לרשעים
מחזיקים
וצי
דהספק
##מיס
שמשלם
התרגום
ונותנת
משגיחין
##שוני
##ברג
הגור
החגים
ונצ
##גח
##וה"נ
ונזיר
כשיצא
שהבן
יוצאי
שעליהם
אתער
מוחק
שטעו
##עף
מוכחת
במתן
מיפס
אבשלום
שיעקב
##טייה
ומברכין
דלכו"ע
יברכך
ישתנה
##זיבה
להמש
מלפניך
##rw
##רו'
שיתברר
דבש"ס
פגול
##יי'
מרוח
והאם
והריב"ש
יזכיר
העושר
בקור
להחמיץ
##fi
במקל
##מיכות
וגוי
כהדא
נעשתה
רלב
להניחם
וטריפה
לחלה
עיכוב
ותוספות
אחותי
דהפ
ולחוץ
בהשת
##j4
מהנה
##בועים
אבוהון
##מחוי
##גרסינן
לחמי
סרק
הדרישה
##b9
בערבי
בתער
מחלב
כפיה
מקט
אהובי
להוליכו
ר"ד
לאילן
חליצתה
שלט
ומנחת
משמי
יחלקו
רצועה
ההפ
והולד
שהשי"ת
אתתא
כיש
שפרש
סק"ט
מלישנא
תהלה
##צריכה
##8d
לחלב
איפה
העונה
עזה
פסולות
כיעור
מלכ
הצבא
דגרסי'
המצרן
המחיה
המע"ה
וט"ז
במציאה
חומת
וששה
דכסף
שתמצא
נדחית
ושבעת
מכוונת
נתייאשו
יומים
מערה
מנוקב
סותרין
ויוצאין
##__
דקיל
נכסיה
מוהר"ם
לקדושת
וחיות
מערבא
הוברר
מסך
וילכו
##גנין
לאק
מהימני
איפשטא
##זוג
לציבור
למתנה
לחכמה
שחב
לנע
האיסורים
דטומאת
מתוכה
נפסלה
והתב
ושפ
לסחורה
בדעתי
שנתק
והרמ"ה
מעיזה
בכרמלית
ואפר
שהוזכר
ובער
מדרבי
מבבל
כשבאו
ובימי
שחזרו
קרובי
שהגיעו
גזור
דמחל
שוכן
ההנהגה
שחבירו
חבריה
ואג
ויעבור
ובחידושי
והמעיין
וקטנה
אחרית
נשכר
שניתנה
אברייתא
דורון
כשיע
תולדת
שביעה
##וסט
בדבש
בביאת
שיטין
והותר
מבוש
הטוען
וזרע
הכתם
בקצה
בנביא
בהסכמת
לכותבו
ראשים
פי"ז
המובהק
וקט
##טריח
להוריד
##ניתו
למ"ל
המוזכר
קדישין
שילא
שרגילין
שהיין
יקרים
למקבל
הישועה
מז'
שפחות
דיניהם
רשי
ושקיל
lt
ברעב
עונו
בזדון
הציר
שהפרי
דכת'
הטמאה
מהגמ'
גרועה
##קשן
תולעת
דמיגו
בהפקר
כחוט
##ול'
לקשר
עבידי
שאחריו
##פאה
וכשת
למנו
##ומרים
דשמעת
עירוי
שמתא
לבעה"ב
ובש"ס
ויובל
למוצאי
מגרשה
##66
##גאה
##יריים
לקדירה
דגובה
##חוי
וגי
שנהג
ולחומרא
דתמיד
הפסולין
ליכתב
41
##mv
החולק
##ירוצא
##יכולת
שבשלו
תיראו
והרש
בחדושי
נוטלים
זיבורית
##ילכתא
האחרות
להסתלק
דאחרים
בחולה
דנוטל
שאותה
##נקים
##1g
קונו
לשבות
ול"ק
מכסף
חמת
אוב
טמון
לנוח
שהשמיט
עבה"ט
דאמת
והמר
במ'
ותצא
מושגים
##יננא
ומדת
שמועיל
שהקשיתי
והקריב
ומבקש
בעדותו
דמקודשת
התרנגולת
ממזרת
נקודות
אע'
כדברינו
בוי"ו
זוהר
שעוד
להפטר
דהיתה
ומנחה
ליתנם
והמס
מסוכן
##רונו
הקערה
מכבוד
והאידנא
שהרשב"א
עמדתי
בה"ש
הצלה
ואיבעית
##ננת
##יה"ק
באזהרה
הריהו
חזקו
שהזכירו
שבפ
##ונג
##פנא
אורז
עשייה
ומין
מדינות
##מיתא
הוולד
מאליהן
בדמאי
מלקין
מסוד
התועלת
ולחלק
האויב
קל"א
יטעה
וגא
וישאר
למשכן
ששר
##ות'
##וי"ש
##זאת
האבידה
הרוחני
בהשג
בתפארת
שעשאה
בטובת
במאתים
בתרייתא
כפולה
הטהרה
פסחו
להטור
ומתא
ההורג
##זירין
לרווחא
במשל
##חתת
##בורך
42
##תמו
בבעלי
כממון
נוספים
##b2
מפורשים
ויבואר
##סרך
מהדורת
יהבי
כשכבר
ש"ו
תגזול
וביא
יוני
##גנה
דמטי
מחילת
במכ
למדר
הקלו
לרעך
ילקה
הלזה
שישבו
שנאסרה
נופלת
כתוס'
שאילת
קדמאה
והקדש
יורו
ושכל
יעמיד
והוינן
##קדקו
ויאכלו
חמדה
מאכילה
##פסין
מפט
המיוחדת
היתו
אזן
מיהודה
קע"ו
העולים
שפעמים
התחילה
##בירים
דמלשון
##לג
דאוקי
ומ"ט
מתנאי
וס'
##b3
וצדק
הטומאות
חולצין
בעצמות
וסתמא
אובד
לגרוס
קנוניא
תאבד
לשמוח
דאהלות
מקפידין
ותוספת
מאשתו
בנימן
הכלבו
לנקב
למדתי
בסוכות
הנקודה
במעט
כבו
##ש"ט
##צכם
שעטנז
##ואיה
דערב
דשומר
זלמן
למוה
ע"ל
יעבוד
אט
הליכה
יבשה
ומחו
שקיעת
לז'
##צטרפו
##יקשא
בראשונים
אלקיכם
##ידושו
אשר"י
גבוהים
ורחב
אשרה
יטעו
##מג
דכפי
שווין
דמגו
בחוק
אבת
##ולתם
עלין
המחו
##דייה
ברירא
ליטע
##lk
שתנשא
לאמ
בשרא
הנ"מ
מתקבל
לכפול
שנתערבה
אשב
ועצמות
דרשת
ברחוק
הזיקו
##מ"ב
ושמור
ליהרג
דשמעינן
##בעם
הבריא
##ככין
בעשרים
לאלמנה
כוחות
והשכל
נשל
וליה
חובתן
רלא
נפילת
הבנת
אוהבו
הארבעים
קכג
לבי"ד
משעבד
באחריותן
בילה
דבורים
השניים
בת'
סו"ס
ואחיו
עשירה
נסיב
בחלל
##חשש
דלדידהו
הרחיק
שביארתי
##ni
ממלוה
דלר"א
##פליט
דתשביתו
דכוותה
ענוש
פעולתו
אבי'
לברייתא
דשיטת
ובהגהות
שהמלך
צמא
##58
והבו
##קבילה
נוגעין
מוצאים
##נ"ט
ולצ
##כייתא
חדרים
מקוים
כעבד
##5g
שבלא
לדופן
ששאלת
מחב
נעילה
##נדר
שמתחיל
דקושטא
##כבש
משבצות
פט"ז
רכ"ח
רלה
שאמ'
ישאו
שווים
והאחד
נשפך
שריפת
היש"ש
חלף
>-
במתא
הנות
קכב
בעצי
דמנהג
>*
ומשקה
בהכחשה
##כ"ז
לתשלומין
להתקרב
להתרחק
שיום
תשאר
ויהודה
ציית
רוקח
מכונה
ואותם
##חטן
גוזר
והולכת
ההולכים
למקרא
התירא
גויל
הערך
##ריון
לחפור
כונתם
וגבה
ואסרו
המכחיש
האישה
ומזוזות
פיט
שהספק
המכס
בתמוז
דתיק
##לביש
##נצל
המוריה
כשהיתה
דגנך
דתקנו
אפטרו
הגיעה
נתקנה
וישבו
גאולת
נזכרו
שצ"ל
##טורה
מיגש
דמפרשי
ספיקי
מלקוחות
לזוז
ועומדת
##לשו
השדות
במבוא
נרגש
שב"ד
סמ"ק
לגלגל
יהודית
שאולי
##bj
למקומה
הוית
דהנהו
להגעיל
לברור
קנ"ו
לשבט
יריחו
מרפא
אזדא
בספרות
בהרח
ותקנו
##זיד
דקדוש
באנפי
ובביאור
בסמ"ג
לבבם
תיו
משערין
הקפה
ושלמה
מותיב
##pv
ומכרה
דמכאן
אזנו
מדייק
למילתא
בתיבת
הללויה
ערים
##סאי
ויעמוד
קרנא
מבערב
הנהגה
שמובא
המאורע
המבדיל
שלחה
##וברי
ואיפשר
ילין
בשקר
כשכתב
ותשב
שנתכוין
בכותב
ממנ"פ
מקורו
שרבים
קושייתם
גבי'
קולון
והתנה
החשוד
הטביעה
שנתה
כשער
ובגוף
בלעז
##חי'
אוירא
קארו
עובדין
בשמירה
וגז
##פיסת
##חקות
ולהתיר
##מירא
##qw
בפירקין
מכורה
##4g
בעופות
הנעלם
שהוש
בחלון
ליפטר
המרבה
ויקהל
מופ
בנתינה
הפוך
השלו
מעצם
ויבאו
האזהרה
ובתי
##עלתי
שמנ
##עוטות
שבקינן
ובכתוב
בהתא
דבמו
גדולתו
יחר
הד"מ
השקה
עודנו
חתומים
לנביא
חלקה
בקונט'
דבתרא
נשבעתי
המתחייב
חלת
העשירי
##פרי'
יזכור
הגזלה
ומלוה
וחזקת
מערער
סמוכות
שהפקיד
מחויבים
שעשית
חסרים
פ"ר
הסי
חמורים
מעכבא
##מכה
##יהר
רל"ב
תשמעו
מיטב
ומקרא
החבי
ומוקמינן
לשמי
לעבודתו
מברר
שחול
המושל
באיזו
חוקי
וא"נ
ארבעת
שלהי
##מכים
הרוחות
לעולא
מטלטלים
##cw
בנולד
המעו
הכרעה
סניף
לכון
ושער
ששייר
משערינן
החדשות
השמטה
##2g
בסעודת
המתירים
אריא
לובש
לחלקו
מג"ש
קיג
בולט
ולאה
##ניעה
התל
מהריק
באבנים
ומסקינן
החזיקו
##a9
במ"ע
התלוי
##ותחין
כאש
בחותם
מפסקת
סוסים
וחמשים
להודיעך
##ולעת
דחב
לאמרו
מתנגד
הגויים
יוציאו
וכר'
בתקופת
##פשות
להוצאה
סדין
תכל
ומקרי
ודעימיה
לגי
הפורע
לצדדין
הבחור
החזרת
שבכאן
וקסבר
פלו'
והלל
למועד
טעמם
תשמרו
לשליש
צאי
האיבעיא
שפופרת
##דותא
##ח'
##יבוץ
נתונים
##rv
##hs
ול"ה
אכי
ונר'
המקובלים
מתגלה
הונח
בציון
תובעו
##rt
הזכירה
לעניי
הטבח
דהחיוב
החדשה
תקבל
##לתי
שס"ל
פרשו
וקדשיו
עלאין
##1s
ומטה
משחית
היושבים
##יבורה
ואבי
אפטרופוס
ונקי
לקוברו
דבנדון
ואבר
דאג
קנסינן
בטבעת
של"ה
דפת
ידמה
למשרי
##כ"ג
אביב
##ערער
בעניננו
והקי
ובמס'
הפעולות
הכבשים
ורשות
האשכול
והמוכר
דבורו
קצץ
נפסד
##59
##רופה
לקודש
בלילות
כשיבא
מספרים
בצרכי
פעלים
שהכהן
בשולי
דמכר
##דוננו
דס'
וכוס
לפנותו
##גדור
אינני
בשטמ"ק
ומכש"כ
סילק
החליט
##ציעה
שבאת
##ייעתא
לקרוב
שנותיו
שיחיה
##לשלות
לקום
ש"ג
דגדול
##b7
כולא
הבמות
נעים
התנועה
מו"מ
מגמרא
דראשון
דחסר
עשויין
מתרצה
ומחייב
לשואל
עונותיו
בזרי
דפסקו
והראשון
##יבותא
##פיים
ולהבין
איתיביה
מיחשב
עלות
שכמה
דעומד
החבר
כרש
שימי
ללוש
מעיו"ט
שייכת
ואזי
בנתיים
פירקא
כשיגיע
ביראה
שים
לול
##bf
##ניסת
הנעל
מתברר
והולכין
הסתירה
דביה
הרואים
ויגש
שמרים
זכינו
להזימה
ומדר
העשרה
תות
דאברהם
ידבק
ערכו
דקיימי
קנ"א
##דרא
לגז
ובהכרח
דואג
שמני
סרך
מדקא
אבותיך
דחזו
מקפידים
מיכ
בחיבורו
ועלתה
חקירה
מסופקים
בעשי
דקושית
קשות
ובגו
שמיד
ההקד
הגדיל
נדריה
ורצון
נכשל
מביאו
ונדחק
קטלא
שטוב
בביתי
כחוש
והנך
הכופר
הארכובה
נזהרים
##0k
##טאה
מקוואות
אחזק
ביש"ש
חסדך
טרחא
##0s
אימה
שירות
דה"מ
בעש
ההגדה
##0g
ובכך
זוכים
מגדר
להשם
המילות
דיכולה
למידי
ומוריד
קמ"ג
לדונו
##סיה
שאכלה
שערה
שדנו
שיודעים
שאברהם
ובעו
בשילהי
לשמע
דפטר
תעביד
קיו
החנוני
תאמרו
לטבילה
דדא
##זאה
ואזלינן
שהנה
בהנ
שיקיים
דלפמ"ש
והייתם
אע"ה
באל"ף
הנ'
לרבינא
##2s
שכונתו
שריר
נשבעת
דיעקב
לקדרה
שדינן
כדיבור
במשקה
דייקי
ובמד
לבילה
המ'
מדתניא
הותירו
שהראשון
קטז
משבט
##גיית
תפשוט
שברים
שמעי'
ושבעה
לעשייתן
הודע
##מיצה
##וסקין
הזבחים
לשמחה
מצטרפות
##בולות
אפרש
שיבה
אלפא
מהדו
המכו
מד"ת
כסיל
מרבותינו
במוך
מופנה
מצותה
לשים
ממהר
המעמיד
הרגשת
כעונה
##ינויים
החותם
ותפס
ות"ק
לנזירות
בעצמך
##ב"א
##יהיו
לסטים
יורדים
מוסרין
##מינים
##יחתו
שנשתמש
שהבית
התג
הל"מ
יתור
##פשרו
סנחריב
##4c
וכופין
שנתרצה
דשבות
תוכות
קל"ז
##לוגתייהו
##צותו
מנהגא
הרחב
נעלה
וה"ט
מא"י
אסרי
דבההיא
באוכלין
שכחו
הדופן
נגנב
##כנזים
סוגית
כלומ'
להשתתף
שהוכחתי
לטומאת
יתרה
בדברו
לכרמלית
דכתובה
וגזרו
וחלקו
להר"מ
ודבריהם
לקחתי
ולהורות
העלייה
משתבע
העירו
קכט
כוונו
##פותו
בכבד
דחוקים
מרומז
פונ
##פשף
ניצול
משמים
בדינו
מתמיה
השומן
##גדולים
וכלומר
##xc
נתרפא
קנ"ז
עניו
ומתחיל
בכנ
וביר
תוכחה
ואפי"ה
בשוא
לארבע
ששימש
ומשב
הס'
##דליקו
טופח
שהנשים
נימו
וחק
הנק'
הסמוכים
ג"ע
##נועע
שגדול
מעובר
##עסקו
ומדי
דמבטל
כבודך
ומכיר
יתקע
ערכאות
ולהשכיר
##6s
##מרין
מעיל
במדינות
יוהכ"פ
לבחור
וכדאמרן
דמדק
לנדרים
דפשט
דעבדי
פסולו
מסתלק
כשנכנס
פית
ובחמ
עזב
שהחזיקו
תפיסתו
מפעפע
במזונותיה
שנפסק
לדבק
נתקשה
ביישוב
בחירה
מידות
ילמוד
מחוסרי
ועש
דמנא
החמורה
ותמיד
דמספק
מפא
דהוצרך
שבוע'
דאעפ"י
ולפירוש
לשטת
וחבר
בקולו
נאכלת
התור
הצבי
רובי
אנפי
זע"ז
##חילה
בענן
הכירה
שחורה
במליחה
בטהרות
שממ
בסחורה
במוסף
בסברת
תקעו
והר"י
סוב
שהאיש
נקובה
##פכת
לאצטרופי
לחמו
וקרבן
השערים
##0h
ליהושע
התודה
דתנו
ומקשים
44
י"ש
דרח
לתקוני
תשר
מאם
הניחה
שבארץ
כמותה
כיסו
ולהרמב"ם
בחותמיו
עיו
שהיינו
וגוף
לישה
דשוה
מיימוניות
מכרתי
מחליף
לעבדים
המשכת
כשהגיע
הנצ
וקונה
לטור
##געו
והכ"מ
לשריפה
תוציא
תלויים
##4s
בהוראה
והמנהג
וסר
העמודים
ולוקה
יגרום
43
לפקדון
דכרין
כמובא
דקטנה
לתקנת
ואיזו
הגהה
גבריאל
דסלקא
השאיל
לחומה
ממנין
ובשטר
שילכו
לבכור
כדפריש
דבדרבנן
שנדחק
יה"כ
ערלים
##צב"א
לצרכו
עישור
כחול
ולקרות
יחידאה
והלו
הפרוכת
עצת
דהאיך
##ash
המכשיר
דגרע
להעשות
להיטיב
##וקש
לחה
אהלות
וצא
##צרן
כבודם
שפשע
וכמעט
מתרומת
##דקק
סומכוס
בשרץ
שבתחלה
תמ"ז
##ריחו
בשעיר
להטמין
בשומא
ארבה
ייחוד
שנבאר
##6g
המ"ב
לדב
הקץ
מימין
קנט
גזול
הקהלות
השעורים
עוסקת
##tv
חנניא
נפשייהו
קציצה
דאישת
הווה
בנקל
פעמיים
חמישית
סד"ה
מהפוסקים
##f7
מעושה
קאמ'
הוספה
##עה"מ
##נותיה
בלשונם
תקרב
המרכבה
הפקעת
יכולתי
##n3
דהמוכר
המופלא
מתייח
##מזו
לק"ש
כשראה
שמחוייב
והמצות
בפה"ג
##b1
לר"ג
כמכר
בשן
שטבל
##מטיא
##יאים
האוסרים
דזמרה
הבחנה
בצאת
לכתבו
##יתאה
ועדות
בדב
ונחתם
לאביהם
הצואה
להשיבו
##ויו
הספרא
קמ"ו
וצונו
פחת
להנחיל
ומאז
##ואף
שהרגו
##דיוט
שמעשה
##סתרות
הזריקה
יביע
קביעת
##דנו
דלס
הוכחת
##ציאתה
יישב
החתם
ביה"כ
50
ומזוזה
הצור
דוי
נחה
לימד
the
##פסלה
והנפש
גורסין
גרושין
תובעין
לחטוא
##ניק
כימי
ששכרו
טליתו
מחלקין
המכ
##פוטרו
להכניסו
שנדפס
##rp
שנבלע
ובאים
##עד"נ
##פ"ל
הקושי'
מעי"ט
כחר
לקבורה
חביבה
אריות
##י"ן
מיו"ט
חיד"א
##טוח
ממזרח
ונמ
כמוני
הגלגלים
מחולי
בגנב
##ינותי
לחודה
בשבועתו
החטאים
סברו
בפאה
בעצמי
##טירו
##מונות
אלעאי
הבק
יעסוק
מילוי
##צטרכו
הגבורות
משתמרת
שזר
##חסות
ישיג
לחרוש
וקדם
לכלים
מבוררת
##lc
תמור
באוהל
##חמם
אדמת
למאירי
##מעה
החוצה
אפרוח
יסמוך
מתיירא
כמתנה
חיבת
בשבע
וסוכה
הלומד
פוחתין
דורא
עילוי
##תחילת
פוטרו
מוליכין
וסוד
גוב
וגרע
##זיקים
ויעויין
##נטו
והחי
וישבע
שתיית
לצרכי
האגור
מודעה
זיעה
יוב
##דד
##בלן
מזוני
שכרם
תניי
##xq
בעיין
ונתבאר
##כ"ט
שיתח
פירשנו
##טרוף
זריזין
נתפ
נוכח
אורחות
##כנה"ג
מדאוריתא
השורה
כגופו
שאסרה
מהתוספתא
ודיני
האחרונות
כשחו
בישל
##חזיק
בקטנות
כשנתן
ויכל
שטף
יפנה
אפי"ה
בחפ
הפלא
נפגם
דהלוקח
ובגל
המועדים
בצור
דרכיך
כגר
ככרות
ושיטת
דכס
ולתקן
השקול
רנ"ג
לאבותינו
בכפר
קרויה
הט'
ויקבל
שמנים
קיבלה
חוצצין
מזק
כחצר
תתנו
אצבעותיו
כבהמה
##ידשו
##נוניא
הגדיש
ונתב
לכיס
ארז
ניקבה
למילתיה
ברד
מאריה
בארצות
הבוקר
דכת
דעבודה
נפדה
##קשי'
חעלמא
המהרש"ל
##f9
אפיק
##קנויי
אצבעו
למיהדר
העתק
##רוהו
שלאח
פשטות
עמוקה
דאכיל
ולקולא
תשיעי
משתת
משלהם
ובלתי
והשבתי
לאהל
הבירה
תשעים
הבירור
##להבת
##ij
דהברייתא
דמידי
הקמה
תרנגול
הארוס
נשתקע
כפירושו
מיתוקמא
##n7
מתגבר
לגרוע
היסודות
to
המכש
נהורא
כפלים
שנמסר
מוכרחין
##לימוד
ומכניס
ומפרק
##ליפי
בקליפה
סביבות
דטהרות
מכילת
##טהורים
כבודה
ביראת
מחשבין
##8s
##רהם
הפכים
המסירה
הספרדים
שה"ס
כשרוצה
בידן
ענות
##קוקה
קלד
שהאמת
ונורא
נפלאה
המאסף
מצבה
לישיבה
גרסת
ופלתי
דשה
##פיץ
במומר
תשביתו
מהשם
ולמען
ולהניח
דהמש
##צונם
##חתמו
רחבו
דכהנים
##5h
בקרי
מכא
מגז
החמשים
כנהוג
ברקיע
אזלי'
לסנהדרין
דלהר
אחדשה"ט
##מראית
אע"פי
החזירה
הסברות
תבעה
תפרע
ממקומה
מוקפת
ושו"ר
נסתלקה
הארו
דמפיק
מפלג
בסה"מ
##זורי
##a2
שמוסיף
נגרר
דאמוראי
הב"ע
הנודע
משלשים
זוטרתא
לשקול
מלפ
מתאוה
הסוחרים
##יגול
מהרי"א
להבל
שהישראל
שושב
והספק
הפ'
שגירש
לדוכן
חרישה
##מר'
שבקש
לשח
והעולם
זיכה
תיא
##פז
שבצד
ועשאו
##וננות
דרכנו
אנד
המסור
עסיק
>)
נשבעה
הוראות
בבשרה
זוחלין
שולחנו
כתרי
ישארו
התור'
בסייף
הראות
##גר"א
מודר
##לוניקי
פתיחה
צמיד
למלאכת
מעיו
לביתה
מחשיב
ותבין
שבן
מפי'
בהגעלה
טיבו
יכש
ישהה
מהמו
##דווג
ומכו
העראה
##סתות
המקרים
בתבואה
כהלכתו
המשאיל
ממלאכת
מבניו
בי"ת
מיוחס
ונאסר
לבחי'
וארבעים
ישיר
מתור
ההכר
עמק
ומודים
ודגים
##וררין
מקיימים
ומגרש
במצב
בתיקון
ובהו
בהיכא
לגירסת
עמוני
זב"צ
מציאותו
לכותי
דחמרא
ספ"ק
להטיף
הדרת
ושומר
נופלים
ייחד
ושבח
אחית
ויפטר
שגורם
יי"נ
הערי
בדיניהם
כאשתו
שנאנסה
תקרובת
נמשכין
##יליד
##מהו
הגפנים
רצונם
המגדל
ליסוד
דקודשא
תחול
גוביינא
מליקה
במהדורא
הלום
החיל
דלדידי'
##mj
מחצ
יוסיפו
##ירתת
קנינים
ליקוט
אראה
ומקו
##שותיו
פתרון
למרחוק
45
##תת
קמ"ט
##f2
לחס
מודיע
ובפי'
ותמהו
קברי
רפה
##יבתו
שגוף
שררה
בשאלת
הביצים
עילויה
##נקין
משנתו
בחסרון
הצפון
##גדי
ויבן
התפלות
גיטי
לאורך
הביאם
במודה
לאדון
דע"מ
כרכים
בי"ג
תמכור
##ולא
##מ"ס
והפריש
מלש
דפוסל
זיי
לשמרו
שאותן
לקה
אחריהן
מטל
תירוש
##עתיקו
לשמר
##כבין
הנטילה
לאט
היריעה
##טוינו
להרחיב
שנכנסה
זיכ
לש"ש
דל"ג
שיתחיל
השייכים
הקדימו
וכדלעיל
שגו
דידך
גימ
##חורות
שממנה
חוזק
יסד
שבלע
שלקחה
להעלותו
בקובץ
השוב
שמירתו
הכרובים
דעתן
אכולהו
תלמודיים
במצותיו
מהלכין
##lq
לתי'
זוז"ג
הטריפה
יסכימו
בערבית
וקיום
רווח
תלתין
אסון
אודיע
פיאה
רביה
הל"ת
לש"ס
לנשיא
למגזר
השובר
לדחותו
ונחזור
שמונח
מודדין
ס"י
##גגת
לסיפא
##זיז
ולולא
##3h
##xk
כתובין
כשאנו
בתחתונים
שולטת
לצלות
##n2
לא"ה
החברה
מקדושת
סמא
שחוץ
##ונן
##טולי
דהיתרא
אוסיף
הבאנו
האוצר
קורבה
במלחמת
יפו
מכהן
תבנית
וכדמסיק
וגיד
##כבות
ללקט
##lw
לבריא
ונותר
דחזר
והרוח
ועונש
בל"ז
זכא
לאגרא
קרובות
הלוך
גרוגרות
שינת
הישראלי
המקובל
ינוח
רחמיו
מהברייתא
דביקות
ושלם
תשס
המהרי"ק
אגדות
בשוקא
קבול
##כנז
דשר
מהפך
יעוי"ש
רמזו
ראהו
מדפריך
נקטיה
מכולן
הרש"ש
לקלקל
לגנוב
כנענית
דכוותיה
לארעא
ולבי
חתנות
קוראין
שציין
למדוד
משתמשים
האוכלין
טיפת
יטל
##א"ף
הנמכר
הכשיר
וקידש
בניכם
##בולה
##מקא
למטעי
מירושלים
לנער
ברשותה
העלין
הטמנה
שתלד
גזבר
מזוזות
עש"ך
שהארכתי
##פרדו
העובדי
באזני
דחס
ליו"ט
##חשיב
ואזל
זכרנו
מפירוש
אמם
מסוכנת
שזור
##רנו
מופק
שהקשינו
דנקטינן
לחלוחית
פטרה
הנצח
בכ"ד
##דהו
ויצו
##1h
##פקפק
בנזקי
רוד
כשמב
יאמינו
דלהוי
לשכינה
והרח
קהת
אסירא
המסדר
דבוקה
טעי
רגליהם
מחייבינן
##זרוק
לערך
התפיסה
ונמש
לדידך
דפאה
תתע
חקי
בפר'
קיצר
צע"ג
##בראשונה
בטלין
מעורבין
אסיקנא
##מקור
עה"ת
קמשמע
לאינו
אמתי
מושג
כוש
היורד
בבקעה
וליישב
תיח
##חתרת
משלמים
ימיה
ומילה
הניתן
מישרים
כהרי"ף
##גייא
דתוך
הגבר
מחלקים
ההדיוט
כמו"ש
קדשך
הפוסקי'
קיז
הרועה
לרופא
מחיר
לשלול
שבמקדש
במלתא
ליטמא
נ"נ
בחלוקה
זוגות
כהנ"ל
מיושבת
שקדשה
דתמן
לגיטין
בהרמב"ם
בחרטה
ממים
מלואים
ופלא
##צליח
ושום
שממה
##מעין
נסתפקו
##גמת
הרישא
הגליון
##8g
להדר
שהכרי
בגיהנם
בטובה
שיקבלו
זווג
דעובדא
מנר
סיפר
##רער
##פכין
##19
##חרור
אהבתו
יאה
להירושלמי
ונמלך
מבול
לניזק
בהקדמת
ועצם
בפמ"ג
מיג
מסרה
דזכה
עבודתם
להגדיל
לבבי
##בורר
לפניכם
מיתר
ומוסר
כפשוט
היוצאין
בחבורו
דהמת
הרחוק
לדרב
מצווים
השגות
וגבורה
ליו"ד
##כ"ל
##לומות
>"</
לתפילין
בצדה
##וסי
ליפות
שיעברו
הספקות
בגמר'
בוכה
שמוציאין
נבר
האיל
ואטו
יבאר
##לתיה
גטין
קנג
קופות
##צהרים
בכיוצא
וכע
לשלא
במשניות
והב"ש
וכותבין
מאחוריו
שסי
##כ"מ
##סורו
שבארתי
דמסתפינא
הקיץ
ועושים
וימות
זז
##73
##4h
לגזלן
מגעת
המתירין
וחזינן
דקרוב
מתחלתו
מכילתין
##ורס
ועור
דחקו
משתמשין
עוזר
##ריוח
48
זתים
ישכון
##יטמא
מטעמים
מיימון
להשליך
##חדו
הממשלה
שכור
שחתם
המשיב
בצק
החיבור
ונפשו
בגופן
אסף
סותרת
מתוקמא
##כינא
מבינים
ומובא
לפדותה
ההשגה
ששלחו
מע"ז
בתם
בשעתא
ומרו
שופרות
נדוני
קניית
משיבין
בביאורו
##6h
משאו
שהמצוה
פב"פ
נתה
להקנותו
##tm
דאשר
בטלי
שיבאו
הבכורים
כללית
נשרו
כשעורה
כפשטא
כוי
הכרס
בכתובים
להשבע
שסמכו
ספראי
לזונה
ישלים
שנבראו
ובאיזה
##n9
##מחי
##מה"ח
באנשים
הענוה
ששיעור
נסיון
מיראה
אשורית
שיריים
למס'
להפריד
יהוד'
דעולה
נטיעה
שהכהנים
##xw
##פקל
לקברו
##ה"ש
דדבריו
##ברנו
מאיסורי
ואנוהו
בפשוטו
##פאו
נקיבה
לאונס
##פוני
מפקיר
בנקיטת
דכבוד
יאבדו
לחו"ל
שהז"ג
במוקצה
דאיתרע
מרה"י
שנצטוו
##ויא
לקטנים
להד"ם
המנוח
דחיישי'
כרבן
לצו
##פדה
##רא"י
דבע"ח
למשקל
תתקיים
ארוס
##משא
ידיעתו
##פולא
אדידיה
יגרשנה
##v3
עזרי
ומקור
##pm
##וה"ר
ונדר
ימיך
אקב
##חתים
נוגעת
של"ד
בחמור
##פויי
##יע'
בחצרו
בבין
ומשמש
כבודי
קצרתי
##קוע
החליף
ליג
לבישה
וחוזרין
שכולל
עמוקים
שמלאכתו
בקריאה
יכלה
##יכום
מפנין
יתפרש
שכלה
##דעת
ועובד
##פהו
והדרא
אהאי
עש"ה
##צבעות
בעינו
למידין
ודריש
ותנאי
##aaaaaaaaaaaaaaaaaaaaaaaaaaaaaaaa
##kw
##צירות
וחיי
ברובו
והמעשה
שיתוף
##תחייבות
מודד
דמשק
יכנוס
הכעס
ושטיפה
להתלמד
לגבייהו
ונראין
סתימת
וקצרתי
לתפור
זוהי
פלוגתת
לכלום
הסתר
אוכלי
העמידה
##גיס
מ"כ
עלוי
להלוך
היך
זוזא
ופחד
באחרית
תנה
כיפר
שווי
מנכה
בשליחותו
ללבן
ענייני
פירושה
##1q
##ליצת
הנקבה
נבעלתי
בעבורו
ונית
##בדם
השו"ב
בהבנת
מחולל
הסירכא
דבאין
לאם
מקדוש
##יימי
החורף
והיותר
להתיישב
במטבע
בליש
בנזקין
להגב
הדינר
חנויות
ומגדל
ובשא
##יקתו
ירע
##קיה
דביש
בקידושי
שבאדם
שהיד
הסיפא
וקים
להתגבר
ופוסל
נגז
אכילתן
##וארה
משיחה
הראייה
אההיא
בגו"א
מעליהם
עומדות
סוגיין
האמירה
דחליצה
מספרי
שדם
בקמח
##קבילות
לנעול
השמיע
ד"ט
קריא
ונהנה
##efer
לפ"מ
לפרי
לחות
הריבית
מבא
מפקיד
נלפע"ד
מוסי
מכריז
דבצ
נפטרו
לשאינו
שמעתין
ואנדרוגינוס
המלחמות
##יבעי'
הפשרה
בצנעא
דהמלוה
שיגמור
בא"ה
המקריב
היקשא
וכסברת
החום
אכפת
להעבירו
מפירש"י
והודיע
דיכולין
להוראה
הגרגרת
כמוציא
סמיכות
ג"י
לבק
הקיבה
ב"
##חסת
הפגם
##זכרות
באמירת
למלוח
החשך
שע"פ
וישן
יאש
דמקואות
הכש
##מבד
וחולין
עממין
באורח
ימא
מזרעו
וכונת
דאיבעיא
השלחין
תיפתר
המוקדם
ענ"ד
##שמה
לגדולה
שובו
דכותבין
אוש
שנאמרה
ברביעי
האחדות
##יבוי
הוכשר
לסוח
49
קאמינא
אילונית
החזקות
##גולה
46
##זנים
ישמר
העבודות
##ורדת
במלקות
חצאי
דידו
מרווח
ור"נ
כרשב"א
חביריו
איין
מע"ל
ארס
שרוי
##22
התאו
ונחת
##פקוד
נאמנה
דבורא
וגמרא
שרשי
שמסיים
יונים
בעתו
בדינים
בביתך
בתרגום
להלכות
במכת
בתקנה
דמיחזי
תרעומת
האויבים
בתו"כ
שותפו
יטמאו
להטביל
חרשת
שאחרים
בהוראת
ליוחסין
שהנשמה
לאומות
שחטה
מילואים
תשב"ץ
ונז
הצריכים
ניל
תגבה
כעומד
י"נ
מרומה
המלכה
הירך
הרמ"ך
ככתב
ונתבטל
לכשר
מעלים
##xr
וכשמת
התקיעות
אמתת
שכולה
דחינן
##עדה
וחוש
למחלוקת
נברך
קנח
בחש
##פשטן
בקוביא
השוא
קעז
בעובי
קצב
ססי'
החקירה
פריעת
ופרש
יפריש
##09
##מזיד
בהגבהה
להגן
חיותא
יעידו
sefer
##עונים
##שמיות
##רס
לאבל
דמצא
הנרא
אלמנות
בסוריא
עשינו
החוטם
##ba
##נ"ו
ומוספין
##ריעות
פרטית
סגור
הרצועה
שהתה
בהרב
וגט
##אה"ע
שמחייב
בחתימת
למידרש
כרותח
גבן
רצועות
ליבמה
מעכשו
ובבא
מעשות
דמסיים
סוגי'
פזי
ישמור
לתפילה
אבותיכם
דבגט
דאזל
##טיג
חילוף
שובה
##17
וכלאי
יכניס
ויצר
משתלם
נוב"י
מדקדקין
##חרי
מסתכל
העוברים
ניכרים
##וחה
וחמץ
##רשם
בגזירה
ונוהג
תוקע
דבלשון
חורב
ובתשובות
הבחינה
תדבר
הנולדים
##כימה
נחשדו
וחות
פי"ט
##טבילה
המתה
קל"ו
ועמו
בנשואין
##ודית
ונולד
החובות
שנחקרה
נקיה
השומעים
##ושעים
בגג
ותכלית
הנוקבא
לתובעו
##ו"ד
מעידה
##שלין
סול
שנקט
ברואה
שמוכח
ללילה
ואיצטריך
שגזר
עקירת
גנות
הנדור
בשאל
##מבטי
דיוכל
כעושה
זדון
##שלה
##גתם
בחצירו
טומנין
והמא
הגורן
החבי"ב
להיש
##וסרת
בששה
בשבתא
תרס
ולקחתם
ניחוח
ואינהו
לוגמיו
ואראה
שחורים
שקרוב
דתקון
ינח
סות
ושורש
המוקד
שנחשב
למני
מעבודה
ויצטרך
וישלם
דנחית
הפרקים
בבדיקת
ערלתו
##וקץ
נגא
##לויה
דרגין
ולהי
##בירם
סק"י
חפר
##i4
האצילות
כששמע
הנמצאות
##צחים
מהדדי
הר"נ
לידון
##כ"ב
ובעד
לכשא
כשדים
מסהדי
ימכרו
ויחר
כרוך
ועב
ושינה
פסיל
חכמות
המבטל
##גודדו
העונות
לישת
##מעאלים
לשעבוד
לראשונה
ומדקאמר
הנמוק"י
בכנה"ג
##טיפת
מוכרים
ממשכנין
##מועי'
קליפת
גמי
ומרא
המדו
ובמרדכי
ולבונה
המוכיח
מנהגו
עמיה
באינה
דמתא
לידים
##מדד
ותמיהני
ממשל
לנדה
##כסי'
העניין
האסורה
לאלפים
הצוואה
mit
##קס
והכהן
מהצד
דבסי'
ברייתות
חמורו
יכסה
הבתולה
##89
דהלוה
קפ"ז
וליתני
במיני
מאברהם
דשקלים
נפטרה
בדוד
ושמונה
יחפוץ
בתנו
נסמוך
ובדעת
העתידה
נתקיימה
אמיד
##וה"ת
לקשור
במחשבת
שלהבת
העניינים
המפטיר
תקצ
למיתלי
להושיב
בהדה
משו"פ
##ביש
חשק
דנהגו
שהלוהו
##סתכלות
דצי
בעזר
נחמד
דיורין
מהתוס'
וללמד
הבשמים
מנהגים
האמורות
אדר'
##פותיקי
בארוסה
תרב
דקרו
דאמירה
ומכה
שטרותיו
ואבנים
דנות
המכילתא
למעות
שחורות
בטוש"ע
ופרח
מבלע
##nf
בהרגשה
מתירא
לתיקון
##8h
ושליח
וניתן
שנשאה
לפטרו
לשבר
לשתיה
פריצות
ועומדים
לטובתו
ד"ח
והמשנה
משרי
לחדר
החושך
תפיל
נל
בתלמיד
נשיאה
חילוקים
המטות
כוח
גורמים
יטלו
אכי"ר
בבנו
##6c
להפסידה
##רוגה
##פרעו
ולמו
##נב"י
שיביאו
שמתחייב
בהקפה
יריעות
דמפק
ושלחו
ומפורסם
##שיבות
קצ"ח
דקאמרינן
בורח
יותן
בסכנה
דריסה
ועלו
##פסים
לדמותו
קטניות
דקדשים
שחות
ואומרו
אגוז
סופן
שהחמיר
בעצים
בפי"ב
בנטילת
דקס"ד
יבינו
צרפת
תתגרש
שמשי
לקריאת
##סתמו
##zvot
נשתעבדו
והולכים
##תארמלה
מיגאש
##29
##לימא
כרשות
כמשה
ביי
שישוב
שהעמיד
הגחלים
די"ט
המקיים
באקראי
דמהא
דבשטר
דל"ק
בדרוש
דקפיד
צמחים
ויעלה
ובאשר
mitzvot
וטל
עדי'
דיינא
והרגו
אחאי
הזול
שאלמלא
קס"ט
להשהותו
ההעדר
אתרו
וזכור
דתפילין
יורשת
##0q
##טעמים
##וריו
סוגיות
כשומר
##ובדה
שכלל
גיי
זמנם
ננ
ק"צ
הארבעה
הכפרה
לחתן
תרם
המעור
שמכל
שנטלו
בנפשות
אחיהם
ולקדש
עבדה
בנותיו
דבעו
שנעלם
לקושיא
שגבו
נדבק
במקו'
מניעה
קס"א
##תחוו
תורות
לעצים
בתנחומא
מדמ
ורבי'
בעצמותו
שזכרתי
וחתם
חלצה
ולכאו'
מכשירי
ככסף
##דעים
אוף
מבנות
לזריעה
צלול
דאורחא
עיקרי
לדידה
והק'
שסבר
לקרותה
ובט"ז
דסימן
כפה
דבהאי
ההיקש
ותרומת
כתמים
להביאם
שיקדש
יורשיה
ופה
מעשיה
##מותיו
בשלמים
המאיר
הדבוק
תהיינה
וכדמפרש
דמלא
בפרטות
אונ
כשהמ
##סיס
חטאנו
תשבו
היתום
מארבעה
אבוא
ספקות
קוצים
תבואת
##נקסו
כמתקן
##גריס
##yz
ראב"ן
התיבות
טעונים
שחוש
והפר"ח
ביק
##קשר
מאמרו
כשפופרת
##בתה
שהונ
קדמון
והר"ב
##פחתה
דאלמנה
וזבחת
##כט
##3g
מקיפין
קנייה
משמיע
דמדין
אפרו
דשמעון
המקל
שובך
במיוחד
לחכמי
שכ"א
דמיתה
ערומים
דצריכין
בכוונתו
המותרים
טורי
מכללו
שאותם
היסורין
שתעלה
מהדברים
מנהון
צל"ע
יוע
דעני
עתיק
אמוראים
בנתן
כפרים
דאותה
##וריתא
לפרשת
המיגו
ומלקות
ההנחה
ויחזיר
בגלגל
##6q
שאל"כ
בעונות
גגות
היראים
מקומם
כנגדם
דנן
##יותיו
בצמר
דיהי'
שמקשה
ומטר
לעונש
##פונות
##ללה
שמתחילה
ודמיא
שיורה
ששתי
##בעון
בה"מ
בידיהם
הסופרים
##7g
לאזהרת
##קשט
##נגולים
##n5
המעין
ביצחק
מראשו
ושבט
ששתה
בשבילם
ובערב
כהתוס'
יתורץ
מצוין
לקונה
קהלות
המפורשים
שהוכחנו
ליקרב
אוקמה
המוקצה
מי"ט
##חקין
שרירא
לע"ל
שי"ן
ומחלק
לשלמה
קשורים
ממרים
##בואה
בפלוגת
##ערמה
אהלים
תפתח
בהרשאה
והשו"ע
שמנונית
##עוס
כשפ
מתהפך
נשרפו
ב"ן
##ידר
שעירי
לכתיבה
כמוהר
דרשב"א
שע"ז
בקצה"ח
השלמת
ניטלה
##דקי
##לוב
ובהם
כחל
בסידור
פטירתו
במדרגה
דבדין
העשיה
דתפיס
מפליט
חתימתו
וירושלים
##קינו
ובמר
הנבלה
##חררה
במוציא
ספקו
זכיות
שבעין
מעץ
מתשלומין
דרגל
שמעיה
ומאכיל
כראב"י
חלא
שבשבת
לבתי
החוש
לס"ד
גמורות
שתוקי
דמיהם
47
רגמ"ה
בערבות
דמרבינן
לפדיון
נקנין
מזוג
שיחין
והחכם
דוק'
זרוק
שרוח
טובו
כיל
##קוב
מתחלק
נבחר
דלוי
##בדלים
משלמת
עונשו
הבטחה
##דתו
ברורות
הדיעות
מיצר
מפקפק
אדעתי'
חמים
המזלות
צומת
וזרקו
אתמה
וישתה
ארזים
מאירה
ושארי
איברי
דצר
>*</
ריקנית
עציץ
לולד
ולצאת
לחזקת
הזית
וריח
##j9
ראויות
יודעי
הנעשים
זכרי
שלמדנו
להועיל
לטעמייהו
מדריגת
שהיית
ששטר
ארעי
ואיזהו
וביקש
דקנו
##חוטה
וסמכו
ארחות
וכההיא
כלבים
וקיב
ורשב"ם
המטמא
מעדות
תפלתי
##lp
בשטרא
שכשר
ממות
משמטת
בשתיהן
האמצעית
גידין
יסורים
דבעת
לשלמים
וקבע
איתקש
מחלקת
פתוחים
##יעורין
ומתיר
גומרין
נ"ש
בצמצום
מברכות
העליונות
שיאכלו
טלי
תחיית
המזו
בחב
דיניה
בזכותו
דמחויב
מורינו
חטאה
##מוי
ורמב"ן
זומא
גופם
בשמעתא
מבעיר
הדבקים
יכירו
וסתות
נאנסתי
מועדי
פצ
קצוות
העוה"ז
ורדים
כאומרו
##7s
##קצאי
##יטע
תשק
והעם
בבינה
##קדירה
להעמידה
רצונה
וימי
לרעהו
זכירה
עירה
ובנותיו
ור"ה
להתרפא
חזקתה
בשומע
לכאו'
תמהתי
שנתחדש
ד"ו
##יעם
הזוה"ק
ארצו
טרחו
מוחזקין
קבורת
hid
ייר
הרצפה
מתרצים
תובעים
שימכור
דפרכינן
שהוכיחו
שמיעת
מסוי
שיעיד
יגיעו
פוסלים
משותף
##2h
הרחוקים
בכללות
##פלגה
##יותה
בפסולי
##יטבול
שבמש
##כותו
פרצ
אחינו
ותתן
כנדון
אר"א
מוציאו
שיחזרו
שמכיון
דדרש
לשרת
פ"מ
##פ"ת
בתרומות
בסמ
שהואיל
ושמעו
כהש
##גימה
נראו
מוזכר
קל"ח
מרבים
ומפי
##נסא
הפלאה
כשהע
##ריז
והשי"ת
החפצא
כשנותן
המקבלים
בצנעה
יפחות
נפקד
זזה
ולרא
להקיף
ולדינא
נכתבה
##יונה
ולרבא
מצטרפי
##ונית
תקיף
ודעמיה
התימה
##ירותי
כחץ
מסופר
לבלי
##מוט
##תוחות
וביבמות
בכסא
כשיח
ועוג
הבדים
מחכמי
הדפנות
כמוש"כ
##ופי'
באלכסון
דמצריך
החמיש
רועי
ומהר"י
בחמי
ותיכף
נשתתפו
תלוים
העתיקו
איצטרך
כדקיי
יאריך
נתבטלו
העבריה
לקדוש
בבטן
סוכת
##8c
ואתן
דאסרו
המטב
בחומץ
דפירות
ט"ע
לוין
דשעבוד
תרח
עבדיך
קירוב
משכנו
שסוף
שלישים
הנחל
ושתו
נהנית
חפשי
מהשתא
מדויק
צאו
##ez
מקשו
דברכה
וחזי
ויעידו
ואבן
##יניים
דנדון
בפרעון
סי"ב
לחים
דחבריה
כשהי'
חושבים
##טפין
##ישבה
בנע
בהיותה
בשמירת
וסברי
ח"נ
##דיים
בדידיה
גרירה
שלב"ל
##יכל
החוטין
במאירי
כער
מיעקב
##vm
וכבד
בג"ש
שכיבה
יהוסף
אעלה
המצו
פסיעות
דשן
מהווה
##ריסין
ועז"א
השריפה
זבול
מיישב
שנתכוון
נוקבא
##נויים
הסימנין
##עג
מקדשה
שעדין
ויתי
בתולות
זריז
ירדתי
##i9
רוע
לקרן
ושחטו
יחייב
מכחישים
##b5
דלל
וסמוך
המוכן
צדין
ושוין
איתר
בסאה
הנוהגים
החוק
קפדינן
בהבל
שרד
לשנותו
גיסו
הצרעת
##יננה
לאמתו
שבור
רחמיך
לריח
פשר
##oz
לאוי
במערכת
באתר
שו"ב
למשכון
היתירא
וכצ"ל
גביא
צניעות
##6x
בש"א
קמיצה
מבעי'
##פותח
חלוץ
עורב
##ירוסין
ובחולין
תנועה
אזוב
המקראות
המתעסק
ענינא
##--
שהולד
אומרם
בפה"ע
שנקרע
במט
הכניסו
##שתיה
אהדר
ויכולין
הצלמים
ועפר
טועים
דתע
##כריז
גילו
וי'
לזל
המטר
דחייבי
הגרעק"א
ולפ"ד
נבואתו
תלויות
הרחבה
השגיח
אסורא
כרחם
יפטור
לאוכלן
לנקבה
כדילפינן
טא
המית
מחלוקות
סלת
##טענת
הארכנו
מומחים
##כונת
דברנו
מגין
הין
ביצת
וכלשון
יחידה
פתחא
קע"ז
אגוזים
ממצ
השלש
שהשני
##דית
##יאוש
בחמישי
כתובו
ירדה
לאומרה
##49
המזל
מעכבים
לקושית
##וגר
חסדי
שבחצר
ואה"נ
האף
בעגלה
יערב
האל"ף
דרשאי
לגאולה
הצריכה
יקב
מהרא"ש
הסולם
המוספין
בהדחה
עיקור
##וחים
לשכירות
יצל
מאכלים
דאייתי
קומתו
קע"ה
באבידה
ורישא
שיגבה
##i0
מימים
הורד
לנידון
להכותו
ונטלו
למיפשט
##פוג
כספק
משתל
##ד"ח
וחצר
אמא
דשבועת
הדליק
שלומד
מפסדת
והתא
חיישי
נתפרש
דחולק
גסות
אונא
##ירושל'
קכא
שהורי
הרמ"ע
ברייתו
ומרי
קרעו
מורד
##ushim
hidushim
למכרה
דומי'
ויוה"כ
שלימים
והגהות
ידברו
לנסך
וכתובים
ה"ס
ומדא
להחזירם
פחתו
וכשיש
מלוח
גרה
##לאן
והורה
וע"א
וגרושה
שישלח
במרחץ
להמיתו
קריעת
ואהבה
ורחבה
וחילוק
דהאב
היוצר
להתפרנס
##נהגת
לזולתו
דמש"כ
בירא
שהזהיר
הגמל
יהוש
היאוש
הסי'
הכללים
וראשו
כנז"ל
כבא
עיניכם
##זבו
מחתא
בחתו
##חדים
בצינעא
כדפרש"י
טבילתה
##ורבה
##קטיר
השכלי
הסוגי'
לכבס
לאיתויי
כטו
במותו
במעלות
ושפחה
דד'
ליתנהו
תרצו
הנאמן
אויביך
דאוקימנא
##7h
ודח
לתל
נתו
מהבית
בחזרת
והלשון
תשיג
ויצהר
שדייק
##קלף
מוכיחים
דמסתברא
כר"ה
תתגודדו
חמורות
איבד
ולראות
זכרונות
קרק
שבשו
וברכו
מדרגת
##צעק
צוקר
##ציע
הכ"ד
ראיתם
ליחד
קערה
##t2
שהדליק
למיטעי
עתידים
מחזקתו
נעוץ
ברוקה
וטהורה
תברא
ולבתר
דינרי
##יקף
כמדומה
בחקירות
חוקה
##מוהו
ומול
##נותם
##ופף
דמסברא
בהר"ן
כדרכן
אזוזי
כברי
##טוף
להכא
להנאתו
לסי'
ופוסק
בדרכיו
בכרך
בתרו
שרפה
וערבית
מהגאון
באכל
טובלת
רציחה
נטרפה
שעיקרו
הגה"ה
וש"פ
הגדולות
כמ'
##1c
בשכרו
שהקריב
בעליל
הפורש
לזרעו
##ד"ך
##פשוט
##צונים
ימינך
##נחו
דהולד
והמלך
וממון
ובברייתא
ופסוק
שמחמיר
הדקין
##פיצה
דמומר
בנתים
שי"ח
לשבור
##כלוהו
לעומר
הוזכרו
הפחת
חוליא
לשביעית
ודחינן
ליך
דחוץ
הפנאי
אמיתי
בצים
כהלכתה
הפוס'
הע"ה
ובאם
גילוח
##rm
##ידון
כשמח
חליצת
והדם
הכנסה
הגת
וספרי
תבואות
כשאוכל
##זבון
לנהר
וחפץ
שיעורים
בהוצאת
תמצי
ובנתיב
תגלה
##עלן
קע"ח
##פיהן
החביות
קמ"ה
והערכה
באג
נקודת
להסכים
לאינשי
##n0
##1l
דאנא
ראב"ע
דיסוד
והחכמה
דדייני
אבריו
ושבו
נכרת
המועדות
##לדות
ישחט
העיק
##1k
בהדדי
לתלמוד
שהגדיל
ישפך
התקופה
וכדאמרי'
##נ"ע
אדלעיל
דמתרץ
מו'
##סמת
דמתחילה
##נעול
חרדל
שורף
רותחין
##3s
##חסים
שהשיא
והאוכל
##וליס
נסמך
בהגהה
##גולים
ינקה
דלוקין
מצער
לשתוק
דק'
ג"ז
טפה
##b4
ועכו"ם
הת"ק
כותלי
המזמור
במקורות
כתבוה
הרוגי
יעבירנו
ומדבר
שמטה
מכסין
והוק
דמצה
דבנו
בירו'
##קק
מקנין
יקל
הזקנה
52
ויהושע
בהגה"ה
דמלאכה
הקלקול
להקיש
להשתכר
לרה"י
ננס
##גיעה
##1x
דאפק
מו"ח
בעבדים
המרה
מצומצם
ולבנות
נאום
מהר"ח
שיל"מ
האמיתית
בבק
ובסמוך
פקיד
בפסיקתא
##טנו
שכפר
דדמיא
שרית
לידת
שנק'
לדי
##b0
הדרו
שיכלה
##גדות
הפרת
מוהל
דירחא
אפשרי
דתפס
פירוד
##סקין
נזקק
ובפ"נ
נ"ר
ופאה
ניסים
האופנים
##פירושו
קסח
שנגמרה
דרוסאי
וזרעו
יברכו
הנמוקי
דנט
דדבריהם
ומפר
פתחון
חבורות
כיחיד
הכ'
דלאביי
שגילה
קמיבעיא
קודמים
וקורה
חנון
דטבל
להודיענו
הקישא
מסכתא
שחשבו
ושונה
שאח"ז
##ושרים
##ורגמן
##כ"ח
שיבר
תאומים
דזימנין
במ"ר
ועדין
ממזרות
נבלת
##וסתה
בפ"ת
מדריגות
האפוטרופוס
דבכי
מסתימת
ולבן
השינה
נכתוב
דנחלקו
ארמית
ונקראת
מרגשת
למילה
בדידה
זלזול
ועתיד
שהמעשה
ומפק
בגת
וחתום
בנזק
ונושא
שעומדים
##b8
בעגל
הראב"ן
סג"ל
##tei
הנזקין
והצד
רבך
מסביב
מרחק
כשהח
שהבשר
דהשליח
ממלקות
נחסר
מזהיר
##פסיקא
קשין
ולשו
שביקש
המלקות
לחמם
מתת
כסבור
שנתקיים
##ואיו
וסיי
צוואה
לברא
ש"כ
##i2
במכירת
לשחוק
כגוף
ועופות
וחיים
כרע
מברכינן
נסתרה
מהפסוק
לכזית
עצות
פנימה
פתילה
עגולה
האמין
##שותפות
כרמו
חש"ו
העלים
ומקיים
##דליקין
המצניע
יזרע
##מניה
שהלו
##להים
החזו"א
פרנסת
שיפה
באהע"ז
מוגבל
דמי'
משרה
קסה
השגחתו
שלכל
##טענה
דיאמר
בזוחלין
שתיקן
כדפירשתי
בעילות
דאבות
החטה
והעולה
##מיתות
##עוררו
רמג
53
##ורון
במלה
שניטל
##חייהו
הנאמרים
עורף
דהתירא
##פתחו
הקט
##נסבא
##וגם
הנחלה
נכללים
הכנעני
אפיקור
מתעורר
תורים
##יש"ה
כונס
העזרי
לשכת
ביוהכ"פ
##נוד
השח
מדידיה
##מותם
שנתתי
ירמוז
והשלום
שטענו
נחתינן
בהספד
##רומם
שנסתלק
ופקדון
ושט
מלבן
לסי
ילפותא
ערוב
מוקד
##בירתה
שמותרת
מהלוה
דכלל
שהוחמו
מוחלין
בנשת
מתיחס
##icagicagicagicag
מעתיק
##ניהו
לקטנה
ממתין
##נינה
המכסה
לשפוט
##חרות
שיבואר
והניחה
בנגיעה
חידושו
##yo
לחשב
פרצה
יחש
פעלו
לארבעה
##ds
מנעו
הוכחנו
בשיטתו
דניהו
לטפל
ברחוב
הכהו
סרה
שחרב
שס"ה
והגוף
דטעה
חייהם
דגיד
##כסיה
לשלישי
ובמצות
##יסוד
המיוחדים
והרוטב
ומעו
העלאה
ימלוך
מד"א
ופחות
##קי"ל
הדוחק
להלוה
ובטלה
הנדרים
שרצונו
דהוכיח
הודאי
וולדות
שטבע
להנהיג
לוסיף
וחציה
##טרוניתא
בדרכים
מהבעל
זוה
ימעט
לעור
בקונטריס
ומעות
##חוות
ולבנה
##יוק
שנר
בגדו
וכמו"כ
פנוי'
מסביר
כשהש
בו'
בס"א
לבניך
##pj
לדעה
תחתיהם
בידיעת
פפי
החזקת
אגודות
##שוקה
וגזל
הזכרון
סבות
##פטרופוס
##ס"ל
דאיכ'
בעובר
וק"ק
כרים
באבני
המחמירים
שכ"ה
הקיר
##f5
רמ"ג
ומפיק
שמחזיק
##וסו
הדבק
דחדש
ממוש
##שועות
שהנו
בדרבה
השרשים
##משוך
כובד
##1w
ושמי
ולמכור
ורחמים
##4x
##מודה
ממיני
מיפלגי
מנכרי
ושו"ת
בהלכותיו
##b6
שתס
שקי
והאח
קעו
שהוציאוהו
וברא"ש
בקושי
יקריבו
חומרת
לדרשה
מתיבמת
##ינקת
דמקשינן
מריקה
##כילתין
מתחלל
לירושלם
לאג
האורות
##ליים
יבצר
תעזוב
בעה"ז
משולם
כהראב"ד
החשמל
המדרגה
יועילו
##ינתיה
שומרין
שנתעברה
וכמש"נ
דלימא
מדמינן
וסוגיא
טובלין
תהוי
##וחז
סי"א
וזוכה
צעקה
שהרי"ף
עבדין
תולש
המסת
למותר
מע"ג
חונן
מספקת
וזכו
דלר"ע
##זוזטרא
##מטת
##dg
##ניעו
חשובין
מהשני
פגומה
דחר
חרבן
יקדשו
ושיש
כדברים
דודו
שתביא
##פוה
##פולי
לבלוע
ומובן
צלפחד
הגואל
מהב"ע
בכפל
שהאחד
דבסוף
בריתו
אגיד
להרגיש
דפירוש
##פיך
לתקלה
##כפל
ושוטה
סיל
##רייהו
ואחות
הדרוש
ובעיר
כעפר
בנדבה
להדיח
מהקדש
בחלו
דבוקים
הקולות
ילפי
ובהדיא
לנה
##יקם
##מעאל
##בוץ
מנהגינו
המסורת
ועלי
ולמדו
קכו
שבלי
ומעל
ונפר
אלהות
תזכה
דברשות
##וקלין
דק"ש
בדעתם
ופסקה
שהמשנה
כדפירש"י
מזהירין
באשפה
השקלים
לשטרא
בנביאים
חלש
מחרי
בימיהם
כשהב
שיתבטל
שהולכים
##די'
וביטול
וענו
הלמ"ד
לרדוף
נדיב
##ודעה
יעוד
והגט
שמשך
ענוי
עדויות
דקידוש
דתורה
כשנעשה
ויכולים
בעדותן
דשכיחא
גוג
והגאונים
להתב
##יטתם
ושיהיה
שישים
מסברת
נאכלים
למצא
הישנה
השתדלות
##זוקי
החתום
ולהו
הפרטי
תחתיהן
##חיתות
כהרמב"ן
סעדיה
קחו
והות
שליא
שקלו
שגירשה
מדאיצטריך
פקועה
##a8
החמרי
ממשות
שטן
##uz
ותשובת
רע"ו
המול
בכא
שקדמה
גינה
אודי
##מקים
כורת
להחליט
מכב
בט"ע
##ויץ
ממלכות
בכ"ג
דהו"א
שיכיר
מגיעים
ובלב
לשלשים
##ותבינן
קמיע
הנסיון
נזהרין
דאפסיד
אהי"ה
דכלהו
תחנונים
בנד"ז
חכים
ומוה
שהוצרכו
מלומר
סלח
ומנח
מחיקה
מקר
ובדף
ואישת
ולזכות
נבה
שדרש
וה"א
דאקרי
בקונם
ולדברינו
האומדנא
##v9
##ירתם
דמזיק
הכנס
וחמישי
##מוהי
השעה"מ
המצב
מציון
בסבת
משרשיא
כמחצה
##רי"ו
והקטיר
ריצוי
גבורת
ליחייב
מצפון
הטי
בדידן
בתחל
קאים
גזיר
##יבתה
מדידה
פרחים
שע"כ
דתן
כקטן
שאוכלין
דכח
חספא
יוכיחו
##tj
שהפסיד
בערוה
ושכרו
60
מריב
הבאי
הכליות
##יגית
לאחלופי
כמספר
מינא
ואיתי
שלמא
בעצרת
שמינה
בחולו
וחביריו
שהאריכו
תמיהא
שבידינו
כבראשונה
דליש
דל"ב
בגדיהם
##ומרו
מנזיר
##קילה
מהצ
דביטול
נתרבה
וכלם
תחשוב
הנשיאים
ומערות
##כירי
מכללא
לאוסרו
איקלע
##יה"כ
וחולק
דנ"ל
##שוו
מסים
##טייל
##טריקון
##מטו
בחבור
דתקנת
##צייר
כדאמ'
דט"ס
שודא
דספרי
שפיכות
והגמרא
שנמלח
שהתחילו
דריב"ל
שיניו
שקלא
אישי
שטרך
ובמק
נמצינו
והיין
חיצון
כחלק
והבין
דהתוספות
וממנה
בשואל
בעובד
נכללו
משחק
שבשל
תפילתו
חקירות
עמיתך
##מזר
בעשור
וע"ק
##פסא
הניצוצות
רש'
##f0
והבר
שלטי
הורצה
השמיעה
וירושלמי
מסוכה
דראה
תמרי
וכפי'
העיקרי
ודוחה
##f8
דקרבן
גדולת
נסע
דטוען
ש"
שזרק
##זהירו
דכשרה
יצילנו
והזמן
##לעזר
שגדלו
עכו
בחופה
היושר
יעיין
מטלית
##כפרו
להבריח
שהפר
באגב
כמשמעות
והכלל
לקראתו
##vj
דשואל
חדתא
ותאכל
##חקור
צדקות
החפצים
היצירה
זבינא
פגימה
מפטירין
מי"ב
זבו
##a0
וליד
הגבה
ומוש
חמדת
##גט
ולישראל
לפש
יעכב
דפוטר
לוסתה
לד"ה
ז"ש
צותה
##דיל
והכו
חלתה
היל"ל
דמחילה
תטול
ממטלטלי
כאמרו
ונתינה
ענינם
מתיא
שלוק
שמוש
##יעד
היוקר
כתף
##רגש
בתוכן
מבטלים
שלפניה
כקש
בחדרי
כדדרשינן
ששמה
טהרתו
משחשיכה
שהרח
הגויה
שעמדה
כמה"ר
הוב
הכותים
מישאל
דמברכין
ההב
בכופר
גמרי
שבספר
בפתחי
ממשמעות
אנדרוגינוס
ופש
שהמעות
חזקים
המיל
דמסר
ושדה
##וגי'
וכדלקמן
ההדלקה
כסלו
והכניס
ההיפך
אפל
בחילוק
דרור
שעשיתי
דע"פ
במעכשיו
##ey
בעבודתו
כאין
##גגות
צדקיהו
והרא"ה
לאסרו
המסו
לחמור
והשנית
מהראשונים
בחמש
ורד
שקרה
גויה
לביהכ"נ
חיננא
ניו
##מה"ז
כייל
##68
ותורת
דכתיבי
שנשחט
לסוחטו
דרג
בזכרים
מטבעות
ופליגא
ונעל
הוזק
בהצ
דקלא
דעב
גבינות
בצריך
שבכלל
שתאכל
מו"ר
עתידה
דבשני
58
בעומר
נקטה
שפירוש
והרואה
מגומגם
##או"ח
אליבי'
##67
מה"ש
בהגב
משמאל
ראשם
להתר
דמשמעות
הלבבות
##t9
מחש
בקדושי
עונים
##עדשה
שירשו
דתוספתא
הטלת
השמיענו
חבירתה
והרע"ב
בעדם
התואר
ושטרות
יקבר
הנוסחאות
שדים
דנכסי
##i8
##חזר
מעבודת
יתבי
שיעבודא
לכפות
בבואו
נקוד
שגובה
לשלומי
ד"
חץ
וכרב
השנוי
נמחל
וטעות
דמתה
מרכיב
אסמ
דריסת
הגונב
מפלת
רבע
מקו'
וצור
השגחה
דובר
##בחנה
לאהבה
תיב
##n8
שמלך
מחמר
טביחה
דעלה
##39
שנ"ל
הגרש
בסודר
אומרה
בוקעת
כייפינן
המרו
לביאת
מבטלת
##גרים
כלוקח
והנהגות
55
ישמרו
בתש
##שובתו
יגר
מסתם
וירח
ופשע
שהכריח
איי
##חותם
ומתק
המדברים
החמשה
דמוקצה
מהרח"ש
פרקי
רוצין
ג"ה
סטרין
העשי
מימינו
השימוש
כמותן
ותבע
##מטות
להכחישו
הפלוגתא
פולט
חד"א
הושענא
##ביאה
ויקשה
בנאמנות
שהבהמה
כלך
שנשחטה
זי"ע
קניס
ותרו
ורחל
שיעמדו
תחזיר
נקראין
להשני
במערבא
re
##m9
##ציחה
##משכה
הטיט
נדחין
שתחזור
כלולים
בשעתה
הניתק
ונכרתה
##kp
שביא
בשומן
קדמונים
הגבאי
##ואתא
ולמע
כאבא
ובמג"א
שהרמב"ן
האבוד
למכירה
יהוא
##כוונו
מפרש"י
דלת"ק
בשעורים
התלויות
והיית
כללים
ואחריך
שהמקום
דאזלי
ללוים
חרופה
החלונות
שחפץ
והשניה
רעבון
וחייבים
מצלי
##דותי
מ"ס
רבון
ועוסק
מתפר
בכ"ר
חכמי'
השופטים
וכדו'
מאוחרת
דפסיקא
ובמל
ועשרה
ויגד
חשבתי
תוי
היותה
הספירות
ביוגר
המנוחה
הימנית
דא"נ
להשחית
חנק
חמשין
נעול
הקדושות
התוקע
בהשגחה
ביקור
שה"ש
הכנף
לבגד
שיטעו
##5x
וכפל
דהכונה
ערמה
לטיבותא
כשנמצא
התקין
מכפי
המועט
יבשים
כפור
חמותה
הר"פ
דמדמי
עשיתם
לחשיכה
מילא
וואל
בהודאתו
מחלקו
##צוח
להסיק
ביוגרפיות
במחט
ממית
מצליח
##ראג
וחידוש
ותנשא
בריח
לספיקא
גליא
ווסת
כאשה
בראיית
מאתנו
ייטב
כנוי
האג
מתנו
נאחז
הקביעות
ולבניו
טיפה
לאביונים
בתל
רס"י
54
מה"ר
דביאה
דלשם
נתרצית
סוגיית
ששאר
##פשרי
שתחתיו
בהט
הנורא
הקציר
דדוד
הבושה
ונ"ב
ההתחלה
הנפילה
##ברית
עכצ"ל
יורדת
##ילד
דהעדים
צריכותא
טחינה
##נקה
וכשאין
אות'
דחייל
קידושיה
דבמח
ולפמש"כ
התקרה
בעניותי
שקיבלו
קנית
ושיע
לצוד
מיתמי
וכשרה
השבים
לחיה
שבתותי
תבעי
גיזה
ברחיצה
פותחת
קמד
מבטלו
##צוני
##פקלריא
כנה
אוצרות
משטר
ונשב
באומות
והילכתא
וביני
שוע
הסכום
יקרע
שיבנה
חבלים
בגזלן
אצטרי
בליעל
##צטנן
קס"ז
חמיה
קרבה
##ממה
ישתו
הדרים
ושבועות
הכלאים
שגלו
##יגון
לפורעו
##נום
בדיקות
וחומרא
ולכ"ע
ובמאי
שמסיק
טענותיו
הפוכה
האריז"ל
נגזלת
##מע"ה
דכולן
וחכמה
שדוד
במוח
ודכוותה
##בץ
##eo
דלכולי
שתיהם
לשנותה
מדוייק
להזות
להצדיק
ברמי
מכלים
ולדידי'
מכ'
וקדושת
נביאי
לטר
תגע
יזדמן
עשור
שהשכינה
שנשרף
קאמרת
ממיץ
תשובתי
תשתה
##4q
ברגלים
הסכ
בעיון
ממצוה
בבה"כ
וכק
הנכתב
הריא"ף
ותשובה
יתרת
ורמי
מכש"כ
חזקוני
מצלת
רמ"ב
יתב'
חרות
כינו
והזיק
##תיירו
חימוד
מרגל
נאמין
ומקורו
בגדולים
הרחיב
קליפות
##m0
ומטלטלין
מעורבים
וכדרך
נשיאות
בטענתו
נמת
##a7
ישתבח
קדמי
שיודה
הצרפתים
תינוקת
המכתב
אלהותו
כמשנה
##טחו
בהתח
שמעידים
טוחן
אדרבנן
בטחו
נרגא
בהיס
ולאחריו
הרכבה
העוסקים
להתעטף
טריף
שברח
ולזאת
הוג
קללת
והאיסור
התבן
דדוחק
מתמה
נחוניא
51
והנאה
בחורב
##מעיקרא
תקריבו
קראתי
משבעה
ממלאכתו
באכילתו
ארע
##יהיב
דהמח
הגולל
אליש
בסימטא
##יובן
נושאי
נטהר
ול"א
שלחני
##צותה
בקוצר
מכתובתה
##כותי
שעשוי
וקידוש
וצער
מקפדת
הא"ז
וחז"ל
שימצאו
אוכלו
מאחת
מסככין
ולבא
ודל
שס"ג
כפרת
יתהון
דטר
זוהמא
והרה
הראב"ע
כפשטה
נלפענ"ד
לפקח
הנותר
לגיהנם
ובסנהדרין
בגזילה
בא"ר
##כנסו
גרונו
כקרבן
##wp
באית
מתחרט
מסעי
##ורשיו
ממעטין
הנבילה
כמאכל
מהכל
בעקבות
מדנ
כדפריך
בקצוה"ח
רווחת
מצותי
וראיתם
והקדוש
##נוסח
פראג
אמיתית
ר"כ
תריסר
העברים
וסותם
קביע
לשחררו
חברון
הטהרות
וטבילה
עגונות
##סך
##סוטה
בנוסחא
מובטח
פשה
##lr
להבה
##קוהו
שקידשה
ליומא
וידי
כאמרם
ותירוץ
יקרבו
הברור
##נגדות
59
זמר
חבריו
בקני
יתירו
שיפרש
ירגיש
מקראות
ובתנאי
סוס"י
זנב
ועתוס'
דכולם
דגזלן
דהמצוה
מתרפא
בשוב
וללמוד
וקדיש
בטמאה
##לבשות
לקוץ
דורשים
והמג"א
שהעכו"ם
##מיטתיה
המציאה
ונתק
שידור
סמיכת
מהסוגיא
למישרי
מתשמיש
מאורי
להקריבו
רענן
תינשא
##gh
##שהא
לשעבד
##בשה
קפ"ח
ומצוי
דדה
יומתו
##דשמואל
והאל
לנוכח
פעור
לשומרו
ויתיב
שיחרור
##ארה
שכד
הצירוף
הרהמ"ח
דטוב
כמבושל
וכשיטת
מעשהו
מרומי
ומעיקרא
והג'
כקושית
##מאים
בסימנין
נהור
במחילה
קבלנו
דבזה"ז
בתה"ד
ופוטר
וכלהו
##שוהו
למשא
ההוצאות
סנפיר
##m2
##גרה
לובלין
ולדבר
רבעים
והגר"א
וזוהי
ביממא
המשנ"ב
נימוח
תשחט
##ביל
השמד
והתפלל
שנשבה
המומין
##ונ'
להחיותו
ומצפה
שהובאו
בדגים
ונתגרשה
לאכלם
נתקיימו
דפלג
עקומה
##v7
המדובר
לעבירה
##ודקין
מארצ
הו"מ
כוונתי
הנהנה
האומרת
דטהור
כמור
הממונים
בעינינו
שחציו
השומא
לידידי
מיאנה
דמלאכת
מכובד
##ילתות
כצור
ליהודים
הצורות
והכין
המומר
לפרקים
דלוק
הית'
לביטול
מא'
שתחשך
יעל
ילוה
##יכוהו
##ונך
דמעיקר
התופס
גונב
##5q
להתייבם
שכותבים
פטו
תשיך
דמתקריא
ג"ט
##יזה
##ינרי
ובכאן
שעירה
דאיתקש
הדר"ג
זמה
שתבע
בשפופרת
מכירתו
בפיה"מ
היכולת
המגו
מסה
##6k
##dh
מצט
בדמות
דר"ז
מסכמת
זוק
רביעה
הויות
לקנותה
רקב
ובאותה
הפרות
##i7
לפ"ע
גלעד
ומיתה
ברחמיו
ידין
דחשוד
הקטנות
לתמיד
יפ"ת
בטענות
##מניות
כהס
תקריב
בזקן
##מינם
במ"ק
לבשלו
והחילוק
##בקשים
השידו
היאור
##בו"י
המשקים
ומועיל
רש"ר
קוצץ
כפשוטה
הינ
##ופך
כפייה
קנ"ח
ולאחריה
בושט
##בנו
##a3
שמול
הניכר
דאתחזק
באגם
ושניה
בעו"ה
שיטמא
הקללה
ימלט
##וספה
ובאור
שבגל
בנינו
כשאינה
ולקנות
ארוסתו
##ibor
הפילוס
כתר"ה
מחנ
אותות
דלקי
נחשים
נגעה
ומתע
במעשיהם
בדיינין
שאיל
לשמונה
חומשי
ולהחמיר
שהחיוב
חיצוניות
חכז"ל
מידע
המבוארים
עילה
##נבלה
לחמה
משאוי
כבתה
כתונת
בממזרת
##צ"ב
אסו
והוצרכו
ואומ'
##מבדיתא
בשכיב
שועל
הפסידו
תלוי'
##יניהון
אויביו
##מלו
##uy
עצמנו
סהדא
##נינות
##צתא
במינן
##טאו
שמעי
הקרובה
חרון
##פרן
באתה
מסלקין
##כבס
להד"מ
דנוהג
הגומל
##iltei
עוזיאל
דבמתנה
בהכר
מפרוטה
הועד
כראי
מק'
בגודל
המדרגות
##osh
שדברו
עשויים
דחייבין
hagibor
shiltei
hagiborim
##תאב
##5k
אוכף
לקרקעות
וקושיא
כמהר"ר
משוחרר
נתקלקל
spi
בדיבורו
רפאל
מייבם
אדומים
בשעבוד
אוקמתא
הלכתית
קדר
רנה
שתמות
תטז
לחג
תליתאה
בפסוקים
לפיו
##צועות
והפירות
מששת
כנפש
נחשבו
##לחמת
הפרוץ
בקבלנות
מחלו
לכוס
הגדת
משמא
מקלל
וראינו
והמותר
קמ"ז
##כשירו
התפללו
בתפילת
יו"כ
שתמיד
לזב
ליכתוב
מיקרו
ויעלו
במרה
רפ"ג
נטרו
##מיטו
##עתייהו
##בייש
נקבל
כשאמרו
עתיקא
הערבות
##57
המתי
בחשש
הדקל
מפת
ונוכל
נזרו
תלויין
וקור
למיח
להתירא
שמהם
ב"ג
לתוספת
שמחים
ואיברא
נפלאים
קריבין
דוחקא
כשעשה
וימלא
שתקבל
לצע
##גרר
ושלישית
ופרשת
נמוקי
##uo
ובשבועה
הכ"נ
מקרים
שמניחין
פיק
לגבה
בהה
שנדע
דמוציאין
##סוי
שמשל
הגידו
קולמוס
תכלה
##פידים
##מו"י
משפטו
במחתרת
שבאותה
שדיבר
דממעטינן
הידועים
##טיו
##ריעותא
לכנס
מגזירת
##טאות
פתחה
בדוכתא
בכינוי
ותתא
היוצאת
בנישואין
קנ"ט
קרפף
לשק
כשפים
נתגייר
יענו
ורוחב
ו"ה
שהשמש
אומנתו
דשטרי
בראותו
הקדמת
##t7
למנצח
וכרת
לשמאל
נקם
אשמע
שכרך
שנושא
כמאמרם
הנקבים
##if
בה"כ
נתקל
למיסר
רמ"ו
ביכ
הילו
##מרח
וחסרון
ולאסור
קראוהו
נגמרו
חשיד
תרו"מ
שבגוף
צמצום
החבורה
מבנין
לגוז
kq
mid
והור
ואפלו
הפקיעו
מלוחים
##תנו
באמור
ישכב
דסוגיין
זובח
mys
דהרבה
שנמכר
גרשתני
קפ"ג
צוע
לחילוק
מו"ק
ויבר
הסוגיות
סתים
אפיקו
כאידך
ורכב
ולהמ
הנוטע
ולדידהו
בנדפס
הזנות
צדה
מהשל
למדבר
בנגע
דבעיקר
שזנתה
ובכתובות
התקון
לקנוניא
נוספות
רבבות
דמשל
בסיום
נפיש
והללו
הענפים
יול
ימח
ובפרי
בתרווייהו
שלוחה
וברשות
לשיטתי'
##דמנו
כפוף
כרבינא
משועבדת
גזרות
##זבח
בדיל
ששנים
עיגונא
ושלחה
שזמן
>{
##n4
להיתרא
נקיות
שיפלו
הלוקין
קדרות
##מילות
והאחר
שהוסיפו
לגנב
ואיידי
אן
דזר
בסיון
יצאנו
שעלתה
לאוה
דאצילות
כבע
סיכה
##נייהו
ורמינהו
הבי"ד
יכשלו
ממאן
סתי
סיב
תשאל
וכמובן
יסודו
##ינוף
השלימה
כסאו
רעותא
דסיים
וישובו
נדחו
לטהרות
וככה
שבאמצע
מרבבה
דנוה
שדרה
תבונה
##6l
##סנא
שהורו
הליכות
הווי
יתיה
וציין
המחשבות
שהקילו
ונתרצה
פליטת
היבשה
הכפורת
שעצם
חלפתא
היכרא
##tery
חיבה
כדור
שאד
ומעט
הכיסוי
##a4
שחשש
ומספר
ואעפי"כ
מוקדשין
לסר
להמוכר
והאש
דליתנהו
גלימא
קלקל
שבשם
וששאל
##פריה
שמתנה
דטעמיה
לכ"א
למהדר
והמקום
ויגבה
החשד
כיני
נצטוה
ולמש
ועבדו
דליקה
ונוסף
במד'
מעורבת
מהימנינן
חאה"ע
אתרע
גה
בהלל
הכרעת
##rash
דהגט
דשייכי
להרבה
בהיקש
מסתי
דרבן
לרכוב
שאיסורו
מוסיפים
כיין
בבנים
מסי'
ולבאר
דהקושיא
היחס
סגול
##קיפין
##זלים
ובגיטין
mystery
ובחר
בתראה
##סרם
ורביע
##גהו
ארז"ל
רנט
בה"ב
סע"ב
בבדיקות
שהקרקע
ההליכה
שיקראו
שאכן
דמשם
לקצת
וגמרו
וסד
דמדלא
ולרש"י
ועברו
תחלוץ
ובזכות
ותרצו
57
האזורי
בריות
ליתנה
שהגם
בגטין
הראויים
התב"ש
בהתאם
משכר
יענש
לקלא
יתק
ובהאי
במספרים
מרוצה
התי"ט
זנתה
והגל
##קועי
והחזירה
השתדל
##נדא
מצרן
מלות
##פיקות
במומין
ומחשב
##t3
הרחק
לכבדו
רס"ו
היחידים
midrash
ויכוין
צוהו
##בירי
##שותפים
רע"ק
שהגב
שבטלו
עוונות
שהקדימו
שבחר
הרואות
פסין
לידי'
השבתי
מלהת
פורס
יהודאי
והנותר
ריב"ז
ונאכל
והסברא
ליעזר
##סקים
הלחי
באיסורים
והוליד
מהגמרא
החכמות
##כסדרה
עבדת
כדאמרו
##עתיה
פשיט'
יתירתא
##נתינה
קצ"ה
שחוטי
וביאה
שחולקים
שיקר
שהחו
שהב"ד
לרעות
צינ
##cp
##rj
##ירח
להלוקח
המתו
דחזקיה
ובהר
אחוי
משורש
לבינו
נוהגות
חמרי
מחומש
לאסרה
שבתוס'
בתחלתו
פירושי
עשייתו
בכללו
נאנסה
דמשעת
במיעו
דאידך
טעיתי
כרמב"ם
בשלטי
וברוב
בחצוצרות
##ליפת
ותלוי
בעודן
שיזכור
בנשיא
לתרווייהו
הצבע
שנתקשה
שנגעו
מקדושה
לזיו
האישות
לא"א
ואיהי
שהפק
ויפלו
המתין
והוצאה
זבים
עיל
##ק"ק
לשניה
ההפרשה
שרואין
ולסמוך
ונגמר
דעי"ז
שמשא
בבחי
להש"ך
##צינא
האפשר
המזכה
יושביה
להגמ'
המבשל
גוזז
##ודקים
##וק'
##שמישו
יבדיל
החומרא
##זונו
כמחובר
והר'
פצי
##מ"פ
דפקע
וחבריו
שהכלי
שמקודם
המנעל
הקצוב
##נזו
פירושם
קמ"ד
מחלקינן
ורוצים
זבל
עדשים
וקרע
גרשה
והקנה
שבימי
##13
ישנן
בזולת
ממורי
דהמקדש
מבלתי
ותובע
##m8
בנחל
##פשתי
##פריד
מנדה
משומר
מתוקנים
##מ"ץ
במסורת
לעושה
דסופו
##חימו
מדאמרי'
החלי
לקושטא
ולחייב
נחוץ
בששת
לגאול
ונביא
בכתר
דנולד
תעבוד
נטעה
מזונותיו
לקחתה
הטהורים
כ"ץ
שביל
שכ"ח
המקורות
ארום
נפו
##כאי
מיראת
השבות
ללקוט
עניינו
ומחלוקת
ענש
דסו"ס
שהש"י
כליה
קס"ג
חפצתי
##מעלה
להתו
##יכרא
ואוכלת
ק"נ
##מחת
##יוהו
קנ"ב
קיש
מקריבים
משכונו
וליחוש
##v2
בכתף
##פתתה
עמלו
התוספ'
מהמש
קוברין
בהגה"ט
מאורות
כשיוצא
רועים
תקופה
זללה"ה
ללחם
גוזרין
חובי
ימיהם
להזכירו
הסרת
מרמה
נתערבה
שרגילים
התוס
לירושלמי
מגיה
חלבים
ירעו
לצער
שפך
מוכרע
דנחשב
##קיפה
במהלך
הנוהג
פליט
חברת
עורו
##סיק
תנחום
וכדפירש
הרש"ל
נפשותיכם
והדעת
אימורין
##נפים
דבכהאי
מחוברת
##מקה
דמרי
נתקבל
הרשעה
ובב"ח
לעלם
דלמד
וחב
גביהן
צנון
להה
שיווי
ויתחייב
תקנתם
במדריגה
הקדישה
כאותה
כמל
##רח"ש
##gq
אר'
##כנסים
##נשאת
##פכא
לשכב
כמונח
תקחו
במרח
56
##לוגי
##תבש
כאל
אזכיר
החבור
בגבורה
ביחזקאל
שיזכו
##רימו
בעז
כשטוען
בנחלת
ובמנחות
קס"ח
מכחישין
וכמאמר
דרמב"ם
בדמיהן
מתנבא
מחמיץ
ונפלא
ושעה
בקטנים
למשנתנו
אוהבי
ועדיפא
drisha
##רף
למדרגה
לרחם
ושומע
נשיו
##קשרו
##רא'
למזיק
מיי'
לגדר
יתגלה
##קרר
חוליות
לאורויי
בקרובותיה
יפסל
דנשאר
##כביד
לשאוב
משייר
צעיר
##כיבה
למבין
##דיות
דכלא
בגולה
##גוים
בשעה"מ
##afot
##צ"ש
דברות
כדד
השביח
קע"ג
##פיסו
##פלגו
שקולים
ומהרש"ל
טווי
דפ"ב
קכד
תימ
לבז
ממטבע
שו"ר
##ינייהו
מטוב
זרעם
בחיל
ודק
##r0
המפריש
בעלמ'
##פרית
##כריכין
##צעו
לכופה
בביתם
זבוח
##סיים
והיות
לתר
עושהו
ומאידך
המעביר
הברואים
כליות
למג
##ינשטיין
בבריאה
מאיליו
הכפרים
כאנשי
תבנה
דבהך
אומדן
משגת
תאותו
חברייא
שמשב
##נערה
ברבינו
חבירך
##חדשות
נאבדו
שהאמינו
לאיסורו
האצבעות
בגורל
ונסתרה
יחיו
נוגה
toafot
##ריץ
והפס
ולנו
בתלמודא
למקומן
קאת
רפו
להרה
הלין
פלגי
בעתיד
תורתי
שהלשון
ומסקנא
דמט
##דונים
מתורתו
מבחי
ובהך
ואיתימא
גש
בגיטא
מנעלים
בפר"ח
ולכתחלה
האלק
ביזוי
נחירה
##כשיט
ונתא
כעיר
##לקוחות
דהתירו
ויסעו
הנוס
מצומצ
רפ"ח
בביצים
להלל
רוכל
שהבינו
פ"פ
במטלטלי
ותורתו
דמיקל
זכותא
בפי"ג
אכסדרה
כיפה
בבעלה
והאיכא
נכנע
כגי'
דילפי'
והחזירו
ליחה
שמינית
מקורות
סוכתו
למחצית
המדמה
דשריא
להנהו
שאיש
לדבריך
ההין
ישתדל
במחיצה
הנערים
קלג
מורנו
הגה"ק
##6w
שבטו
מתפ
##מידי
##לבושים
דבע"כ
לטענת
בקדמיתא
מסייעא
אפך
והשטר
דהר"מ
##ימוני
הרפ
האו"ה
מראשון
##מק"י
הארבע
שבשב
וכדתניא
שברור
נסתם
שהכה
יחתוך
שרגא
תביעתו
והוכח
האליה
ובפסחים
##12
ונאסרה
לחנכו
זיקא
לי"ב
למחרת
בהסכמה
סודות
##נקא
##i3
לאסת
לקיטה
מלכה
שיזכיר
##מאנת
וקבלת
##צוניות
הנוגעים
המצא
במקדיש
הרודף
מעמך
הברה
תפוח
ששנו
שיחלוץ
חרבה
עאל
כותבת
זכאה
שארצה
בישולו
תפירה
##ברן
למשלח
דלפום
ואייתי
##סהדי
בשתייה
להריטב"א
שמשום
ושכיר
##סייא
בתוי"ט
ושעורים
שפשט
תחות
##קעין
##עלו
הראנ"ח
מלחם
נזכרים
ומילתא
הפאה
רע"ב
נטיעות
דמדמה
##קומץ
בעקב
יסכים
שנשבר
גיטו
המזרחי
ומקומו
החולים
##תה"ד
יתד
קושר
##מליא
להוציאן
ונכ
והפסד
ולהם
דמעל
מק"ש
בנצח
##vn
דאותן
מפניהם
חמישים
והש"ס
צויתי
ק"ע
לקיחת
שי"ב
ובמעשה
הע'
דלפי'
וכתבתם
שיול
קפ"ה
בישולי
שנעקר
תשקצו
##יבוס
לברית
דשלח
דנר
סתומות
ואנה
כהירושלמי
נקלף
דגמרינן
הזיקא
מודין
שהגאון
אוציא
כרות
הפרמ"ג
מיניהו
שבמק
##מוקו
ידו"ד
כמתנת
שעומדת
יקנו
הרויח
גוררת
דאינשי
ד"ב
בידיעה
ויבש
נמשכו
דלשמואל
איבעית
שכתבה
בזכר
מיתורא
ומאמר
שיטתם
זיז
ונכנסו
מכריזין
להמתיק
סקל
קדירות
גילח
להתרפאות
בשמם
יספר
יפוי
צלע
ועשר
ומתנות
ועי"כ
##שאל"ס
והמשכיל
בקדושתו
שזרעו
במכיר
וגופו
חופר
שתכנס
בלבבו
יניחו
וביל
דבעלים
טבילות
השביע
בנערה
לעזוב
הירא
שאבדה
שמחו
##יחדה
##רש"ם
צוארו
קפא
בעציץ
הקים
בפונ
ברותחין
לדף
ויזכה
דיינין
לבהכ"נ
ס"מ
במותב
כגנב
באוצר
לכתובתה
לחשש
כובע
ולבית
##צל"ג
בגלגול
צערו
##בדיקה
##עולא
זביניה
אומדין
##ולקת
בחולי
בנכסיו
קלל
##פכים
מסנהדרין
דגרס
לגרור
לע"א
ולהאי
ערכי
##f4
בשדות
יב"ש
דזיל
יפדה
לטלטלה
##נ"ז
והתי
גיטיך
כריש
ומהדרינן
מעליה
שטרח
והתשובה
דאסמכתא
להחזיקו
מחלוקתם
##וסטוס
במכתבו
למעלת
עצו
מי"ג
פשיטות
שידענו
הוקף
אמון
דהל'
מר"ה
בהתורה
שחזק
##לוקות
כששו
ואח"ך
מאלף
##פידא
והסמ"ע
המכיר
מאמרי
##יו"ד
מבכור
מסויי
תחשב
להשתעבד
ומביאין
סכינו
ימחול
והלכות
בחשבו
ידליק
דנזירות
לראותו
שהחשיך
ושמרו
מליאה
בל"א
המשמר
האוזן
מחוייבת
ועקרב
לאומן
מוכיחין
ההרשאה
מחכמה
מאני
הראשית
והמפרשים
שתבעו
קפ"ד
##כנתי
בשולחן
ד"נ
לוותר
במני
מכלום
דשינה
למורי
הנסכים
במנעל
נטרונאי
א"ס
לילי
##סס
ומנהיג
ועמדה
הכשירו
מחצות
שיפריש
##כנעה
דקא'
##פתם
ומניין
בחסר
##בדק
וראייתו
##ולחני
אלמנת
משו"ת
רכוב
וכזית
ועץ
מחסרא
כדאית'
טבעות
ויקנה
יכשל
מכשירים
ושעורה
##a5
התפארת
שמעידין
קטורה
בחזקתה
ורה
עפרא
בהגוזל
אהוב
במועדו
צבורין
להניחה
ק"ך
##j2
##ידוק
##ורית
ובהל'
##hok
חליפי
שאמו
דהילכתא
שנתגלה
ובדרבנן
ומחר
ברגלו
תרג
יכה
להינשא
לחוף
פקפק
רכז
לכרך
##עשע
השגתו
לבנ"י
כנפיו
דנהרא
##פלוג
ול'
חששות
לבעליהן
האשכנזים
זולתם
איו
בזרע
והיש
הרומז
רצ"א
קורעין
##געת
אחזה
בג"ע
גבייהו
מדעתם
בודקת
שלדעתו
נסתפקתי
##להי
מלכותא
דחייה
ורחץ
להסקה
הגזית
החסידים
דפשטא
כהרב
שי"א
בטפח
מחמתה
טבלא
ראיותיו
כהר"ן
לחתיכה
נתבע
##18
וממת
אזכרות
ענפים
הקופה
עשאוהו
עפי"ד
ששבתו
##להבות
מצותן
הושעיה
יחו
להגר
האפשרות
ודה
לאוקומה
##לתך
מדרשו
גליל
##טריפה
דתימר
##גנו
ואיירי
מהרו
הסיח
הפורים
זקוקים
השיבה
שניא
עזבו
המדינות
ומג"א
הגשמיות
ירים
מתנא
מעליותא
עי"כ
ובר"ן
שנחלק
כלתו
מתאי
בקמץ
עכבר
נוטים
תרמה
קצ"ו
מיתומים
##i5
בעידן
מחתך
שנאת
שהקדוש
##פתחות
לנותן
והלח"מ
הד"א
מאמינו
לזכותו
עסקו
הפשיעה
##ש"ק
בשעתו
כשורה
תו"מ
בשלשים
יודי"ן
בשכבר
המ"ע
כיפור
דגזירת
##לב"ח
האורחים
חוס
##ינש
הספד
המוסיף
ולוים
שנכתבו
בפיס
מחלת
וששאלתם
עיק
יאמין
רי"ב
להתייחד
62
##arch
מהר"ל
קמ"ח
##פרדעים
משלחין
##ס"ה
##חיא
ומדות
מר"ח
##fas
שהמל
דבמש
התחל
כשרואה
מוספין
רנ"ב
##גית
שבירושלמי
##פשיטות
נזקו
הפוסל
ומגד
בחורים
שישאל
אשמו
פלפל
ביבם
להמע
למפשט
נהיר
##זכרה
הברירה
בנשואה
ישבר
הדברי
דשחט
תתעבר
דמצינן
ובמש"כ
מדתני
שיתכן
הדרה
דמינ
מחזור
ונקה
ובאמצע
דאיתחזק
שמוד
##מנינו
##כותה
חיינו
לק'
אביכם
בבריאת
ורובא
##נעת
ובונה
##יעורים
נדבר
וטבח
בגיזה
דיון
##j7
כלולה
מעונש
ראם
הי"ז
אנטיג
קרבין
##גשת
דהותר
לל"ת
שסבור
בקיץ
מעפר
הדמאי
הריגה
בריתא
דנאנסו
המיטה
שציוה
תקפה
ואימתי
ומוכיח
כעל
לאלף
המורשה
אפשיטא
ואשמעינן
ירחי
##ריו"ח
דנאסר
וכתובה
במפה
בדח
בתחום
להתפשט
ידעי'
הלויים
כפתור
63
##m7
##הן
דמטא
הוידוי
חילוקי
למשמש
צודק
והכהנים
ונתברר
למרום
להצריכה
בד"נ
ואביהוא
מכוס
זילותא
וביומא
להחרים
##תומין
##דר'
יומן
שעז
שעובד
טעמי'
ולהודיע
##j8
##בר'
העושים
יתרצה
מלקיות
קלב"מ
כפשטן
לע"ה
מעיניו
ושאלה
אילים
משמן
##וביא
ופור
שפוסל
והעמידו
באביו
##muel
ניר
השפה
שירש
הגבינה
משמתינן
בהקב"ה
וחשש
טועין
זמניה
הרצועות
באצבעו
כההוא
אילנא
שמביאין
בראה
##cr
##ט"ץ
דבורה
ושפל
בקולי
מזיו
רשעתו
וראשון
הרשב"ש
רסי'
דיכולים
נפסקה
אופין
בהרהור
שישנה
הטורח
יודיע
דלמפרע
והשא
עצמותו
שפכה
##כתיבה
##m5
##xp
שהפירות
ובתורת
שנשרו
בענייני
shmuel
ונמכר
דחוקה
לתרומת
##מלין
ישרפו
ברום
ג"ח
כ"ר
##פידו
ומצוות
ולעתיד
הג"פ
ומהדר
דנפשי'
שנתים
וטפי
חשוקי
אתב
##יטוי
חללו
המומחה
לנטות
גררא
חומרות
שאוכלים
שנטלה
המשכיל
וה"ז
דרס
##ופת
וידעת
בהפ"מ
קדומה
##זיב
בממו
חזא
וטמאה
##צלחה
התירוצים
##נקן
שאוב
ותשו'
יחלק
נשבעים
בורו
עונת
באייר
מפטר
##ורשי
הרק
התענוג
וכלא
לגברא
##שיבה
ובנידון
בצאתו
ארצם
והבנות
שמראה
בבע"ח
ביכולת
להרו
העזים
##שיים
דנתחייב
להפיל
ועולם
שכא
בכניסתו
למשמרת
לאחור
האותות
##רבאי
##ישתא
מוז
כמנהגו
שטבעו
להחל
השמא
ועמך
מכשר
כהקדש
##n6
וכשלא
שהגוף
ברוטב
להתחבר
##רוני
בק'
נוטלו
ונותנו
השותה
דמילי
בסייעתא
וכתבנו
וראשי
בקומה
דוגמה
##כ"ס
##oy
##יתינן
שמקום
לפי"מ
ירחא
להשמיד
גאוה
ומניחין
מני'
דאיקרי
ידיעות
באימה
להכניע
##וייר
אקב"ו
והבדלה
להש"י
שיכנסו
מובהקין
##w8
##כימין
וקרינן
וכתי'
לעוש
שחיוב
##4k
הג"א
ותלד
##ציג
נדרשת
חמו
##רורי
וביחוד
נרצע
שיחשוב
דצ"ע
ובירוש'
##עתר
דקם
##נקם
שעבדו
ארוכות
להשביעה
וברך
ומשי
שקנאו
כס'
צלעות
יהיבנא
ברהמ"ז
##שני
ושקל
חבקוק
דטרפה
##נבי
הנכרית
בקירוב
בכמות
מחמיצין
##sq
היולדת
תפילות
כתפו
דכשיש
הגרי"ז
אהבתי
בחתומיו
##a6
ומשהו
מנק
הגאוה
##שאלת
חמתו
תעשר
קימה
ויכולה
לרוץ
הימניה
תמרה
ודנין
##וגה
הגדל
וברוח
##wt
עלית
בנודע
חאו"ח
דאשתו
משמי'
##דימת
עשרונים
דמוכחא
אדאורייתא
ניצוץ
דת"ר
בנפיחה
##מקו
ובאות
שיתיר
ולעמוד
שהגיה
החרס
תבר
##ובדין
מקולק
##נתק
וי"ב
חלבה
העתים
ונשמה
ישבה
ממדר
מסית
##דרישה
##יתנו
מדב
ריסוק
ושביעית
דכשנ
בשערים
ינוקא
ומעין
וערי
דמחו
לקדשים
שנאנס
לפרעו
ואסתר
אלגא
ורגיל
נוטריקון
##פולש
##ושייתם
ממיתין
ליי'
הסמיכה
דחז"ל
##שיבו
האלפסי
מקצתם
ולמימר
##eu
הקמת
מדיוקא
בישרא
קסט
מדקדקים
תוי"ט
##ותיך
כשיקרא
מסורה
הנחתי
הסיפור
##w9
שמקיים
##ייסה
עונם
ויפול
שדברים
##נצלות
לאלקים
הנבדל
וגזר
דומות
דיבמה
וחכמי
##דריה
##1r
##יחדו
בסנדל
##סוח
בטביעות
שחתך
כשחזר
##מיני
##עתים
כשרא
דשרו
קע"ב
בהדיוט
יאשיהו
##lt
וכסות
ובאיסור
בשקל
פסלינן
מפרשת
ופוק
במהירות
קפ"ב
מתאים
מגדף
ונפלאות
##ולגולת
מחבת
נו"נ
וחוזרת
ערוגה
למור
מללו
וישל
ובשנה
ויוצאים
##דמי
##חזו
ונבלע
זומם
הציווי
במדרגת
משלוח
הוזמו
קבלתו
וביתו
וקרקע
##יוהא
חוקת
mosh
##sk
מחמשה
טעימה
וכמוהו
חשכה
תבשל
hagg
וסוברים
ליוצא
##רינהו
הממו
כשואל
דאיפשר
אביגדור
רצא
שהאל
דסמוך
ולערב
בהקדם
בבכורה
כנטול
עליית
haggahot
אשלם
סיבות
##j3
##בל"ע
למצה
כאבן
דנתי
כמדבר
פמ"ג
##ינני
ההפטרה
יטהר
והברייתא
מענינו
העליתי
ואלמנה
עשייתן
ותבא
הכנת
ושדי
##מצאו
עייש"ה
דכולא
דחשיבי
##ou
למוטב
לוסת
באגודה
פסלו
דחיקא
##ggad
שהו'
ההז
כתנות
ומתירין
לדוכתה
סרוחה
ולברר
בגוה
לתנור
צריכי'
אג"ק
מוקמי
דמשיכה
וכסתות
וקידשה
מידיעתו
##קריאת
בנתיבות
##1p
וכפירש"י
לתקנה
עיסת
שנשברה
יצ"מ
שראוהו
הריב"א
וינה
פדת
תשלם
##יה"נ
שהענין
##חררת
ידון
דגוד
הושיעה
שהודיע
המפרקת
בעשרת
ונטע
ובההיא
ובפרשת
ממתינין
ונוהגין
ותוך
##m3
בשיל
הלילות
מחזר
מנג
אצילות
נמנעו
מעכבי
##i6
השראת
לבורא
דחמירא
הנהרג
במוקדשין
דזעיר
מושיבין
חזרתי
והזהיר
דמנה
לכבש
מכון
שגגתו
ורבנו
ליבשה
איצט
##טלין
נהרדעי
כלכם
אוכלא
##zy
התכוון
עד"ז
לתפלת
##טיס
אחיזת
מקדישין
להעד
מלחו
כנלענ"ד
תפקיד
##א'
##ידד
דרסה
כגרוגרת
הלווה
חג"ת
יריעה
רל"ה
הגבור
ותלה
לבדך
בתשובתי
גאה
##סמך
##10
ופרו
וציר
מאליהם
לזק
תמונה
לדוגמא
הוקבע
לזור
במנורה
דלצורך
המנחת
ובפי
לחרש
הי"ח
בלקו
##חישה
קושיתם
הישראלית
עה"פ
נשארת
הכללית
דטענת
מיבעי'
##שקר
שנזכרו
בחרש
בגורן
הפכו
הלוואה
דשייר
##דתה
##כוכית
ותשעה
##ויהו
##נ"ג
##זולי
איגוד
שנשר
ורחמנא
תחתונה
לכונסה
לקרובים
למשכנו
תאכלנו
moshe
darch
המתני'
בח"ג
##תיבם
מיאוס
מושבותיכם
darchei
מצרית
בשבילה
להר"ב
דבתרי
aggad
אלפין
aggadah
ומהרש"א
הפרנסה
ולצורך
מדורה
דבריש
ורגע
לרצות
דעתייהו
בעוה"ב
לחרישה
דמועד
עניה
אבלו
##כבך
בשרש
דעבידי
לעזור
הכתיב
עצב
הפחד
סע"א
המרובה
עש"ק
רמוז
סביביו
ליבעי
לענינינו
יציא
צלותא
מק"ק
הוי"ו
דמיעוט
ההשפעה
שהזכרתי
יישן
נמח
דמ"ה
לרמב"ן
מגעו
שבעלי
למספר
צף
ש"ל
השרי
שבסי'
##בדא
וקרב
וסברת
בט"ב
ומבין
לייחד
דקרן
גדיש
מאירים
בהגב"י
##ילא
והמצ
נא'
המשורר
שהקריבו
ובהשגות
דהמקשה
אתרא
בקרבי
לגמרא
שתרגם
וס"ד
ולדעתו
דנית
ולעומת
דב"נ
מתלמידי
התלמודים
להושיע
שחששו
פורת
תתבטל
##יהוץ
לנדות
לפרה
והישר
פס'
משמעותו
בהדייא
ירידת
סבל
שמץ
בתינוק
##פלגת
שרשו
והתראה
למרק
חרבו
המשיך
הרבנות
סביר
להרח
איבריו
לסתם
##בתא
##דנא
מהשו
מקרן
כדמשני
תקפא
במערה
שהטור
האורה
משלך
מנשיא
השאלתות
הקרשים
הפא
ירחק
האונאה
והכלה
##ודרת
שהרש
##לומי
המ"ם
בשיקול
##מעך
שהארץ
המגלה
בחזר
נגיחה
גורסים
דמצורע
מנסיא
חגב
המלות
העז
##קבלת
רפ"ד
שהצבור
וחנון
נקמת
תחנם
פרוס
ומציעים
למכה
בפק
מונים
דרבנו
##גיז
דאיזה
64
וממו
דולא
נמשל
##עבות
דבישראל
לבצוע
שנתארסה
וכליו
תבערו
##50
להצד
שבדבר
שמצוי
לפה
##בעי'
יסא
ועכשו
בוא"ו
לרפאות
שהאור
החומרי
וכהנה
##מסס
##ריסותיכם
עזי
לחזרה
יופי
מקוד
הפשתן
מפרשין
מבוק
שיירות
רצוי
בחייהם
ומור"ם
##מאנדל
קדושיה
ושעבוד
בכניסת
לזייף
##ריהון
כעכו"ם
##ג"ה
שישחוט
שיף
והקבלה
חנ"נ
מושלי
באומרם
לרישא
בש"ק
לקנס
פרדס
פרסומי
מרצון
הברייתות
נזונת
שטי
וכולל
##תונת
ומשתה
בהנ"ל
שכשא
בדירה
##פסדו
ושמתי
הכיור
##טאים
ראיי'
עסקא
דסימנים
##חדות
ישאנה
בעולמות
##נדק
שפעם
בממונא
רוחץ
סובין
ר"ו
שברכת
מקדשת
מדמין
הריעותא
מבטן
שימותו
כולנו
יגל
##mf
וה"ג
מחוק
מזבין
הצלם
שיעורי
חציף
בברכי
חשודים
דצלי
בשמאלו
אזהרות
תיהוי
בהנהו
##"הג
ושבעים
עכומ"ז
##צנים
להתבטל
שמפסיק
בנרות
הפקירו
תס"ז
והרוצה
שבירושלים
ליציאת
##דהר
דחשש
למימ'
בטן
והמחמיר
טבלו
שיחשב
צוקרמאנדל
קמז
##מתיה
השמימה
טבעית
בכהונה
גריסין
כפסק
##v8
והלבוש
ובדו
ריבוא
דנוכל
ועק
ורפ
כמדת
אוני
הבכורות
הקדומה
הלמוד
כרמים
חילל
המסכת
##מסיים
##ב"ל
דעים
אעפי"כ
במגילת
בינונים
בכיסוי
##ולמות
שהכיר
בסימני
בנפילה
לנפילה
למשפחות
נמנין
והנס
בהתחלת
בתנאים
ותולה
ומונה
פליגו
hare
שבישל
כשמכר
משגיאות
והוקשה
המציא
בקעה
##גדת
##קטנה
ממעשיו
שאכלנו
אלגאזי
פרסום
דקלים
סרסור
הנפק
המוריש
שמעל
דמתח
לכח
סבורה
זב"ז
למשכיר
והגיד
גונ
לאחי
##מונאי
מחוב
ושבר
כדיעבד
דקבל
ותלמוד
שחזרה
ויקדש
וסופה
קיץ
נתבארו
ככתובה
לשתותו
##ודקת
לנפשי'
##w4
##sc
וביטל
ול"ח
ממסכת
מסודר
בהקדמתו
ו"
בששי
דבט
לתרוייהו
עילאין
רחוקות
שעירב
ובורא
יכבד
ובדק
##יט'
האביב
לאח"ז
ונהר
הצווי
כדם
וכמאן
ומתני
שבולת
דקדיש
המגביה
וליקח
מתל
הסכם
כעץ
##תוקק
אנטיגנוס
פולין
הנז
מאוכל
להיותה
שפחתו
ארוב
שזרע
לקבר
לפרנסה
לסוך
לאברים
והקהל
ומשלים
##דו"ד
נשכח
אנפשי'
בחקותי
דחרש
ועצ
מסולק
שפלוני
הקדשה
וביצה
אויבי
יבדוק
##קדים
##מבוי
המשמש
חולדה
דהעזה
תירוצם
לזלזל
אבידת
הוכחות
אמורה
שנתפתתה
תעבד
השפעה
דבמתני'
מינן
שבפרק
שמצאנו
בלה"ק
מצטע
שיגע
שקולה
שלוקה
דמעולם
גרופה
תוהו
##p0
והער
הקא
##עו"י
ופע
##כסוסטוס
בירק
למלכי
תבו
נפיחה
שמיטת
שותת
המנ"ח
כמו"כ
וגורם
והשמיט
ומועד
לשרות
התפסה
בדרי
דילי'
קרייה
סחורות
##וררים
כרחיך
ומועדים
מאכולת
הפרדס
נענשו
אסיפת
##iz
ומפרשים
הנשמע
הרבוי
נשמעת
ובח"מ
פ"כ
תיע
שבדרך
##טווה
לאוכלה
##כחש
לנקות
יתבארו
##כשירין
תפסיד
ביתומים
לחוות
מזכירים
אחוריו
הזימון
##שומו
מהמת
מסיר
ורג
מהאו
ובסמ"ע
הכריעו
דטעו
שבגופו
ומלק
לקותא
וראית
שספר
בוסר
##מויי
בדה
##משמין
נפשנו
קפ"ט
יכר
##מוכו
דבאי
ביאורו
והבנים
וגרסי'
זכים
לעשיר
בעוה"ר
לקנח
ודבור
##צרין
שנתבשלו
ובטלו
מעבירה
בתרוייהו
ומדבריו
דלהבא
מתריעין
גיע
דמערב
##ינוה
כיור
כדמעיקרא
הסגר
דנילף
##פילתו
ובצד
מגבינן
נוטע
השוו
נעמי
##כרונות
וטריפות
פכ"א
זבולון
##qr
מדע
דחיק
יאכיל
והנשים
וכרבי
שמורים
איסי
בקלות
בנודר
הצב
קעה
באחרת
וחדש
דתרו
דפסולה
ירית
ומדין
באדמה
החובה
לאחריהם
להטפיח
אנסוהו
חצוצרות
דקיום
מרחיקין
והפך
בחלות
##ביץ
ריב"ב
ליחלק
הוראתו
שהצדיק
שהפקידו
מקנח
יצוייר
ומקריב
שיכניס
משלימין
יולדות
נגה
שבאין
הורגין
התהלך
##gc
אחיכם
לשיר
מרבינו
קורבא
קכה
##jf
##15
תוכחת
ממשקה
יאסרו
נתייאש
בתעניות
רמון
##ולץ
והפקר
כתלמיד
לטלטלן
בצרור
צובע
הש"צ
והקריבו
קצ"ב
ביבנה
השכחה
מצדד
דידעי
להאדם
הוספת
יתחייבו
עסוקין
שהראב"ד
המכריע
שבדק
לבטח
וקריאת
מלאכיו
לנדר
שזמנו
ליטהר
המפ
##וננו
והוצא
חותמות
בגי'
תזבח
פולטו
פושט
יבקשו
שפתו
שהוזמו
גמ"ד
רמאות
ההויה
דעור
דנגעים
המוהל
ומכלל
פרהסיא
כהלכתן
עיקרה
מקילים
הנופל
ולשמואל
צפורן
קפץ
העורות
לקלל
נחשוב
להעמיס
בדרשה
יניקה
meal
גת
למקור
שיעלו
בתרנגולת
הגרשוני
מקרבך
##נדריא
yash
מהז
דהמשנה
התפירה
כדק
ספ"ב
בדלת
כשיאמר
לתן
שיתע
במגן
mealfas
yashan
תלמודו
כתיבתו
סרכא
שיעבודו
##מוכה
מזומנים
עסוקים
אודיעך
כרה
כרית
קדום
וחשבון
ביצא
בי"ב
שיכירו
שזורי
מישת
פכ"ה
##פולו
ואירע
מוזהרים
מכנגד
השוגג
##דבקו
למרחץ
ואוכלים
שיוצאין
במוד
כ"נ
##ie
הגנוז
דכתבתי
שידבר
שהולכין
לשיטתייהו
ד"ר
##gk
##רנא
ולשאר
יונית
הספור
כהו
לרבנו
ביוסף
משתדל
וירק
למצותו
עפ"ז
גיו
##ד"ב
שהתובע
בלוה
##j5
שישל
כפשטיה
=,
לבריה
מצחו
ליסטים
שתל
חולקת
ונחלה
בטבעו
##חינה
דמטלטלי
לנדותו
הטריפות
מטבל
ובפ"ב
עבודתה
הוזכרה
כריכות
והכה
והוס
מע'
יחתה
לזריקה
ובמנין
דטענינן
מלקט
שיודעין
מתפילין
ולהוסיף
דהגמרא
דיחלוקו
בזמננו
דוש"ת
המרים
הגרסא
להעמידו
ופועל
##נוח
כשטר
דספר
לנדור
נשאלין
מפסק
נתוסף
דאשמעינן
##תימתו
הסבלונות
הזוהמא
##דליקה
משגחינן
דמלת
ויגע
דשרינן
מעלתם
##יקולא
זיווג
ar
לפייס
אביון
אבמה"ח
בק"א
ואסורין
דאהני
משכח"ל
עליהו
ועבודת
ותיקון
תעבודו
ומקצתו
דקאמ'
##qp
67
שכהן
##io
##ערובת
שב'
הילל
דטעות
האמר
ולדון
##רתין
מוקמי'
הדברי'
לשתים
קאמרה
##יתוח
ואלמלא
פיהו
שמכאן
הלכ'
כשדה
פשעו
נוקפו
מדאוריי'
הנגלה
##נותה
הריגת
מלוני
והמעות
בראותם
כוללים
ולר"ש
בכותח
ומזון
הבטח
ושעל
לגריעותא
כגוי
##שיבא
חסירה
החומץ
דכשהוא
חרוץ
##2x
##ושק
או"ד
בשכלו
כשהו
ובמקומות
##בררה
הר"ת
וחילו
המקילין
להציע
נקדים
מכרם
מצוך
ומשפטים
מבוטל
מאתם
הטילו
עניית
לאח"מ
המלכיות
בשגגת
סיס
##nz
בהתר
בזמה"ז
לדעתה
פשוטי
תרנגולים
יציאתו
##ay
##יבוק
נקטי
דאיתנהו
מנסך
מיבם
להימ
דאא
כדמי
להתגלות
ראשך
דז"ל
יאכלנו
##nb
דמני
כדפרי'
ההכנה
דבאותו
והערב
ומשמעות
תמימות
למעליותא
היי
לכסף
סידר
##סדים
שהלב
פיינשטיין
ולהשת
##נקבה
דשלשה
תופסים
ובגו"א
דצו
הבינותי
##לייה
בתורתך
שנגנב
ריחו
##דרן
כדבעינן
מסע
לגדולים
משחיטתו
ואנשים
חו"ב
לכלות
ערבא
דתקינו
ועיני
נקמה
היונים
אשריך
סהדותא
שמרן
כעולא
אחראין
מוכה
כדיני
כהת
למדריגה
בפירושא
מאכלי
בעודם
דלולב
רס"ג
דמוד
בקדשה
אדונינו
לשרה
בא"ע
מעריב
קטינא
נגדם
שהעמידו
חשבונות
שחיטתן
השיא
מדהו
הה"ג
שבגמרא
מתוספתא
נלק
מהמע
אלפ
לכלם
קדושתה
אומנותו
מאתיים
יאסור
ירחיק
ונתר
ששתק
##שוח
##רובו
מבעו"י
בנוב"י
דמוכרח
סגן
בליליא
##ידוד
##קופת
למיל
דמזונות
##בדלת
מפרנס
המשקל
##פורט
דאסיקנא
לגאון
ינהג
##v0
כפרתו
##ועז
ושבים
סחור
והלוים
ומדאורייתא
דחוב
##טמאו
אר"ש
ער"ה
לאפטורי
לנסוע
דדש
##מידים
שהתנאי
שהשכיר
הנשרפים
הנותנת
יכתב
לארוס
דנבילה
##ועא
ששומע
להביט
דכוונתם
לתלמידיו
הנמשכים
מבי"ט
דבהו
בעבוד
ודינא
נקנות
ועד"ז
בבחינה
ליראיו
כשירצה
רמ"ד
רחיצת
מהרהר
במכל
אדעתין
##r9
##פשין
פירותיה
ונתקיים
השאור
להשליח
מהעיר
משפ
##דייף
שנכ
בתנ
בח"ה
בקרובים
משליח
דשכר
וראשית
וירצה
ודוחים
רוחניות
סגנון
##sl
##14
ול"ג
שבשוק
לשינוי
מיסוד
דעתין
במציעא
ונ'
לרדת
כתרומה
שותין
לאחזוקי
הירקות
##ג'י
שנזכה
הגיר
שומעת
מעדני
צרוף
קורת
ואכילת
אופה
וממלא
לשמירה
ופטר
ממשפחת
יל"ע
קובעים
##צחו
##כחשת
לסעודת
שמוטל
ופרה
מועילים
מיעוטו
חוטאים
חשבה
טבריה
עקום
במחיצות
ממכרו
שהעביר
אכולה
tor
מהכ
שמעלה
דרכך
ההכרה
שמוכיח
לאזניו
##יליא
אי"צ
החרבן
שהתרו
##נבאו
אשתבע
תביעות
ימיר
ימסור
ביבום
להשתחוות
טיפין
באורים
##יכוב
למנותו
דמצר
הגרלה
בתוספ'
שנזר
תלבש
דשליחות
דחזיא
ותרתי
שכבשו
שהשלים
שעיניו
דעובד
##ערובות
ומעלתו
בסד
וחוה
נרצה
צואת
והבת
בחלוק
ובה"ג
בבהמ"ז
ייבם
##ילותא
ולדה
השן
שנפתח
בסמ"ק
לדיר
בבינונית
בידא
קמי'
העבדות
מסכתות
הגברא
הזריעה
לסלוקי
נגבית
ספוקי
בלבבך
שבבבל
##m4
מהשי"ת
חונה
מתעברת
הנושאים
וליק
מחולין
שנאכל
שובע
בכא"פ
והקדיש
דאתח
##בליע
מינאי
לאפרושי
ואסיק
הפלפול
איצטריכא
קנאת
טו"ב
##ימ"ל
פליגין
טביעות
סמנים
במימרא
דמע"ש
לאשמועי'
ביניכם
הסיט
ויקראו
הזווג
סופג
לצייר
##חתי
בהוריות
שנקב
המערבי
נזקא
##תבייש
לתלוש
להניחן
ביער
לקרבנות
כרצון
המדורה
קלון
לגמר
חכ"א
##עקר
##2c
דאחז
מהנהו
של"א
מזידין
קיסם
שהנפש
צפה
דבתוך
מתרומות
המשפיע
להדייא
דמם
לגת
כחן
##az
דבענין
כדבריך
זבת
##כויות
והחר
לכלוך
חימום
המקצת
תחוב
##קדשתי
הטרפה
צנוע
וכפירוש
לגמ'
ומדכתב
חפצה
להשאיר
לאפלוגי
נזכרה
עפרון
לפוטרה
דמכשירין
מציע
גדילים
הטחול
##שלומים
צדי
##t0
ואודות
ידי'
בטוי
במסגרת
##53
וכג
בתירה
מייאש
ההן
להוצאת
כשהס
דשאלה
חפציו
ובנימין
##רוז
##קדקים
בצלים
נעביד
קפילא
לקלקלה
מספיקין
ההתראה
באלהים
צרו
##ותני
מהיכנו
דחידוש
גירסתו
כששניהם
נבדלים
מטילין
##ככם
##רימ"ט
והחל
##שבין
לחשוד
בונין
וגבוה
קמג
ממעי
עצמותיו
וצווח
##פדו
דמחובר
תחלי
המדולד
המורכב
מזבחי
משתתפין
חרה
##p7
##דתי
דבסתם
ואו'
ואוה
כאותו
לקוחה
למשכב
הקודמות
ההוכחה
דגרי
הטבה
כותבי
שהנתבע
למקצת
תעו
שהקי
ממזונות
נתקנו
קמץ
והכבוד
כ"ף
שבדור
דמינה
##יחור
ונכסי
מפיה
שישתה
דפעמים
סימניו
מגלות
שתופס
דפק
זרח
##tf
ממשלת
ויתא
דהעד
דמעו
הלואי
הוינן
חורי
אדינא
דקושיא
שענה
לגמגם
שקנתה
ואשכח
חילא
וגזלן
הכוללת
ומחויב
מאישות
##כותבת
ודרום
ושית
והשמן
שבכלי
יצטרף
במצורע
יוליך
כנת
במזו
וגבול
שעתידין
תטע
ורשאי
ריבות
בברכתו
נמשלו
שיטעון
שלדברי
גולל
ותפארת
דעליה
משתכר
חמאה
הכינוי
ופלוגתא
זכרתי
בשאינה
זקיני
ועיינתי
שאחז"ל
דראב"י
הופיע
קפח
רואי
##רוכה
במיא
מאבא
##חוטי
גופים
קניתי
להערים
דבבית
הדלי
מוזהרין
ומתחלה
לד"א
מזנה
ולדרוש
ובראש
המושג
אתת
התשובות
אלמנתו
קלז
##עבדה
מניחה
אריכתא
בהעראה
בגרות
וחשבו
שישלים
שיגדיל
מסייעין
אקשינן
במדי
מתעלה
ולהקל
והתר
מכותל
ועזריה
הרמב'
##60
##ורדא
שונאי
שותים
שרובה
הדיוק
מתניתן
קנקנים
דאכלה
ולבדוק
ליהוה
נימוק
קדושיו
דמקצת
לשייר
70
אזהר
דאנוס
שקנאה
שמעמידין
ופגע
דמודו
##רביץ
האורח
וביו"ד
בתיקונים
שהגד
הע"ז
וימכר
##רעין
##ולדתו
רש"א
מתחילתו
נפלאתי
אמצא
תלוה
ונפסל
בשליש
##צטרפות
##יתאי
שנטבע
מחברים
ובהת
ונתערב
##חשך
במרום
תמ"ח
ושותין
תפוחים
שמסתפק
לחנם
נכריות
בזמנים
##משמעות
מהראשון
אויביהם
##p9
##לאכים
וככל
##רוני'
אתאן
מעטים
ונכרי
יהרגו
ניכרין
חורבה
וכסא
שהנח
משחת
הקו'
ופורע
ומרים
דנהר
מתאבל
דנפיש
וצאן
##ייא
##יחין
מדחי
דחובה
מפקחין
לאשם
וכמו"ש
פועלת
עניבה
שצב
שהעו
בשנוי
עוג
הפעוטות
דתפלה
כתלוש
לטחון
כעדים
בהתראה
לבתולה
שהפסיק
ונתרפא
ומכירה
בדאית
דעייל
גייז
שורך
##קבו
התחדשות
וקרקעות
ההסכם
ישלמו
פנ"י
דמכש
ממ"א
שחושב
די"ב
קטיג
##ימנו
כתקנה
הנכנסים
ה"
למנחות
הגס
נחשון
מדאו'
שנדחה
בקצור
היל'
כיוונו
כשמגיע
רס"ז
גנבי
שפלפל
##קדם
##בלבל
ארצי
מכחשת
לעצמך
בנסיון
68
דהוקשה
ומבושל
עשהו
שתייה
לבהמתו
רופאים
##יעון
התמרים
שימו
יעשנה
וציצית
ערק
מהקהל
הבני
לח'
דכ"א
מכ"ד
דיוסף
מחמשת
בשוא"ת
שלו'
במזמור
להעני
דאבל
דמנח
ולבוש
רי"ש
החמישית
פשתים
##hx
ואבא
שבחוץ
חיצונה
בזהב
לברכות
טומאתה
מאחורי
סיכ
בהפסק
דב"ח
הש"ג
ליפסל
חובתם
ממוצע
אמונתו
לשליחות
נפסלת
ליחוש
אמצעית
להפרע
מלכם
לאוצר
שבויה
הטפה
ציצין
צוה"פ
##65
##קתם
##בריות
שנייא
יקיימו
פחותים
שא"מ
##ישרים
הקושי
עד"ר
אלג
לקדושי
##ביבות
בשמונה
בחצות
הזיד
והעלו
##יקריבו
##gx
שהחל
דאמימר
מק"ט
שחיל
עבירת
מיתתה
שילמדו
שכ"ז
בקורה
דמהיכא
לפסלו
קע"א
יחללו
החרשת
טענותיהם
ממקומם
זהירות
בפנקס
בוריו
כה"ר
מט'
תכבה
בקרבך
לאיג
להפקיד
להדבק
ובמ"א
הששה
בבעיא
ויתעלה
הגומא
זרועות
לאכ
דחמור
שחז"ל
אדיר
נבואת
למלאך
באיל
שקיעה
ויבטל
##wv
שהכריע
הגחלת
כתיק
נבון
אתערותא
##ינתם
וכלאים
וכבש
ובכח
בתירוצם
ונפסק
אדמון
פריעה
לקבלם
הפקודים
והצילו
לדורותיכם
דבפ"ק
לשורפו
ומפרקינן
##kr
כשתב
וסותר
למהר"י
##ונשים
סברתם
ולהחזיר
##sx
במישור
כסלע
להסירו
המאכלים
כברייתא
העקר
הקלה
לשע
כשירים
זבנה
##שתהה
קע"ד
חיסר
בצואר
בהבאת
פעולותיו
תבואו
תועבת
דתא
##a1
מחלון
מאשת
בכן
##ירום
נתתיו
יעבדו
##63
##לי'
כשישראל
מסרב
דישה
מזוה
הקורות
בב"ת
לגנאי
שנישאת
בראתי
ובקשו
מקילינן
##מי"י
יש'
דרה
מפראג
דרבותא
הצטר
במשכנתא
שתבוא
דהראשון
ניער
##iy
לכולה
וגירשה
ההדס
המתרגם
ושהיה
דקדשי
הקנינים
בתלתא
טוביה
מגט
שיחזיק
##נגזל
הבהיר
השי"ן
יקדיש
ובכתב
בבתו
שייחד
המהפך
אדוננו
יביאך
אויבים
##צבה
##2q
לאסוף
עלילות
משוא
יצירת
שסותר
ויל"ע
פטירת
בהיזק
התורם
הגירות
לפי"ד
ימינא
אפומא
תמכר
ומקח
שנפרש
הראשוני'
במלכים
בלעדי
והמוציא
הסליחה
לסת
ומביאים
בארה
יקרת
המחזיר
##ר"א
שהזיקה
בראו
וכדפי'
יי"ש
מברא
בחמשים
בנבילה
הנזכרות
אריח
עמידת
##lv
##מאכל
כתרים
השלשים
##סו'
שלילה
אוז
מעוט
דהול"ל
מ"פ
מלוקח
נרו
ושמעת
ההרוג
##קאות
ריקן
לנטילת
וגבינה
##עודות
כדגרסינן
אוכלה
שטת
השכנים
לבייש
דבכ"מ
הכד
הצמצום
צריכינן
משאיל
##ברוכי
הוקשו
פורעניות
התנופה
ספי
##p3
בש"ש
משמואל
השחי
שבתחילה
מעושר
לקנוס
הועילה
##בתיה
מפרשה
המקילים
שפ"ד
ותחתונים
שבדקה
##יהי'
שהובאה
##רבעת
##טו"ז
כמצות
כתרגומו
וקבעו
מבליע
דבכולהו
לחנוני
נעדר
שנקבר
ההלכתי
כיתי
ואכילה
מחומר
המונע
ופניו
דהרמ"א
תורתינו
האורז
שיגיעו
זמירות
ומזכיר
כדכתי'
האוכלים
בפלוגתת
ימהר
##bz
##נוי'
ברצונה
שתפסה
קללות
##כשיטין
מתכ
בחפצא
חי"ד
להמנע
והמאירי
שלקה
הנו"ן
גמרה
מתייש
ולתרץ
##עוררות
אזנים
סמפון
שיסכימו
לנסות
תרבה
והחלב
לשמח
נשותיהם
כשחוזר
השום
ויקו
נסי
##t8
מחית
דח"ש
כהפקר
טפילה
בחצרות
רכוש
דעבדינן
דהשוחט
##חלי
שבשאר
מקנא
המשחית
תגרע
וריטב"א
מתחלפים
ותיבת
שכבה
תאסר
מיתתן
##nu
##יעורא
התמורה
ממקומות
ביו"כ
כשנולד
אפרע
וזבה
##פיקור
ובכלי
רפ"א
דבימי
לאוכליו
אשכחיה
דמדקאמר
קיומו
לעפר
בדר"ח
ונשיאת
קצה"ח
הכשרות
נשואות
שיודיע
דחשיד
לדרי
אבנר
ותרא
דמהר"ם
להאב
גרעון
ישאלו
חנא
תסת
##פוף
וכנסה
וגדל
לראשי
הנאסר
מדוחק
ינהגו
##wm
ועמש"כ
שקץ
ונקדים
פכ"ב
ועשאן
תכה
הש"מ
שנואה
וזולת
##פוע
כסותו
ולבקש
באחיו
תדור
דהדרא
##פידין
##hq
ועבדי
בס"ה
דגמיר
כבוי
##זירהו
בבדק
יירשו
ומגן
שמ"ח
והאומר
במחשב
צועק
חבוש
דלדבריו
ומפרשינן
מלהיות
אשאר
בטבול
רמונים
הכינו
שישי
דחזק
לצעורי
בלישניה
צוא
ואופן
דאביו
בגחלים
##חה"פ
חולבת
ומעיד
דהשני
בפי"ד
השררה
למיהב
חפירה
##מביא
בלשונות
דשדה
חלוש
72
ומוא
ומיא
שמצאה
הדעה
הפתוח
##עימים
חשיבה
נתחלקה
מתבייש
חסה
##מלק
ומ"א
מתטמא
דו"ה
##יקונים
חתמנו
רואהו
הנגעים
לנשמה
לנענע
אממונא
להקרא
##7x
שעמו
שמעוני
לריק
פכ"ג
שמלבד
הסוף
והראשונים
דאיבעי
##גליא
במעשים
העדאת
##40
ומצו
ולישב
דבקרא
הפור
כועס
ששלו
אלישיב
למדי
מבקר
וזורקין
ידיהן
יתקיימו
מטהרת
לאמיתו
חברך
דמנין
לדרבנן
דקדים
ותקח
ימכרנו
הגמר
יתכוין
לסמיכה
עשויות
חלוקי
ואשכחן
מקדשא
לעיוני
ואלין
קצ"ד
ומחשבה
##דביק
בריאות
##דחת
##ילינן
והוסיפו
##מאתן
הסודר
דכללא
הצינור
ובמשא
נתחייבתי
ואונס
##pf
והכרי
כאשת
כמוכר
דעיקרו
##נהגות
גובר
דמעשרות
בפשט
ועול
שוכח
דופי
יחוייב
ענינה
קבלוהו
להתחזק
ובשביעית
##מנ
##יכוון
תכנס
לפשר
##פותחין
להתרות
נה"י
רובץ
האומנים
פלתי
אמותיו
וחומץ
קרוע
##רשי
##זז
בהשבה
##סתבר
וקראת
נטי
תוא
בחשך
ושכיח
לראי'
נפלים
אוקמא
הכתלים
זש"ה
יפים
##לפו
שאמנם
##פשטים
דמהניא
בחררה
להשקותה
וכ"ט
החזון
ליהודי
מפולת
צדדיו
##רגיש
והגמ'
מאזנים
השואבה
ז"נ
בהכ
במידה
הש"ל
שבמד
נגרע
פרוצה
בהגדה
נכסי'
נצוק
חקירת
פורח
גיס
##מרך
שהוי
החמין
מאבר
ורשע
ושכמ"ה
הבתרים
המשתמרת
שיורד
חליו
מנורת
ומסרו
ובזבחים
אפוטרופא
שאבדו
ובבהמה
בב"נ
למיק
כשהביא
ומשך
למתלי
מסייעו
##שוע
ומשמר
כבתחלה
קס"ב
שתתגרש
בחברתה
שהצד
הזהירה
טרו
שכה
##באת
המרי
לעשו'
שמקרי
##מתינו
החוקים
ההפך
דספרא
שתכלה
##סהיד
ביומי
סע'
מתענים
תשוב'
הוצרכה
69
איכות
ימנה
כאיסור
ולשא
בתשלומי
עבורה
וידחה
##תחילתו
ארובה
צדקתו
שיסמוכו
ברבו
דבלי
##נקת
למין
לקריאה
ושכירות
יקד
ונבאר
ותענית
דחופה
תאוות
##בטו
לאיח
עקביא
תריץ
ומחלו
שיכלו
דדומה
##ואי'
וקש
נשען
לטמאה
ולדבריהם
אופני
דעוף
והאור
רע"ג
זרעה
שבלבו
גנבים
מלבושים
ישמש
לחדא
איבוד
שהוס
העוה"ב
מעובד
מוך
וקס"ד
דעתנו
נגעי
לאיזו
ונהרג
ולטעמיך
יזכר
שהקטן
המעורב
שיבוש
הקרנות
מבריח
נבראת
##בינו
##גיה
בליקו
תקלל
לנכות
ולעו
בגרה
שיגדלו
הכלבים
בפנימיות
זכותם
איקבע
שהתב
וד"ה
שע"א
בפירושנו
הנעשית
##ובץ
בתיובתא
חיבר
כהמ
וכה"א
חריפתא
תשמעון
דבכורים
##זנא
דאקשינן
##כתין
רצופין
מירתת
שרי'
##קימת
יראתו
לברוא
לטמאות
ולהיפך
##צירת
אלשקר
מארעא
ההגהות
דש"מ
חדשי
מיושבים
נופלין
שהעבד
שלמו
דמצטרפין
מתרין
פרחה
השתמש
לות
עיט
##62
לאקנויי
שגופו
חסידא
ופרס
לאיניש
##נ"מ
##יתך
דהו'
ועצו
אמיתת
מחוט
בענבים
##dq
##ראנ"ח
הרבינו
שתלך
ארצך
שמחזיר
גללים
שריבה
דלמעלה
למוכרם
##רר
##dx
בהלו
הספל
לנכרים
דבתרומה
##מעוט
לאוכלם
סדק
מהכתוב
רבם
מעה"ק
שנפסלו
גזילות
##מנותו
דיקלא
בהניח
דלפירוש
ודיבור
באו"ה
יפרעו
טלאים
ספסל
##neh
מכגריס
לזבוני
שזכות
מטעמיה
ויודעים
מופיעה
מהדין
בש'
בעצת
ונזכה
##גלד
שפתיך
ומיעט
דהנו
למ'
##by
שאגת
אתני
ליס
וסלקא
לאלהי
ששוב
ואבות
אומץ
פשעי
עזריאל
דבמשנה
אפה
כהיום
ונתתם
ובספק
נטירותא
שהחכם
שאסורים
רת
##יקתה
##כולה
תתקבל
דחיית
דהל"ל
כמסירה
מפאנו
כובש
נסרים
השינים
הגופ
דנגד
סי"ג
עורה
##צויי
מעדים
לחין
ההבדלה
בפרקי
ולהשיב
ששחטה
ביהושע
מצאת
לכתובות
בגז"ש
##ריבן
##ינאי
וכנס
וב"ב
הלמ"מ
מתרו
מכורין
נמסרו
ומנלן
וקשרתם
יגלח
##ך'
##תוי
ומקל
דיס
קו"ח
אסרוהו
שהתחייב
##גדלה
##וגית
שרואים
##ענוגים
##פוסקים
##לכת
וכלב
ששור
יכבה
ושול
נתרו
נתיאשו
הפו'
הנאכל
יהויקים
זיוף
דמרא
אתיין
בחשאי
##כסא
וטול
יתבטלו
צידד
עלויה
ובריא
מסלקי
לר"פ
במום
##נוסחא
חורבא
ישימו
גידים
עריסותיכם
##hc
להעיז
אתח
לכיפה
בכלאי
בטי
זקוקתו
הפריעה
במעותיו
השפעת
יות
קינוח
ולישא
שעריך
יתורא
וס"ת
בשוכר
לאפקועי
וכדאי'
עט"ז
השכלית
מצורף
בחיה
שנתמלא
תזכור
בספ"ק
סכנתא
תרבות
##47
מאילו
פרחי
נסק
##לנו
##בע"ח
נייחא
דהש"ך
בשיעורים
כילוי
נבין
##חת"ס
##חיצתו
והמקבל
נסכא
בהוציא
מצוים
##וני'
מהותו
בשגם
ישפוט
שבילין
שהאש
תבואתו
מבקשין
זוממים
קטע
בפתיחת
##כתך
בעיירות
דזאת
היזקא
מה"ד
הבז
ודרישה
להתעלם
משה"ק
תעלומות
במומו
דניתן
קפה
האפוד
מהארץ
שהוזכרו
בשאול
##טרן
כרח
נזירים
מחמצת
דשחיטת
זימניה
קצי
##hk
בשמואל
מערים
מגבה
ומתורץ
ישועת
בהליכה
##דני
ובפסוק
בערבה
כותי'
זכויות
ממונים
יודין
עריפה
לחתנו
נושאת
לוב
בביעור
בראשה
יגידו
המבקש
הדבורים
זעירי
בשלי
לעירו
שלוו
##לותם
ידי"נ
וסומך
יצליח
למראית
דבקדשים
הכתובות
איכ'
גבהו
להשאר
ונדון
הוזהרו
ותקנה
ונתגלה
המאמרים
שהר"ן
שימסור
לשתיהן
ריד
המשמעות
##ימם
נדבת
דמחוייב
שרומז
בטחון
בהבדלה
לעובדי
אחוזת
במתניתא
רכים
ומפרי
פריק
הבהרת
בלועה
משובשת
טמיר
ק"ץ
להליץ
ולגר
במעל
ועדיו
ונשארה
##תיות
דשמן
שלחתי
כשבת
רעת
לתשלום
ששילם
שטבלה
יהוידע
תכשיטין
צינור
תפר
מהיקשא
משעבדי
ודבק
בזמנם
אילני
ונקיט
דאשתכח
##bo
הקטיר
בדת
##סתני
בליעה
מזויין
דמהימ
ליבטל
דיתיב
מדיח
לצי"ש
##i1
ומזונות
שעסק
וספיקא
לעניננו
וללישנא
ינתנו
אלקות
##חרה
ונתערבו
מושיע
שנטמאת
והתלמוד
ומכ"מ
מריח
שכרות
בבאור
דאשכח
##w7
הסבות
דידים
ימל
שנשים
בפנ"י
##סימה
שסביב
ליליא
חמישה
ד"ש
שהקד
ישינה
הפשר
אשתני
פלפלין
הלוח
שאיפשר
שיזדמן
לשלוט
דמכירה
ונשאה
היורה
ורמשים
שבא"י
הדביקות
לתיבה
והנ"ל
לידך
לידם
היער
שישובו
ירעה
מיו"ד
דלדינא
מחלקי
לתחלת
##ר"מ
ואבירם
שמכחיש
העש
מתרגם
הי"מ
שדנין
ניח"ל
לבדי
הוצ'
נתכפר
לידתה
ישבתי
מצרנות
וכוונתם
תתחתן
הלוק
קוס
שירו
##gl
##שכות
שנפשו
לשכל
בלול
מדברינו
האו"ז
שנשאו
מיותרת
בקרבם
נטויה
וחלוצה
השעות
מבזה
כתוב'
דהשטר
נבדלת
##מבי
שתולה
דלהון
ישכיל
שמותם
הדרינן
כשד
לתקון
חשמונאי
שיוסף
קצ"ג
אמה"ח
הפורענות
דפש
חוקים
ייבום
לגודל
נפיל
לירח
דבסימן
כגדול
##קלוס
והתני
בחתימה
דקמא
נדחים
אבוהב
ושותפין
שיקו
באוה"ת
בשמיעה
אדשמואל
שהרוב
וממ"ש
אליל
לכול
לישועה
בכסות
עוקץ
הק"ק
קצף
שיחת
נפסלין
##2l
משנין
##יעותא
בחיקו
חנטה
מלוכל
והמן
במדרי
העזה
עצמכם
הרהר
מייתינן
יזרוק
##בנת
שמביאים
בתחת
בתד"ה
דקט
כבול
רחבים
המהלך
ובערוך
אלאו
באסור
למהר"ם
שנתגיירה
גריד
ואשמות
##פשייהו
אחולי
לרבותינו
חבילה
הבתולות
דנוקבא
שבישלו
חינא
חודשים
##ne
##מוחזק
תי"ו
ולכבוד
נזכרתי
קונמות
להסתפר
קרוש
וממעט
ודקא
##פילא
הרא'
##גרם
פליטה
השרש
תטעה
##סחת
להשא
האזרח
במזל
דשקל
ובמס
ולעבור
סליחות
##גלויי
העקידה
בזרעו
ושרה
צופה
שתובע
באמרי
מדינת
אכילות
לט'
השאיר
##זרעך
ומצורע
גלויה
למקומם
##2k
משילין
לחוק
פר"י
דרכינו
מכבודו
שימה
המעמד
נטל"פ
בפט"ו
תחנון
##זיקא
מלמדים
בכוליה
מלוניל
65
##n1
##צצין
להטע
בסר
לשרי
דלחומרא
דגופו
ואתנה
המעידים
טפת
##j6
המיר
המשוד
בדה"ב
שתקנה
לצורכו
בשאלתו
##ממים
האלוה
ועתו
מתקדש
מוט
ורואין
מזד
לשבטים
וערך
ומגוג
ניצוצי
ב"ו
##יולי
הכוהנים
להתעורר
לפלוט
אפיקומן
כסתמא
##0x
ובכור
בדמיה
מניומי
נגזרה
כדר'
##8x
שמיר
למיהוי
##ירוגין
נשמתא
פליאה
בכתבו
דפועל
אתינא
במסר
בגני
שמאלו
רפוי
פ"ש
##zo
והמז
שהטומאה
מתלב
וחיל
הפודה
טובך
בקטנותו
שעשאן
הקדימה
##ייות
לקיומי
אשירי
חומשין
##סמכתא
לווי
ישפוך
לשבועת
עיכול
תיט
שנקבע
הגליות
בל"י
אהלי
ברשותא
ומחוייב
ונאנס
הטורי
להשביח
דנקטו
שחסרו
קנהו
לעירוב
##כמתא
##ברתי
לכלה
תונו
מחו"ל
דאסורין
קפצה
נותנה
נצלה
of
ובצל
בארות
הקשיתי
לשמך
כשנע
והמקדש
פרוכת
ולומד
מפקי
שנקראים
סוגייא
שנר'
בויקרא
דכמאן
אלהא
כתקנת
נדחקו
קצ"א
שאלתם
שפסקה
##תחומין
קלוטה
שהניחה
הקפידו
שזק
ויזהר
וסימ
מבלעדי
רכיל
התקו
##כרם
מלעיל
בנבלה
יקרות
חלוף
נזרק
ואדוני
לחלות
ות"ל
ולהכניס
במשמרת
שטעון
ועוז
דליח
##מנונית
אוהבים
אמצעים
דבסתמא
לעזרת
מתורה
דקול
ורפא
ובה'
שהאומר
לאשכוחי
הגלגול
לאומרם
שילמוד
תפרש
לאחיך
בשחט
איור
##בה"ג
ההסבר
שיורא
הזיעה
נחם
והקרב
באשכנז
כמבאר
הסרסור
ספורנו
##צוב
דא"ח
שמסתמא
נאבדה
קס"ו
מתחתיו
המזיקין
חביבין
ליאסר
##דינן
במילוי
לבריאת
בג"פ
דסמי
שחקר
לתרבות
נפשא
##ימלך
והרדב"ז
שמשתמש
דניחוש
לעסק
יהדות
##אמרו
קושיין
ביושר
הקוץ
סה"ת
סליחה
תרא
##3l
##גוזים
##מסמס
יפסוק
שהשא
ומנחות
ות"ח
אשתרי
##נענע
צאנו
בתולדה
מחה
לשעתה
וחתך
ומה"ת
##טבעו
דמוסיף
##ידיו
דביו"ט
החקים
שוחטים
הסנה
דתולין
הנמנע
אחשביה
##צעה
הדקדוק
ואפיק
ניצוק
כתיקון
המחוייב
ובעוד
##שיל"מ
פדיונו
תוספ'
הכוונות
ואהיה
האזל
ובמים
הכנעה
בגברא
עוצם
כנש
ריבויא
בבריתא
להנאה
התשו'
מנהר
תמנע
והעושה
ומפס
דבברייתא
דפלוגתייהו
כשאני
משפטית
לביתם
קנסוהו
##מיטה
המדריגה
דהכ
ומגיע
ולמזבח
הגנבה
בוער
מיחל
הוקם
שלשתם
ולשל
ידיכם
יעננו
גומל
דמקודם
מהראנ"ח
באומדנא
דחת
והנא
שהפילה
לדיוקא
וחרב
חדו
כרובים
##ווה
הבצק
מיבמה
נלחם
התרי
מצודה
יורינו
נתמעטו
והתוספתא
שלטון
ליצירה
נקשר
במהרי"ק
שנתת
קיימות
אדר"י
ברחבה
##כורא
##פעות
##סקה
##4l
##ילח
הח"צ
כשנא
##סרח
קבעי
שבגלוי
בעומדת
הביטוי
להיכנס
בדרב
ששחטן
כשאתה
והכלים
חוצצת
בתלת
אשתמיט
להשמר
דהמוציא
זמרי
##dc
##3q
מהמח
לשעות
דהמעשה
למכות
לבקרו
הדרום
מרעה
נחתום
לנפשות
קרנים
צורכי
ורי"ו
מעמידים
המשתמר
טפלה
ובתח
דתר
הנהרות
חזקי'
מכיסו
ואותיות
שמתפללין
דסורא
##ורדים
הי"ט
כדתני
תלם
ביהכנ"ס
למזון
משמרתו
לפלוג
בשי'
דבתחלה
הגיטין
הקיל
דרשב"י
לדיינים
##4w
הגמול
ויורש
שלוקין
אנפשה
ירויח
בנוסף
לשוחט
מנוקה
ועבדיו
מאורסה
זכאין
ויתה
וגבור
מגזה"כ
##קדשות
הכרחי
ונעשים
ושגג
בכש
ופר"ח
ומספק
מרבוותא
אפייה
הקרע
שישמור
##סיפה
נפרץ
צפונה
יעבץ
כקש"ת
אאיסור
במן
הוות
דחשו
יגוש
##מל"ו
והבעלים
ויטרי
צביעה
##ח"ז
שהזיקו
ומורא
לערוך
פרד
בגופא
לימודו
שיסוד
המובן
שירת
לידתו
ורש"ל
ונשר
מקמיה
בגבורות
דכתיבה
ויבום
שגדלה
פצע
והפירוש
בעצה
##דרשו
מחליצה
נפחא
נוציא
תנח
שיעורן
במרובה
משתחשך
להטב
##רוסת
אזנך
ירכו
דקדוקי
פ"נ
מאבי
נתפר
האימורין
ויכלו
להבעלים
בצל"ח
פכ"ד
ואיסורא
לרחמים
דללישנא
במפ
##וייתן
##שבורן
הלבונה
ומחזיק
ומחוסר
לבניהם
המשק
למיגר
טוח
הזהרו
והמק
נשארים
בטו"ז
##נשאו
וצריכא
כשליח
אמאן
##ורגו
דמפסיק
חיילי
מסל
יתננו
חלומות
קרני
מראהו
מש"ש
פרטא
וקנס
מסיי
כגזלן
הטיב
רפואות
ואדעתא
בריאים
דבתחילה
בראייה
התעורר
ראיתיו
סלוק
עטרות
##ז"ג
##ao
האלקי
התחתונות
דהאמת
סוחר
ופוס
דמתנת
תמצית
##יתורא
דהמרדכי
בשטה
שיגדל
השונים
והבח
שאילה
העלאת
לתתו
חומות
בריותיו
שיחי'
אשוב
##07
מעשיות
במבטא
רופ
ותקרא
שיגביה
כשהק
ואתרוג
במודר
##עתקתי
עיה"ק
ואמונה
ומלו
ובאח
הרוק
שתחלת
שהנכרי
גשמיים
אקח
##פאת
##פליגו
הזאב
תרצח
בעליונים
כילוד
שינויי
ב"ע
ומטיב
ובנין
צרכן
ומעירים
תורתנו
הסומא
הספרדי
ועומדין
ככ"ע
תמונת
חרוב
טמאי
##פצה
כתבוהו
הודעה
דבממון
בהולכה
תטבול
דבקים
ובהמשך
יתענה
כמוהר"ר
##ננין
והפו
שמטעם
##יעהו
קישור
מקמא
תפנו
מקריא
בהיותי
בשכ"מ
גדיים
##בטחה
אחס
משמ'
החתונה
כדכתבו
כשזה
ותשע
שיפסיד
כעובדא
לאשו
להנא
דהולך
מעש'
##בריאה
דקין
ויגיע
מלובש
קטלינן
ת"ב
פרשי
תבטל
קידושיו
הבחינות
ובמי
לעשירים
##וקם
מומים
כמזיד
השבירה
דקראי
מהלכים
הנתב
והתנאי
ריפתא
השתנות
השמאלי
##5l
##0c
לביש
וזיל
ליתסר
במקצתו
לחודי'
לאדו
הדד
דפטרי
כמשא
ירחם
נוסע
לאלוה
מהוה
שבלו
אחרנין
להכשיל
##ריק"ו
שנתארמלה
החתימות
##לקותו
שיפטר
כרמך
גופין
ופרנס
שהמקדש
להשיאה
דדהבא
המשולש
נושה
נשנה
מהאחרונים
נזקיו
ויבמה
##למידים
בבהמת
אלקית
מדאוריית'
דתני'
וזקן
שהשיגו
השפחות
דמשב
היהודית
וימש
והתרו
ובעולם
חלוצתו
יפרוש
ובחנם
שאסורין
לבה"כ
רס"ח
נסתלקו
דפירי
קניה
בשפע
##יכוח
העשר
העמדת
דלישראל
שוט
חוה"מ
בזא"ז
חיטי
##שולי
שהגביה
השנאה
איטר
##פסר
במקרקעי
שהנכסים
יהושפט
לינו
ובכו
לשד
ותלו
והשואל
ובתלמוד
במאמרו
דאסיק
התירוה
ומתפללין
בתקנתם
בשתו
איפוך
יוחי
עזות
דמתירין
זיזין
מיבום
הודיעני
##נדה
##צמה
##st
##צאים
אבעיא
עוון
איסורן
ברשותי
והעובר
הוכרחו
##42
שבויים
ונלענ"ד
המקודש
רשעה
ישתעבד
ושמחתי
ונתעברה
אסאד
וטומאת
דבילה
מרקד
שתולין
תשמש
כעסו
אונסו
דמעכב
בצרעת
מארצך
לילף
באמרה
החמיץ
##בדים
שורי
יכולות
לטפויי
בישן
שנגזר
להוריש
חיצונית
הסנדלר
כנותן
מחמש
ופורש
שמרה
##לית
לאחין
האבלות
##ויטש
הרכוש
לבנך
בדאמר
בפירש
דקרינן
מאחריו
##מינ
דארץ
תרכה
למרדכי
חייס
בהשגת
mish
##יטתן
שנמל
מביה
דס"ת
שפירא
גוון
דיוה"כ
וגדולים
קבורתו
##ny
ונכו
דשכיב
ממשנתנו
ששק
##רגז
והעני
אבודרהם
חבלי
##no
ונטלה
כדמת
שפוס
נרד
ושבועת
זויות
למודים
##חדה
התרומת
פס"ר
צאנך
השורף
##פרדים
ומצר
##מדוהו
##קהו
יגור
ואשמועינן
דטרח
דהנאה
כדרבא
להחם
שהבאת
דאסרי
לנגדי
##פ"ד
ואחי
אהובה
רותחת
התאוות
סקט
##נכי
##3k
המפסיק
ולהרב
הפסיקה
נייח
קצתו
תגנוב
מונחין
שנסתרה
פער
דאר"י
התמיה
שנטרפה
אסו'
נעלו
בעירובי
מרובעת
שאלתך
הפנימיים
מפקא
##v1
מעצי
הנותרים
פסים
בהווה
מסוגיין
ורעות
המשבר
טבחי
##רחב
##דקים
תשמט
מפיך
שיכו
חותמים
בטהור
תדבק
דבפחות
שבידה
בח"ס
דגזה"כ
##כתר
##וננים
ופרשו
פתילות
מראים
ויבקש
וחומרי
מיעוטי
נשבעו
חותכין
עורר
להיתירא
שהצריך
בקלא
יבשל
במחכ"ת
הקדמות
להשתקע
נסקל
##8q
מקלק
##חדת
ביסורין
שגלה
כשאכל
והרא"ם
אדרכתא
והציל
torah
ואשא
ומיני
לשחרר
ושפחות
הפשוטה
השניות
שמתכוין
ויו"ד
דחלק
אדעתייהו
קדוה"ג
דהוחזק
ומלואה
מניסן
תרעא
##קוש
דכ"ג
הראוים
##פלט
דחמס
כמקום
מטין
הברכ"י
בדבורו
רלב"ג
##ואג
החות
מקשין
שוי'
כנלפענ"ד
דאיסורי
ואח'
שירבה
הודעת
בעינייהו
לדר'
והשלישית
ממלת
כהרי
בהתגלות
ולהעיד
##פ"ק
##r7
דמ"ע
הקפר
בשבילי
##איך
מבגד
מרכב
דמהיכי
ליקוטי
יכס
##f6
בשטרו
##גולא
המשיכה
אהבו
ששגג
שהשמחה
אחוריים
ליורשיה
##לנ"ח
וממאי
שויה
##ירורי
לנשואין
נהפוך
דמוחזק
הערכאות
במליקה
לסוטה
אידחי
##כבא
כלבא
איסורה
ואסורים
מסוגי'
גמלא
##ze
להתערב
אמתך
הלויתני
נתרצו
מגי
##עדי
מפרכסת
דנהנה
שתמהו
73
שורין
מחזה
מחובו
ונדרים
דכשאין
שקצים
נוסחת
לטהרו
מתגלגל
לדינו
דדף
ולפחות
הקדשו
ואשרי
לנסכים
שוח
יעיי"ש
ובנדרים
ובילקוט
##fb
שמלה
ודחו
שבאם
ברוקא
וישראלים
להזדייף
מחזקתה
דפירשו
בפרש
תורי
וביו"ט
שמקנה
למולך
שיהנה
ויחנו
עשייתה
ועייל
מישור
דציצית
לשבוע
דהותרה
בשירי
הכוהן
בחביות
שקצת
ידיים
המאוה"ג
בהמתך
גובים
שניקבה
חלקנו
צאתך
כבושה
והכיר
לגבול
והקדים
אתייא
##שבויה
קפב
וחוט
חתימתן
עירי
מסדרין
הזהירו
שיעורין
ומוטב
יגעו
רעא
יסלק
לסייג
לרבן
שנתמנה
בתוקף
בהרחבה
חיתוך
ראיתו
כהונת
מחיצת
ומצאנו
שמקבלים
אשים
##וגו
וכ"א
מהמים
למינהו
הגש
##בישו
לסברתו
השל"ה
שיקריב
וידעתי
רפ"ו
יהו"ה
וניחוש
והחמ
את"ק
החירות
נתגלגל
בדלית
לחיובא
דמיחייב
יחלוץ
החסר
דלעת
וז"ס
לימינו
במוס
נתבשלו
דאכלי
שביע
##ילום
והרצון
נתקבלה
ויזכור
האזכרות
בתירוצו
כרגע
ח"ז
בחטים
מסב
כידה
##gw
##מונת
כלפנים
##יקלא
בקרית
עצמינו
ויורה
לרדות
דוחים
הטבעיים
מתקנין
לאוכלין
מפוזרים
עיש
רדי
##פשים
שהצריכו
באילנות
ברצ
בעלי'
שחוששין
חרמים
אאע"ה
בהקשר
קרים
שאיר
הא"י
מקטיר
לגן
##פלוגתא
תרחק
הששית
השתיה
ברכאן
בגשמיות
דתיקון
שיעוריה
דכתיבא
המסכתא
נצחי
מוצאו
צבעו
קשקשים
ועון
שכ"ד
חייבוהו
##צטמק
דליתני
איפליגו
יכרת
הבודק
מצת
שעורה
ליתר
קינא
שגל
##גגה
שלגבי
שכת
לאהוב
לתבשיל
תפש
##צלי
והשאלה
שבוש
בליכא
עונשים
מגירושין
ללקוחות
אשתהי
דשא"ה
שניתנו
הציור
עוסקין
להמלט
אפכא
לב"ב
ויך
ופיו
מכלה
יאחז
שליחותיה
מרוחק
במחבת
קסז
למטען
העורף
גאות
קלוש
היהדות
פרסי
דקחשיב
תרעו
דמשנתינו
פנקסו
מעינות
בחושך
החכ
שקרב
דתצא
באלול
והשוכר
הת"ת
אכזרי
רל"ד
ולט
השליך
מסבלי
דנשא
דפין
הוצאתיך
דברך
יתלה
ילדו
עיגול
עבורם
שוקל
בגימ'
##בקו
דברוב
הוציאם
שתחול
דהמנהג
קובעין
דדייקא
צדו
ושפטו
הראב'
הספ
כהח
כו"כ
##פארות
שחולקין
ד"ס
שהקדישו
מעייל
ובזוה"ק
שחקים
האבילות
מכשרינן
צדקתך
שיגרשנה
מחבריה
##שא"מ
וששים
אית'
נדנוד
ראשן
במחצית
דטמאה
מזיקין
שנתחייבו
והוכיחו
נתכוונתי
##זהב
התינח
בראות
אעיקרא
תחבולה
בברור
טימא
וקדשתו
ואמינא
שחילקו
המשקוף
מתקנים
שיוצאים
ולקחתי
מה"א
אונו
כתותי
ובסדר
שבידם
גורר
חוסר
יקים
האנס
שבקת
הריבוי
בניקב
אישך
בשבתו
עירך
נסעו
ולר"א
נחשד
ודייקינן
דפירושו
ומינס
בסנה
בוטח
וכתבת
ומוס
הנוסף
קס"ה
רסז
גשמיות
הוצאתי
ג"ר
##ד"מ
##טרון
##גשים
##45
שאפרש
נשואי
מחמתיה
לזימון
דמרבה
אוריה
שמברכים
בכללה
ויפתח
שמע'
תחי'
דמהדר
כבשי
לאתנויי
טבלים
הערת
שימשוך
##צדקי
דיבום
חריפא
ומפתה
השחתת
מנותר
אאריך
בארצם
והפק
מקים
מגבין
למחילה
שרשאי
כסה
שמקדש
דתשמיש
##סהודי
העשויים
ערע
שטמא
שממש
מיס
לתנו
עדיפות
בנו"ב
קומת
##גרשו
הקדשות
מוסד
והגוי
שהגיעה
מחוורתא
סרח
שנדמה
מארבעים
הסחורות
דגנב
דתיכף
עליהון
הרהורי
ארבי
כיה
שבמה
לבזבז
לדיעה
וייראו
ליתו
##ולטת
דממת
כשירות
התחברות
הודאות
לנתינה
78
יברר
נערים
ומידי
במז"ל
##בורתה
##קדוקים
לאיצטרופי
תפלתם
##yu
##ברתם
והדרך
המשותף
משמשין
לבנותו
ומשכחת
השגחת
אתרי
בעיל
##יישו
מתם
אדעתה
וט"ו
הישמעאלים
להפליא
רס"ד
ושרץ
למלאכי
יכון
##2w
דבעה"ב
דקבלת
במהר"ם
אורחין
##רוגות
היקישא
שהכירו
ונחל
ותיר
בחזקתן
יפסידו
שהנותן
התנצלות
לבישת
ותלינן
מנדרים
הופך
מהריק"ש
##יתוי
##יתנא
##יב'
##יק'
ועברה
וזרי
יבטלו
שהטיל
בהכרת
השבר
וח"ו
שומת
שליחותייהו
ומושל
לשאל
עמדת
ולטעון
עיקרא
##re
דלחם
הפנויה
בניחותא
וכתבה
##בס
והברכה
מהקב"ה
השחין
התנ
מתאר
והביאור
דהולכין
וכידוע
מחצלת
בבקשה
מכלאים
בעלייה
ובגט
מוגלא
לשוט
##לועין
המעיל
משמוש
שנטעו
בחושן
מוכרי
ויחזרו
וטרם
##m6
##v6
ומפסיק
תי"ט
##נעני
איבעי'
##מכור
המבושל
הקרו
מתודה
כול'
כפיהם
מודיעים
ומותרין
הברזא
גריזים
חכמתם
gad
##ye
שאחז
ועלינו
שהעלו
דיודע
רצ"ב
דאשמועינן
סדרים
צידי
שמ"ה
שמכוין
בחברו
קולך
וצדיקים
בשותפין
##כמו
והטב
לשט
בוצע
ורזא
דכופר
##זבחו
לפרוק
##רצנים
נשיאים
בעיני'
ונכלל
דנכתב
דבהקדש
ובפוסקים
לאשפה
ובי"ד
קליות
התאנים
ואשתכח
נמרץ
##v5
##מוציא
מחזירו
##נותי
ופרוטה
קריאתו
רגלה
דאסיר
וחוזרים
זכירת
בקו'
דמחיל
סי"ד
אומדנות
הסוגיה
צחות
##אלים
דהמה
למתן
לתור
בצורות
דמחיים
דהתנאי
הנגיעה
ביעורו
##נעין
##קעים
מוצאת
ויחשוב
היבש
דמזוי
##ריף
שיעבד
לצמיתות
הרחמן
דאסרינן
דרחמי
gadol
אריך
##ספורת
וברית
החביב
מאתי
לכרוך
שהחזירו
להזמין
דבשוגג
נהוראי
##שול
##0l
מחמשים
ונלמד
ותולדות
##זום
שמאלא
כדאמרי
והנחה
התבואות
בשקלים
למדה"י
גיאת
שאתן
זוכרים
דסכינא
בראם
הקהלה
וואלף
mishneh
##מנ'
##יאן
##בי"ד
נגיד
מקובלת
שיחלקו
ריב"ם
לקיימן
וששאלת
מיסב
הצפורן
ולפנינו
מקוצי
דהרואה
דלהך
התוכחה
האמינה
ממשועבדים
המשוב
מדכר
דרכיה
תרכד
תנועת
התרנגול
העיקרית
##ירסתו
המולד
שריק
מיומא
כמשז"ל
להצניע
ושמירת
בשערו
זמנן
שנפרצה
##למן
##08
הריון
שעירים
##סרנו
עברתי
למעשרות
לאהבת
dir
##7c
הרכבת
כהנה
שקדוש
דבאשה
להודיעם
דעבדא
תברכו
בכתיב
הפתיחה
כספא
משפטיך
ממעילה
במאור
המליחה
שמרבה
הטבעית
לרועה
צירף
הגשמיים
רעוע
עע"ג
##ק"ל
להטריח
שהפס
שבמח
ונכבד
מפטיר
תרגומו
המתקיים
בבהמות
חשודה
##23
ועשי
מחלקות
הילא
תנעול
עשירות
דאומן
רומזים
המדי
שימלא
שיהרג
גזרי
שמחוסר
ויקרב
בזוית
שברך
בארבעים
הכתות
הצע
והתנו
ובשלו
ממלכת
היקרים
תלא
##פעלות
לאזהרה
שהרוח
דארי
וחובה
בי"א
מלאכתם
##סקנה
הצדוקים
רכ"ז
זדונו
שאמת
הרד"ק
תע"ב
##רגמן
דתם
צלות
המעי
באד
באיכא
באתם
למודה
מסוגל
ואחריהם
שא"ר
הרכב
הסביר
וישיבה
הזיז
תקף
דמסלקי
לזלזולי
בסכך
המעכב
עשרו
התרצן
פמ"א
##ושיתו
אייתר
בבאה
שהיובל
במובן
ראייתה
תמ"ב
והדב
החברים
ממקרא
שחושש
וכיוון
לקבץ
בלקט
דכרת
סמים
##ד"ע
##ae
ולאמו
ואפ"ל
דתלמוד
ורביעית
##ימני'
תעש
משתכח
##רוה"ק
בהשמטות
באנשי
לעדי
בפנויה
##לישה
דנבלה
סתמי
גרועים
סדור
רנ"ט
יפסול
שברו
##פולים
להפש
לויתן
אי"ז
ממעלה
תקמח
מעותי
##טפת
##ואש
וקושית
עכ"ה
שימכר
שתגיע
יבער
כבוס
מהר"ן
הנקבות
בקרבנו
ltr
לאדוני
שבקי
ברלין
דבריאה
שלומי
יבמי
דבעלי
צורתה
ונשבר
המותרות
ויורדים
שאנסוהו
בריב"ש
במוצ"ש
חקרי
##ציתי
ולצד
ולטבול
השטח
פרעת
בככר
ותעשה
ידונו
תיחוח
ברמיזה
יעזוב
לכתובת
שיקחו
ויסע
הכס"מ
הטלטול
##טרם
דקדש
כבס
מטיב
ציציות
תכסה
חגבים
רמיזא
ורחבו
61
כ"צ
##מומית
דבשב
מצו'
וחברו
כשרו
מגומג
ונפילת
קורים
שבמס
בת"ת
בתקופה
מדוב
יעבד
שהאוכל
בעה"מ
גנוב
##דימין
כשס
ויפסיד
דשעת
והריני
כפיית
פרושים
דבכלי
דתלי'
יירא
אוצרו
בע'
##תה"מ
מתחדש
דאיתתא
נשאתי
רצוצה
דאתינן
קמת
תשרף
יהני
##מב"ח
חסורי
המרק
סמכי'
באהבת
למשקין
תתקדש
למידחי
הצומח
פוגע
##kat
ובישול
אימי
אפקע
בדרו
ודחק
בנכייתא
וכדאי
האורג
המלואים
והנותן
והודו
משית
אבודה
ובעיני
אחז"ל
שנער
מבטא
כשנג
חדרי
אכלן
בהג"א
##sw
לע"ע
כנדה
הזורע
המחלה
שונאים
ולזרעו
מעניני
מדיר
גדיל
וט'
פקחת
שיטתיה
>✭
##dl
להקביל
ועסק
##דונה
שיחלוק
פלגש
רי"ח
חנוכת
השמאלית
##p6
ומעי
ולעד"נ
וד"ל
והנשאר
אתרמי
בתוס
שכול
נאמ'
תקנתו
דמאיס
בבואם
חברה
תערוב
והחיות
רשד"ם
לעומק
דהבעלים
וכבודו
בנחלה
מוהרימ"ט
משמח
בארי
דבחזקת
ותור
יעבר
ומיעו
וכהא
מלמעלן
היתרון
למוכרן
הסמוכות
וליל
ובר"מ
שהוחזקה
להדגיש
הגמלים
מחזירים
לדחויי
##רייא
##ירו'
והיד
הבושת
##כחול
רוממות
מילת'
דבדאורייתא
הרחקת
כבנים
חתימות
מתפשטת
מפירין
תחליפא
##m1
והשר
במעלת
הנסתרות
וגור
ורבן
שיתבע
אכלת
ויקיים
##יניש
והפני
מה"מ
מהמקור
ונסתר
כארץ
לשוחטו
הקולמוס
עונותיהם
כידו
ישיבות
ממזוזה
##שימו
בשוטים
דמהך
שרשים
במקרים
המנהגים
אמוד
ימה
מקטר
לדיון
##קדמה
כקורא
ופטורין
תלישה
חזור
ימוש
ובב"ש
החור
וקצתם
הטביחה
חינם
דהוריות
לד"ע
##מותא
מסובין
חרפה
לאישים
ותיקן
##ואתה
בשמירתו
נחייב
בשלישית
ואזדא
כשעבר
החרדל
בשיירא
מהכי
ובמצ
בשטח
במ"ל
הנחנקין
זקופה
הבי"ת
זיתי
הבטחון
יתערב
קדמאי
##סוכנת
חשמל
האבני
באחדות
ברונא
ת"א
##t5
לעזי
שדח
מטהרים
בכותי
דוסת
##fo
##וי"ל
ושמת
הוחל
דחיובא
לצבא
רעיון
דהוצאה
במע"ש
לצררי
נתהו
##מוכים
ולטעם
בחרת
##תיבתא
בשובר
מודעי
ובתפארת
בשמועה
בביאתו
77
דהמחבר
מומא
ביצי
נודרת
דהלל
ומצרים
מעיה
הסיד
עבים
גזלו
לאבוה
ושונא
דליקני
##נניה
##כללו
שלעתיד
מת"י
ביציאתו
##ניו'
##פכם
##jo
בהודאת
וינו
עגלים
אחע"א
השלימו
וענינו
הדביר
דלים
לד"ת
במשמר
ובלח"מ
##נדבים
למיבעי
שכמעט
לצרה
כפירות
לברייתו
פ"ת
##p8
##jn
במתה
אזכור
נדרת
ומכסה
ומשתמש
הקהילה
אולמא
קיבוץ
##כילות
##צפ
ובחזקה
בכנסת
דגא
בנידוננו
שדקדקו
מראין
סירוס
צבוע
שבדין
הנטען
מדכ'
ונשלם
בגסה
לרשום
שראויה
נוקבין
66
קשוט
זהו'
ותפילה
כוכבי
יתוקן
##06
שביטלו
לשקיעת
לרחל
לנחש
שראהו
הצלעות
לזקן
##מאין
מתרבה
מר"י
והנתבע
נמכרת
שהשכל
למלאכים
קוף
והזיקה
לחבול
בזרו
תר"י
לצירוף
קריב
ובה"א
להגמרא
מציאתן
כתיפו
##פ"ג
##jb
חוטים
המופת
##סיפו
במוש
בעמק
כשמז
משליך
העיירות
יניחנו
שלאחריה
מ"ן
הנם
מסימן
ותז
תקיפה
ולהני
ארבא
לשוני
בלבך
ה"כ
היכ'
##ובעים
שוחק
ויולדת
והלילה
ותבעו
ד"ל
ישברו
לכסא
פסיעה
חוכך
תרסט
##רחקה
שביתתו
##ריק"ש
##3c
##28
בראי'
והקטן
השחרור
ומלאכי
מסהיד
##מוכין
האצבע
דהוק
למ"ה
מחיקת
מביט
כשעומד
שיתירו
דמוקים
דנוגע
מחולקין
בנק"ח
##ינוהו
מתמן
מוכשר
ויפרע
שפוד
קמפלגי
סערה
ורי"ף
למעל'
בתשב"ץ
וחנוכה
אניס
תרופה
מחיצתא
מטור
##hl
באפותיקי
למקרי
הערעור
שנטע
החמר
ברשע
קיימה
קפ"ו
##סית
##98
והסת
בדמיון
מחולק
ותלך
קדושתן
מערלה
מהריק"ו
ד"ק
##dk
##ינק
והשבת
לקדם
דשכ
##סייעו
הולכי
לחזקיה
שהקונה
שכתיב
וזולתם
מנינן
כחטאת
תחוש
המגפה
##זאזל
ומות
ואחיה
והר"ר
באחי
הצ"צ
פירורין
שיסמוך
מכתבי
ללק
ונסתלק
ופתחו
כמצותו
קע"ט
##etz
לשמאלו
התולדות
וצפר
ויתע
בטוחים
נפסלים
להריגה
לתלמידי
וארי
בהשו
לק"ק
בקשתו
תלושין
שנגלה
דלרבה
שו"מ
השליט
דשוחט
נשרפת
הספיקו
##נייא
בהשל
##יכלו
דמ"ק
לגזרה
דנטל
הכלכלה
ירגישו
במו"ק
נסדק
in
אעל
אחה
כתבן
טעים
עירם
ונרא'
שלשלת
משיכת
ושנת
מבינה
##כיים
שקנא
יאחר
דשויא
קטלנית
לציצית
שליל
בשמע
במגלה
הכ"ג
מחס
דקס
שתתני
מעותיך
דמקלקל
שילמד
הרמז"ל
מולך
ולשונו
במגדל
מתלמיד
דחנוכה
בשבעים
ושבק
סייע
##mi
וגרם
וחוב
טומאתן
שלבסוף
ישיגו
כדפרישנא
א"פ
יבלת
צופים
כימים
הבטן
וחב"ח
קראם
החצרות
ובנצח
גמגום
וצל"ע
שיירא
בנייר
לס"ס
חוזרות
שהדעת
הננו
הקפת
##תובעים
והאלהים
נשואים
שר"י
קא'
בואם
היכלא
יקומו
צירו
##f1
הנסתר
מאמרים
לצבוע
עפ"ד
בחת"ס
ותלמידי
אחוזתו
בקלי
שישן
ומוחזק
הברד
תמיהתו
שהטילו
תמורתו
נשוב
##j1
מפול
מגודל
ענשו
ובחמישי
זיי"ן
##פלאות
וכ"ע
##מייא
מתיבת
אסורי
כביר
מפקיעין
שמרמז
שכירותו
מרחשון
ריה"ג
##רמי
ולסוף
ועצים
דמדו
דעבודת
דמשקר
ושאלת
בביאורי
##r8
דבמאי
יתקלקל
##צוחי
##בותם
מינכר
כותלו
האמורא
דא"ש
מגזירה
##פתור
##כשול
ותבונה
ממדינה
##מא'
מחויבת
ואע'
בחפזון
וטרו
עמש"כ
##עברה
וכחו
במדו
הראשי
לאוכוחי
גופני
אמתא
לינק
הפרוסה
##יבשו
מתברך
ממטלטלין
בצפורן
גרף
##יקריקון
המאה"ג
היתומה
מברכה
##וד'
הקצירה
בביתה
פסלי
דקמ
דימה
תמיהני
השגתי
כמעכשיו
מתעסקין
חמוץ
כורש
עיי
בהנחת
הדגן
ספ"ג
נשותיהן
הוליך
דלקוחות
עצתו
ומהכא
לסעוד
ניקבו
מבדילין
נטוע
שהבת
##וקמתא
הכפר
לב"מ
החזר
החשן
ניגוב
##eti
השתיקה
לפירותיו
ושותק
##zu
##רומי
ולחי
בא"ז
באברים
בעבירות
שעדות
ביתם
במחיר
סודרא
אשבו
##t6
הייחוד
בפרטי
אענה
הטיפה
שותפי
תוב"ב
ומשא"כ
שסתמו
דהשב
שמוחזק
שמוכרח
שהקנין
רצ"ד
מהגדולים
הנקנה
##זיפה
במסירת
קמבעיא
כטל
##פ"מ
שהשי
וגלוי
שבעבור
חטאיו
השט"ח
שהשוה
מהלוקח
לחז"ל
הסולת
נגנבה
באחותה
מאבריו
כאח
שיוסיף
תנאף
נוטלן
נפסקו
באחרות
צרותיהן
##מהמה
מתירה
הזכרה
עניניו
בדוכתי
ללון
שפלות
##ame
##אי"ל
ושמש
שחלו
ומחיה
נתייחד
לדאוג
הכה"ג
משוט
המניעה
סט"ו
##יומה
שאביה
בכ"ח
יר"ה
ראשיהם
תבשילו
לאיחלופי
גרוגרת
##hw
עלילה
ולכו
שבשר
בתואר
בח"ש
ונדמה
כה'
הזיווג
אדמתך
ארנקי
קורעו
בתביעת
פגמו
מתיבתא
ותסברא
ת"ז
##פצי
לאחותו
ומבר
שמלו
תקסב
##גאולה
והוכרח
נתחזק
לתורת
להתדבק
תשכב
וטענה
זצ
מה"ב
הגילוי
גדליה
איסור'
דיצחק
יגיעה
להאכילה
ומרבה
קניני
לעלמין
חביבי
לתלמידים
גיבול
המביאים
שמדת
העשירים
מע"י
להק'
ניצל
קרבים
לחייבי
דממנ"פ
ג"ד
נצור
דבאת
אבידתו
יערים
##גהה
לראשונים
יורשו
ולשמור
ויעו"ש
מגז"ש
ועשתה
##ינתן
באפו
מתלבש
וש"ת
בלשכת
ואכלתם
##וקות
##שבעים
דשמו
ופרטי
מוהריב"ל
בבה"ל
הרוחניות
בהקדים
סנהדרי
סיומא
שבלים
##r1
דמילת
מקצר
דחזרה
הזאות
##לחמו
נשאלה
##נעלו
##חזת
למאור
בשכיר
הקצוות
##נותיהם
בכפי
הסט"א
נאמרים
זכותה
ומאוחר
##7l
דמיבעיא
מאפה
עצל
לתגר
חלקך
אאמ"ו
הניחם
##ב"מ
וארו
למריה
ממצה
כפילא
שסידר
המיצר
מתאבלין
ונדבה
>•
דצור
פלאי
##צעת
דהחמירו
באגר
הצלי
אנושי
גוונין
צוואת
קדמוניות
דבינה
הכתו'
מגול
תהלות
כמש"נ
יחידית
פטריה
הכרמל
פרשתי
##fe
דאבה
דמנחה
מוטעה
לששה
פיסוק
נחלקה
טהרו
עתיקים
ולימד
משמרתי
דלמטה
מכתבך
לעבדי
דקריאת
השלג
בודקים
עיוני
##טץ
##ואם
להפליט
ותלת
מזלא
כמצוה
חידושא
דשתיקה
תותירו
קעד
אפוקי
לגירסא
שנתפשט
והר"א
כפופים
להתעשר
נבוכד
לרוחב
הצום
##עלמה
בהקי
וע"ב
בגזירת
##מש"נ
שנאמ'
הצעה
נהמא
שיתגלה
משבעת
סומכת
דסומא
בנדתה
היישוב
יפליא
##r3
האמרי
דביו
##יטן
הקיפו
מכתו
שחק
וסמ"ק
בבאו
פושעי
הוצרכנו
שקיבלה
בש"ר
השחור
למצוות
הראני
כסליו
ובמק"א
במחצה
שלד"ע
ונסכים
##43
ומתחייב
לי"י
פוטי
נזכה
להט"ז
הנרמז
דנתכוין
משרע"ה
##____
##p5
##jy
דביני
כדקי"ל
דתרומת
מתחזק
ימלך
ונופל
סמנין
לזרז
תכונת
א"ק
ד"ד
וטלית
##9x
ומציאה
מש"ז
ישנות
##שבצות
הראו
מפלוגתא
והמ"מ
כעור
שקבלנו
ווייל
לתנאיה
החריץ
ח"כ
לבושים
דלכא
וחושב
המוך
קטרוג
כפופה
קצ"ט
ליבמתו
מרובות
וצרתה
אסתלק
והובאה
יריכו
ומאיר
הנכנסין
ביכולתו
חתוך
שהשבועה
משחיטה
מתחילים
ויתור
שינוייא
ותחלת
במלאכות
אעתיק
רחי
מבשרו
יתפור
אזכרה
מטפחת
הורדה
דנותנין
דפקדון
לסור
ובשבועות
מקבלו
בקלף
לטבל
ובעוף
ומדכתיב
ושרף
שהציבור
דשלוחו
שהחלב
מתשובות
ונבלה
דרמיא
דסבור
וכלשונו
אשפה
דיפה
ויומא
מחשבותיו
מוהר"א
מותה
שיתי
תיש
וכרות
המשרה
השיתוף
הכחל
שתגבה
המוטלת
ויחזק
דלהרא"ש
מיעוך
שבלשון
אקשי
ליטרין
הבימה
בפלפול
תכי
דהכתוב
התפלין
בכבש
הוון
דויד
דשייכא
ההקדמה
והישראל
שהמית
##נועין
וביתר
לערות
לבטא
אבע
שדינם
נטיל
שיקנו
וחוצה
ההיפוך
העוזר
ולהעמיד
להפיס
##פלפל
יחולו
המערכת
מרה"ר
##ר"ש
##כללות
הנבלע
וזל
הנרדף
יצו"א
לתוספות
וישמעו
הרמ"ב
דאשם
משיטת
מדחזינן
בידכם
דכתבי
בעבורם
ששוחט
להבדלה
בתולדות
##יותן
וי"ג
##פיסול
חבירי
##ליע
עליונות
שישארו
נסמכה
סמכות
נזכרת
ויוצאה
מקודשות
בעיקרו
הכובש
בפשתן
##פש'
לנחל
מבטלינן
לדחוקי
ודיין
##פזרו
שהצדיקים
דמקוה
ירפא
במסל"ת
קולט
כשנפל
גבורתו
אזרח
ולוקין
##נניא
לאבר
##נונא
דהפק
ומלאכה
לחמך
ונגלה
כדעה
בקרון
##פוחים
ולהרא"ש
מציעתא
שבעצם
שיחו
המאו
להשמט
דאחריות
אישתרי
##בנאל
בכב
ההוה
בזימון
ממשכן
ד"ג
והדומה
##לוכי
השד
ושקר
עירנו
דזמנין
פוטרים
שלכתחילה
שיטעום
75
מתפרנס
רוגז
תנ"א
שיחתמו
חביתא
ומניחו
לכסותו
שבוי
מדקדוק
וחני
בלבן
דנתבטל
אשיר
בזיקה
ארכה
ומספקא
##hoshen
חקק
דלרבינו
שחיבר
##חז"ל
דמ"ט
מוגה
ותרווייהו
כרס
תוכה
משהינן
בינם
דמדה
ופטורה
נימין
אר"ח
שוהה
ומעכשיו
דבדיני
במלואו
ללאה
מליצה
##כיך
והר"ם
בתחילתו
העתידות
וממשיך
למלכא
ונשתנה
לנקוב
חסרונו
דאני
כאר
מליל
דגי
והנ"י
ונילף
ארונו
נצטוינו
##רצן
כהש"ך
עגלות
##קנים
דאמצע
לווין
##על'
שמלאי
בחינם
וחילק
המאירה
המימרא
שצי
##ל"מ
##מרון
הגעת
לדיו
בגינה
כשלע
בני"ד
הגדילו
מהרשב"א
ונתקדשה
דזכין
מכפרין
##05
למקח
הנפלא
##עי"ז
שפיכת
##פסקא
##כריזין
דבאופן
שהחפץ
ואבני
##פקעינהו
שנוטלין
##ב"ר
##בוכדנצר
הקונים
מסוגית
##tn
##jz
שניו
בריבוי
מדעתיה
מגלגל
התקנות
דנתינה
שבדברי
במכ"ש
ככהן
##נשין
התורת
ואומרין
ומקצתן
דשופר
וסתמו
פיקח
##וות
##9s
לאגלויי
שהאי
המקי
ובבאר
בשחר
יתגדל
דגזר
שקאי
כמפרש
הודית
נתהוה
השמרים
שנחל
תלמד
בצבא
המרור
כשלג
וחולקין
האבד"ק
ענותנותו
דיניו
קצרים
##פג
העטור
דרמ"א
האסורות
מתרמי
כבישה
ושורפין
באגרת
דבנת
וקציעה
אהלו
##וראתו
משלחו
באה"ר
שדרכה
חזייה
ודרכו
לאינש
מתנגדים
יישר
שולי
שטים
##נסתם
##46
הקובע
פסיקת
ליותר
##שוב'
גביר
נהנים
החיצונות
דתיבת
נמד
##זלי
בשעות
ונשאו
ותרין
תליתאי
יקפיד
שיכתב
הלומדים
להפליג
העתקתי
הוא"ו
וביראה
מששה
בספיקו
רעיא
הנוטה
בפירושיו
המוכרים
ולר"מ
למאמר
וטי
ויאה
ושיח
שונאו
הסובב
כרעא
יבשו
בשבחו
ותחנונים
וכמפורש
קבוץ
ושוט
ואורך
שבקו
מעדן
זוגו
וימותו
מפניך
הפקידו
ויקב
נכתבים
וילדו
##ללו
מתואר
יתירות
להתודות
אבדק"ק
מוחלטת
שנטמאה
לאסהודי
וכתר
במנו
ביכל
ודומיא
התוגר
דניכר
##9g
אתעביד
שמועות
ללעז
שפטר
שפיכה
##עבדין
שהוציאה
מדרכו
הנשואה
##פ"א
##פידה
בעמך
הנהיגו
##כלוך
ושכ"כ
ככתובין
תטה
ואמן
וענה
שתיכף
סוברת
בזוי
יאכלוהו
להשכיל
יובא
ובניהם
לשנא
השתחוה
ללימוד
##גבל
##au
אמר'
##תאה
ושמרת
תפאר
שיתב
ואליהו
השפוד
דאורחיה
מוקדמת
דביאת
היסורים
ההפסק
##מצ'
שהאמינה
שהתירה
מיוחדות
מערכות
לשמירת
נתכוונה
תחתונים
וכדקאמר
עקרב
נפלאת
לתקנתא
יקוץ
החשובים
רשום
##י"ת
והכריח
במקבילה
העבוט
דחי'
תוכחות
שמתע
מראיה
בטופס
##קנות
##9c
##יכהו
מבורך
לתינוקות
מנכס
ודומיהם
ואב"א
שהשביח
לשכיבה
איתה
צ"צ
ומתבאר
בהרים
הביכורים
##טעמיה
אטום
##נדבו
וזולא
ו"ק
הכשרה
בתוד"ה
מוחלת
עליה'
יינן
דהודאת
ובניה
שכורה
מוזהרת
כדפסק
הראבי"ה
משליש
דמשעה
ולתפארת
השפעות
שישתמש
והבהמה
וכחש
שמפסיד
שכחת
בבנות
בנשא
תדחה
הפשיטות
>׀
רשא
שבעו
ועמוד
בפנ"ע
הסטרא
יגביה
ומביאה
המנוגע
סקי"א
דחולקין
דתיפוק
##7q
##רבית
בתחיית
##פייא
##תוספו
לנקום
צבאם
ואוקמה
דתחלת
קרש
##לכו
להמצא
למכ
דמיניה
##פקדו
נחמיר
שדרכם
אראנו
כשהבעל
>׀</
טצדקי
אלוף
שיערו
פירעון
הרובע
מהעולם
ממרחק
התשיעי
דבדק
בדנ
במקנה
וטבלה
אמרינין
והימים
וטובלת
שילהי
##מיי
מגורי
למדחי
מניחן
מעוות
ומציל
בסה"ד
רט"ו
דאבר
לובן
דמלך
אסה
באשר"י
שהונחה
##לאך
שהברכה
מהטבע
אחזיק
רבתא
התולדה
שוחה
ותרוייהו
יעזור
בצידו
ויתחיל
זכורך
כשיצאו
התימני
##p2
וח'
נתמנה
לסניף
דמהכא
בארצך
ובתב
דבשם
למנה
##שביה
בחתם
שע"ד
נקר
##קבצים
נחמה
ויתיר
קצ"ז
ומסבירים
מלכותך
חקוק
ק"ן
##יונית
הכירא
אפתח
בסולם
ושמים
דק"ו
כשהוציא
מתוקים
רנ"ח
##נמות
##קורי
שמסופק
וגירסת
בטבת
לציר
והמ"א
פסי
וקח
שישיג
דגורם
##שמעי'
בשרם
ומנשה
##מינהי
##כדו
משארי
פלטר
דאתרוג
##דרינהו
בטב"ע
קופמן
דחתיכה
שהפך
שמ"א
מעזיבה
שתפסו
נחזי
דאימור
לטעמו
דמחשבה
חותמו
דבריהן
שנפרץ
אחזקתה
חשובות
יחתמו
בשילה
לשעתו
אב"י
כשקרא
גבתה
המרחק
שיבדוק
ולקיטו
גבוהות
לנישואין
הרגת
במוחזק
הלוג
שמספר
נתקשו
דהחילוק
המכחישים
כרוח
תרש
##mz
באו'
שנצטוה
מתמיד
כשכל
ניתוסף
79
שליכא
דבגד
##וסתות
עד"מ
##יותם
מוהרשד"ם
המסית
נשבה
שארו
האבלים
במלות
לפניהן
תשתכח
ניתרת
יסקל
##t1
לביאור
ברתא
בגיל
ימי'
ציפור
למכרם
גינת
נגיעת
שהתוספות
כדינא
נימוקי
שמוסיפין
בכי"ע
מכריח
הגביהו
יכבס
##ט"י
##תומות
זהר
מקולי
פרצות
ההתחייבות
##מודע
##נגדה
דאזלא
ושעורין
##קרת
באחות
ארח
מדר"י
ושביעי
ולכתחילה
וטובל
איתרמי
ב"ז
##ככו
##זלא
כלכלה
והוחזק
והעביר
דיהבי
חקקו
להב"ח
מעלו
בגנות
בלולה
נתתיך
תרימו
דבחצר
קדמונינו
דקב"ה
טיהר
המידה
ולקו
ונבא
כשיק
ובמנחה
ובצירוף
##כונא
ידעין
##חתכו
מסקי
שמתרץ
דמחזיר
הישרה
לפוסלה
חי"ת
חיותם
ודות
וגירש
אבקש
הצעת
##גרין
שניתק
לשרפו
בשכינה
משתחוים
שמותיו
התולעים
דרביה
פיס'
שקטן
ההפלאה
בחוקותי
גרא
דארוסה
השורות
שמרי
נגזור
קיסר
ערלת
[...]
